<unk>	0
<s>	0
</s>	0
▁а	-0
ар	-1
▁и	-2
әа	-3
ара	-4
еи	-5
▁,	-6
ра	-7
▁.	-8
ла	-9
әы	-10
ан	-11
тә	-12
▁у	-13
▁р	-14
ҭа	-15
оу	-16
ьы	-17
қәа	-18
▁ҳ	-19
▁иа	-20
зы	-21
ны	-22
хь	-23
на	-24
иа	-25
уа	-26
▁д	-27
ыр	-28
шь	-29
гьы	-30
ха	-31
цәа	-32
ит	-33
ма	-34
қә	-35
▁ш	-36
ԥс	-37
еит	-38
▁1	-39
за	-40
ба	-41
ҟа	-42
ҳа	-43
ԥш	-44
▁з	-45
▁:	-46
хы	-47
ҵа	-48
ҿы	-49
оит	-50
▁еи	-51
ка	-52
тәи	-53
ҳә	-54
▁ры	-55
▁a	-56
хә	-57
▁аи	-58
га	-59
ры	-60
▁аԥс	-61
▁с	-62
ус	-63
шә	-64
▁аб	-65
ри	-66
▁)	-67
▁уи	-68
хьа	-69
▁ак	-70
ҩы	-71
ӡа	-72
▁@	-73
-@	-74
▁@-@	-75
жә	-76
да	-77
го	-78
▁2	-79
▁ан	-80
▁ҳа	-81
шьа	-82
▁(	-83
оуп	-84
лар	-85
▁?	-86
он	-87
гәы	-88
ын	-89
▁м	-90
аны	-91
ша	-92
▁аха	-93
▁на	-94
са	-95
ыл	-96
▁ах	-97
цә	-98
▁ра	-99
▁«	-100
ст	-101
▁ам	-102
▁»	-103
▁ад	-104
ва	-105
зар	-106
жь	-107
гәа	-108
ҳәа	-109
▁ауа	-110
ҩа	-111
ыз	-112
▁ма	-113
▁ар	-114
гә	-115
ана	-116
▁ие	-117
▁аа	-118
▁да	-119
▁иара	-120
әыр	-121
▁аҟ	-122
жәа	-123
▁б	-124
ьа	-125
▁аԥсны	-126
ҵара	-127
уеит	-128
уп	-129
▁иего	-130
шәа	-131
дыр	-132
▁нас	-133
▁шә	-134
ура	-135
▁из	-136
ин	-137
▁иегова	-138
ԥа	-139
рҭ	-140
ԥхьа	-141
▁анцәа	-142
тәы	-143
ҭы	-144
▁ал	-145
▁ир	-146
▁уа	-147
ес	-148
▁зе	-149
▁азы	-150
▁ала	-151
мҭа	-152
ыла	-153
ор	-154
▁насгьы	-155
▁аус	-156
ли	-157
▁ҳара	-158
ықә	-159
▁ҳәа	-160
хра	-161
ис	-162
ареи	-163
әын	-164
гь	-165
ом	-166
▁ауаа	-167
▁л	-168
▁аҿы	-169
аи	-170
▁ап	-171
▁3	-172
хәы	-173
▁аз	-174
гара	-175
▁иш	-176
▁—	-177
▁аҳ	-178
бжь	-179
ер	-180
▁ана	-181
▁иҟ	-182
ым	-183
▁аԥ	-184
▁–	-185
▁к	-186
▁иҟа	-187
оз	-188
арақәа	-189
бан	-190
▁аӡ	-191
ҩаԥ	-192
▁п	-193
▁иры	-194
бас	-195
зиа	-196
▁урҭ	-197
лиа	-198
ль	-199
ӷә	-200
ала	-201
циа	-202
ур	-203
▁;	-204
▁ақ	-205
ен	-206
▁зы	-207
қәеи	-208
гыл	-209
кәа	-210
▁е	-211
лш	-212
заара	-213
▁иис	-214
▁иисус	-215
▁аҭа	-216
қь	-217
џь	-218
▁зегьы	-219
иб	-220
ықәса	-221
арра	-222
жәлар	-223
ир	-224
▁ажәа	-225
кы	-226
▁ин	-227
▁ари	-228
хәа	-229
▁ус	-230
гыла	-231
ол	-232
▁убас	-233
әынҭ	-234
▁им	-235
ҩцәа	-236
▁4	-237
▁ина	-238
әынҭқ	-239
▁рзы	-240
▁“	-241
▁иаҳ	-242
заа	-243
зеи	-244
цәеи	-245
▁ас	-246
▁реи	-247
▁ахь	-248
хара	-249
▁ама	-250
әынҭқарра	-251
ек	-252
қәыр	-253
каа	-254
▁агә	-255
▁”	-256
иблиа	-257
▁иаз	-258
ҵә	-259
бара	-260
▁абиблиа	-261
ыс	-262
▁аф	-263
зара	-264
зи	-265
▁аҳәынҭқарра	-266
▁х	-267
ҭыԥ	-268
▁ҟа	-269
▁уб	-270
ынтә	-271
ҽа	-272
ҳара	-273
шьҭа	-274
▁ац	-275
ҭоу	-276
лара	-277
арц	-278
ҟә	-279
▁5	-280
▁шәа	-281
тәыла	-282
си	-283
▁ахы	-284
рақәа	-285
ҳәара	-286
гӡ	-287
ро	-288
ҿа	-289
▁шықәса	-290
неи	-291
моу	-292
▁иар	-293
▁аҩ	-294
▁ла	-295
▁иҳа	-296
▁аш	-297
ил	-298
кә	-299
ӷь	-300
ти	-301
▁избан	-302
▁иҟоу	-303
▁агәы	-304
▁н	-305
▁бзиа	-306
▁ха	-307
арҭа	-308
▁аны	-309
ди	-310
▁убри	-311
▁ша	-312
ԥса	-313
▁иу	-314
тәа	-315
ҳәеит	-316
▁!	-317
ет	-318
▁аамҭа	-319
шьҭ	-320
ҭах	-321
▁иан	-322
▁рыла	-323
уаз	-324
ьыр	-325
цәажә	-326
реи	-327
▁6	-328
иҭ	-329
ҭаа	-330
▁аҵ	-331
▁иаа	-332
кны	-333
▁иха	-334
▁20	-335
ԥсы	-336
ку	-337
ҟь	-338
цхра	-339
есс	-340
хоит	-341
кыл	-342
▁19	-343
▁10	-344
▁аҭ	-345
еиԥш	-346
ов	-347
әым	-348
▁има	-349
ат	-350
уан	-351
▁еиԥш	-352
▁ду	-353
▁зегь	-354
заргьы	-355
ист	-356
▁дара	-357
хо	-358
▁сара	-359
▁хы	-360
▁7	-361
▁ԥ	-362
▁ат	-363
▁ахә	-364
ча	-365
зыр	-366
▁ашә	-367
▁ахәы	-368
▁аиа	-369
▁за	-370
шара	-371
гылара	-372
▁са	-373
▁аҟынтә	-374
арԥш	-375
арҭ	-376
▁ды	-377
▁рҟ	-378
сы	-379
лаҳ	-380
▁рахь	-381
лы	-382
доу	-383
хәыц	-384
ем	-385
▁рҿы	-386
ҟәы	-387
▁иахьа	-388
ратә	-389
ца	-390
▁8	-391
▁аҟәа	-392
▁в	-393
▁аҳа	-394
▁агәа	-395
ҭазаара	-396
▁ауп	-397
ел	-398
лоит	-399
▁иԥа	-400
▁15	-401
▁11	-402
▁шәы	-403
▁ажәабжь	-404
▁9	-405
▁12	-406
лшо	-407
▁жәлар	-408
▁аг	-409
ҵо	-410
▁иша	-411
заашьа	-412
алақь	-413
бжьара	-414
▁ара	-415
ларц	-416
▁&	-417
ент	-418
▁аҟа	-419
ресс	-420
▁аҽ	-421
▁г	-422
ҭар	-423
▁ав	-424
ос	-425
ҷы	-426
▁егьы	-427
хьӡ	-428
цхраа	-429
шәара	-430
хыр	-431
мзаргьы	-432
ло	-433
▁ауаҩы	-434
▁ҩы	-435
▁егьырҭ	-436
гьыл	-437
▁ахада	-438
инист	-439
ҵаз	-440
▁иала	-441
шьҭахь	-442
▁аба	-443
▁гәы	-444
▁аԥсуа	-445
▁уры	-446
▁аду	-447
лак	-448
ҳәоит	-449
хьы	-450
▁ф	-451
▁ио	-452
▁мамзаргьы	-453
ҵз	-454
▁аҵа	-455
▁аҭыԥ	-456
лоу	-457
ҩаԥыс	-458
инистр	-459
ҟьа	-460
▁14	-461
▁акә	-462
▁шәара	-463
▁ҭ	-464
уль	-465
▁еиҳа	-466
▁аса	-467
зыҟа	-468
▁иб	-469
ӡам	-470
▁13	-471
▁амш	-472
▁ииа	-473
хар	-474
от	-475
▁раԥхьа	-476
ед	-477
аратә	-478
лан	-479
▁адунеи	-480
▁ес	-481
гоит	-482
џьа	-483
▁рхы	-484
▁аҿ	-485
▁ди	-486
анӡа	-487
ика	-488
▁иарбан	-489
ера	-490
▁аҟны	-491
▁шьа	-492
▁т	-493
▁изы	-494
ҳәы	-495
ӷәӷә	-496
ҳәо	-497
ԥша	-498
▁даара	-499
цәы	-500
▁агәра	-501
▁ишԥа	-502
▁ацә	-503
ид	-504
геит	-505
уб	-506
▁дыр	-507
ԥхь	-508
хәаԥш	-509
ӡара	-510
им	-511
ҳаҭ	-512
ӡом	-513
▁иԥ	-514
▁ақалақь	-515
ызт	-516
ӷәа	-517
ҩаԥга	-518
стәы	-519
▁&#	-520
▁ақә	-521
▁ашьа	-522
џьы	-523
▁урыстәы	-524
кра	-525
ила	-526
ҵеит	-527
▁ихы	-528
ҩс	-529
хьч	-530
▁аҭаа	-531
жьы	-532
▁аин	-533
хаҵара	-534
хгара	-535
хыра	-536
сиан	-537
арт	-538
▁17	-539
аразы	-540
ҿыц	-541
▁16	-542
нар	-543
▁&#9	-544
▁ада	-545
ҭеит	-546
лшоит	-547
хеит	-548
ӷәӷәа	-549
ыхә	-550
▁атәыла	-551
ырԥш	-552
▁иажәа	-553
гьа	-554
ҷқәа	-555
▁иахь	-556
▁уара	-557
▁ҭа	-558
ьырсиан	-559
бо	-560
ани	-561
▁ба	-562
▁иц	-563
шьра	-564
ион	-565
ҟан	-566
чы	-567
қәиҭ	-568
▁абри	-569
▁ка	-570
▁аҵара	-571
▁даҽа	-572
тәу	-573
хын	-574
ду	-575
▁азҵа	-576
ҭара	-577
▁апро	-578
▁аҳәынҭқарратә	-579
дара	-580
▁иҳәеит	-581
▁ашьҭахь	-582
ҳар	-583
▁абз	-584
ӡыр	-585
кәан	-586
▁еил	-587
▁ц	-588
▁иреи	-589
ыҟа	-590
▁аҩы	-591
▁аизара	-592
ҵоит	-593
ҵар	-594
бар	-595
ҵәа	-596
▁аԥса	-597
ырг	-598
каара	-599
▁инар	-600
▁аллаҳ	-601
▁урыстәыла	-602
ект	-603
▁18	-604
▁ис	-605
шьоу	-606
гылазаашьа	-607
▁адгьыл	-608
ци	-609
▁рҟын	-610
▁ии	-611
мза	-612
▁аан	-613
лам	-614
куа	-615
ни	-616
қәы	-617
ԥсҭазаара	-618
шықәса	-619
оуҳа	-620
▁ақьырсиан	-621
пресс	-622
▁анаҩс	-623
▁алш	-624
▁иҭа	-625
▁аусура	-626
дыруа	-627
ҵзура	-628
ҭеи	-629
нак	-630
▁игәа	-631
ынч	-632
леи	-633
тура	-634
даҩ	-635
▁аст	-636
▁аԥсныпресс	-637
сҭа	-638
▁аза	-639
хәара	-640
▁арҭ	-641
▁ишә	-642
гәеи	-643
▁мин	-644
ариа	-645
ыхәтәа	-646
▁аԥы	-647
▁иал	-648
рист	-649
мыр	-650
▁џь	-651
▁ау	-652
орт	-653
▁анап	-654
ҟьаны	-655
▁иҟала	-656
▁акон	-657
▁ахьы	-658
▁иоан	-659
▁адыр	-660
ӡба	-661
лика	-662
ызшәа	-663
ху	-664
кыла	-665
▁змоу	-666
гәыр	-667
ҵаны	-668
ев	-669
гра	-670
▁зны	-671
▁ажә	-672
шы	-673
зиабара	-674
ықәс	-675
▁ака	-676
лаԥш	-677
цәара	-678
▁ашәа	-679
цара	-680
ав	-681
мҩаԥга	-682
▁ҳә	-683
бырг	-684
бы	-685
▁избанзар	-686
▁ҳаз	-687
тер	-688
▁аиҳа	-689
▁аҵыхәтәа	-690
▁ҿыц	-691
хи	-692
▁сы	-693
шьара	-694
▁асп	-695
ԥыл	-696
зым	-697
▁аҳәа	-698
▁ач	-699
есп	-700
лтә	-701
ҟоу	-702
озеи	-703
феи	-704
аҭ	-705
ублика	-706
уаа	-707
дҳәа	-708
ҩан	-709
ҭаху	-710
цәаны	-711
шьцәеи	-712
газ	-713
баа	-714
хаз	-715
ныҟә	-716
гәра	-717
▁аарԥш	-718
▁201	-719
▁мат	-720
жәы	-721
рыц	-722
▁аусқәа	-723
шәы	-724
хыраара	-725
ик	-726
башьра	-727
ԥшуа	-728
ыц	-729
ле	-730
иара	-731
ҭаз	-732
▁иоанн	-733
гар	-734
ӷа	-735
маз	-736
▁иза	-737
▁жә	-738
уаҩ	-739
ҵана	-740
▁о	-741
алак	-742
леит	-743
мба	-744
гәеиҭеит	-745
ҳәыс	-746
▁игәы	-747
тәра	-748
▁аҭак	-749
раа	-750
▁га	-751
ҩык	-752
▁иаана	-753
▁хәы	-754
ак	-755
▁21	-756
▁иааи	-757
мам	-758
▁рым	-759
▁ҳаи	-760
ӡырҩ	-761
ҟара	-762
ҵра	-763
▁ил	-764
гәыӷ	-765
▁иеи	-766
▁имаҵ	-767
▁ид	-768
▁абас	-769
▁идыр	-770
▁гәа	-771
ҩыз	-772
шаҳаҭ	-773
▁амҩа	-774
қәшә	-775
сҭаа	-776
рала	-777
гӡара	-778
▁шықәсазы	-779
гоу	-780
аргьы	-781
ҵаа	-782
нӡа	-783
▁аур	-784
ест	-785
▁дыз	-786
▁имҩаԥыс	-787
▁лас	-788
▁лара	-789
▁ира	-790
цәажәара	-791
▁аминистр	-792
хәҭоу	-793
▁акыр	-794
▁ажәлар	-795
па	-796
ари	-797
▁пав	-798
▁иҟоуп	-799
▁христ	-800
▁лассы	-801
ҟәа	-802
▁атәы	-803
▁пи	-804
барҭа	-805
та	-806
ԥҳа	-807
зхәыц	-808
▁22	-809
рых	-810
ҭак	-811
▁рҟынӡа	-812
ԥх	-813
▁ишьа	-814
ира	-815
▁ихьӡ	-816
гӡа	-817
кол	-818
шәаны	-819
мҭақәа	-820
▁иана	-821
ҭәа	-822
заалак	-823
рин	-824
қьа	-825
▁аҭагылазаашьа	-826
ҿырԥш	-827
▁араион	-828
ҵәы	-829
мы	-830
хьала	-831
ҭыр	-832
▁-	-833
арада	-834
▁рха	-835
▁лы	-836
ҳәар	-837
▁мап	-838
▁иҟаз	-839
▁аила	-840
орма	-841
ныҳәа	-842
▁абаза	-843
▁христос	-844
сп	-845
ҭан	-846
▁24	-847
▁агәыр	-848
кь	-849
▁иқә	-850
ҳаны	-851
пы	-852
▁павел	-853
сра	-854
▁гә	-855
▁ахәыҷқәа	-856
аим	-857
▁аҩсҭаа	-858
фа	-859
лым	-860
гӡаны	-861
▁шаҟа	-862
кала	-863
ӡоу	-864
▁ашь	-865
▁еиҿ	-866
қәак	-867
еспублика	-868
ост	-869
ҷк	-870
ука	-871
▁ргәы	-872
лыр	-873
▁адоуҳа	-874
▁ӷәӷәа	-875
ҭыс	-876
ҟар	-877
▁25	-878
ҵы	-879
▁ва	-880
шьцәа	-881
▁аҟын	-882
▁ииаша	-883
хьоу	-884
▁пиот	-885
еиԥшым	-886
лом	-887
ҵаҩцәа	-888
▁абзиабара	-889
▁ҳәарада	-890
▁23	-891
икатә	-892
▁ахәҭа	-893
▁аԥсҭазаара	-894
▁аԥа	-895
▁ч	-896
ҭә	-897
ҭоурых	-898
ут	-899
▁усҟан	-900
тәқәа	-901
▁ирыз	-902
хыз	-903
уҩцәа	-904
▁еила	-905
▁ақьырсианцәа	-906
▁амч	-907
▁ашықәс	-908
едера	-909
шәыр	-910
бжьаратәи	-911
из	-912
▁аҩны	-913
кылара	-914
▁дыш	-915
▁азин	-916
▁алшоит	-917
ҩны	-918
иатә	-919
▁дры	-920
мызт	-921
тор	-922
ԥхьаӡ	-923
ок	-924
▁иану	-925
▁ашәҟәы	-926
лҵ	-927
ҭахуп	-928
ҟоуп	-929
▁рыбжьара	-930
ог	-931
▁иаҳҳәа	-932
арк	-933
ӷьа	-934
нагь	-935
▁ҵа	-936
▁ила	-937
▁ргәа	-938
ум	-939
▁хә	-940
ҵаара	-941
▁азакәан	-942
1;	-943
3;	-944
▁&#91;	-945
▁&#93;	-946
згьы	-947
▁еснагь	-948
қәыршәаны	-949
ҳалшо	-950
цыр	-951
зиара	-952
▁ны	-953
▁аџь	-954
шо	-955
▁рауль	-956
▁аком	-957
▁иаҳҳәап	-958
▁абиблиатә	-959
қәоу	-960
▁азҵаарақәа	-961
наҳа	-962
▁иҟаи	-963
зааи	-964
▁акы	-965
▁бызшәа	-966
ӷьара	-967
боит	-968
ҷа	-969
илаҭ	-970
▁урыстәылатәи	-971
▁ҳаџьы	-972
ҵҟа	-973
▁жәа	-974
▁ҩык	-975
лароуп	-976
шаз	-977
▁пиотр	-978
▁зхы	-979
шоу	-980
▁ареспублика	-981
лас	-982
▁изра	-983
▁иазгәеиҭеит	-984
ган	-985
шьы	-986
▁афедера	-987
▁рус	-988
▁мҩаԥ	-989
▁актәи	-990
цәыр	-991
▁раа	-992
ԥшь	-993
▁дан	-994
гала	-995
▁u	-996
қәра	-997
▁ихадоу	-998
ҭарнак	-999
уеи	-1000
аира	-1001
олит	-1002
00	-1003
еп	-1004
▁иԥс	-1005
гақәа	-1006
ҭра	-1007
нтәи	-1008
▁аҿа	-1009
цәгьа	-1010
▁иаан	-1011
▁иазку	-1012
▁иадҳәа	-1013
▁аамҭазы	-1014
шаны	-1015
▁рм	-1016
иль	-1017
хьан	-1018
▁ахар	-1019
▁ҳхы	-1020
▁ишәы	-1021
уеиԥшым	-1022
анд	-1023
уреи	-1024
▁ҳаџьымба	-1025
▁аӡә	-1026
▁жәларбжьаратәи	-1027
батәи	-1028
▁ауадаҩ	-1029
▁азҵаара	-1030
▁ааи	-1031
▁хада	-1032
▁шы	-1033
ҭоуп	-1034
▁мҩаԥыс	-1035
ҭо	-1036
▁ацхыраара	-1037
ԥха	-1038
▁уажә	-1039
▁инаркны	-1040
ақәа	-1041
ультура	-1042
ск	-1043
▁аҩыза	-1044
қәшаҳаҭ	-1045
бра	-1046
тәуп	-1047
цхраауеит	-1048
▁ҩ	-1049
ӡаа	-1050
ҵәҟьа	-1051
▁еиуеиԥшым	-1052
▁аек	-1053
▁30	-1054
▁иоуп	-1055
▁иса	-1056
жьра	-1057
џьын	-1058
рра	-1059
иу	-1060
▁аԥснытәи	-1061
кәу	-1062
▁аӡәы	-1063
ҳәаз	-1064
цәгь	-1065
▁аиҿ	-1066
ары	-1067
▁ҳзы	-1068
хыс	-1069
▁иҟалап	-1070
атиа	-1071
ши	-1072
▁иҽ	-1073
аит	-1074
▁аҽа	-1075
▁ақы	-1076
▁еиҭа	-1077
ҟаҵара	-1078
▁алшара	-1079
▁ҟаи	-1080
циатә	-1081
кылеит	-1082
антәа	-1083
ӡбахә	-1084
▁ао	-1085
▁аӡы	-1086
▁ахәа	-1087
боу	-1088
лареи	-1089
ема	-1090
▁аԥхьа	-1091
ҭгьы	-1092
▁мацара	-1093
▁аӡәыр	-1094
▁шьоу	-1095
▁ауеит	-1096
▁рҟынтә	-1097
▁28	-1098
▁аҭы	-1099
остол	-1100
ҵанакуа	-1101
уазар	-1102
▁амаҵ	-1103
хоз	-1104
▁иак	-1105
екс	-1106
▁аил	-1107
▁тәи	-1108
▁апар	-1109
▁ашкол	-1110
▁аҟаҵара	-1111
тив	-1112
▁..	-1113
▁иах	-1114
ԥхара	-1115
▁дала	-1116
▁w	-1117
ҭала	-1118
од	-1119
▁нап	-1120
▁қ	-1121
▁ши	-1122
▁аре	-1123
зыҟазаашьа	-1124
▁инеи	-1125
галара	-1126
▁раԥхьатәи	-1127
▁26	-1128
▁иажәақәа	-1129
▁лука	-1130
ԥхьара	-1131
▁ԥсы	-1132
ырха	-1133
мҩа	-1134
ԥы	-1135
▁астатиа	-1136
мб	-1137
▁аӡәырҩы	-1138
▁еиз	-1139
▁аиз	-1140
▁иаб	-1141
▁раԥхьаӡа	-1142
олог	-1143
▁ҳгәы	-1144
▁ажәабжьҳәара	-1145
ун	-1146
▁аҭаацәара	-1147
гыланы	-1148
▁аԥша	-1149
▁иҭ	-1150
ламент	-1151
хьчара	-1152
қәҵара	-1153
ман	-1154
ҭахы	-1155
қәҵа	-1156
▁аҳә	-1157
мԥа	-1158
▁ко	-1159
▁амаҵзура	-1160
нтә	-1161
ԥсыра	-1162
▁аиҳабы	-1163
▁аҭаацәа	-1164
▁аҵабырг	-1165
ҩаԥгара	-1166
шьҭра	-1167
▁адагьы	-1168
▁ирыла	-1169
ԥшра	-1170
▁иареи	-1171
бр	-1172
▁ибзи	-1173
▁аӡбара	-1174
цы	-1175
ҳарԥш	-1176
▁роуп	-1177
еон	-1178
▁ахыр	-1179
▁ахақәиҭ	-1180
▁/	-1181
▁ы	-1182
сиа	-1183
▁...	-1184
▁ахьӡ	-1185
▁ахантәа	-1186
▁ажәақәа	-1187
▁шьоукы	-1188
▁аарԥшра	-1189
ми	-1190
▁ҿ	-1191
шәоит	-1192
зарц	-1193
▁инақәыршәаны	-1194
▁их	-1195
зыԥш	-1196
хуа	-1197
ԥхьаӡа	-1198
▁аиаша	-1199
ԥхы	-1200
гресс	-1201
дырхә	-1202
ԥылара	-1203
▁аҭоурых	-1204
▁ҳалшоит	-1205
▁аибашьра	-1206
▁апарламент	-1207
гы	-1208
▁шәаԥхьа	-1209
мԥада	-1210
еиц	-1211
ҵуа	-1212
дент	-1213
▁афедерациа	-1214
лаз	-1215
▁ԥы	-1216
ҳарак	-1217
храқәа	-1218
▁иԥшьоу	-1219
ҵоу	-1220
гаҩы	-1221
▁матфеи	-1222
▁аура	-1223
▁рацәа	-1224
еилак	-1225
шыҩ	-1226
▁апостол	-1227
▁вла	-1228
▁абжь	-1229
▁27	-1230
▁аспорт	-1231
мкәа	-1232
▁рминистр	-1233
ре	-1234
ырҭ	-1235
▁ахантәаҩы	-1236
гылаз	-1237
▁аҟынтәи	-1238
▁рыз	-1239
▁ахҭыс	-1240
цҳа	-1241
▁ихаҭыԥ	-1242
ԥхьаӡара	-1243
▁арыц	-1244
▁мо	-1245
▁ҳан	-1246
▁иарбоу	-1247
би	-1248
зыӡырҩ	-1249
▁n	-1250
▁иазкны	-1251
▁абиблиаҿы	-1252
▁ти	-1253
џьынџь	-1254
қәыргылара	-1255
вид	-1256
тәара	-1257
ои	-1258
оном	-1259
▁иеиԥш	-1260
зшьа	-1261
цхраауа	-1262
ату	-1263
кәы	-1264
▁аҳра	-1265
▁аиааира	-1266
▁аж	-1267
▁сам	-1268
▁ауааԥсыра	-1269
ӷра	-1270
▁ажәҩан	-1271
ести	-1272
ԥара	-1273
▁ани	-1274
форма	-1275
веи	-1276
қәиҭу	-1277
▁аԥааим	-1278
хәыҷқәа	-1279
▁ԥс	-1280
▁иер	-1281
▁акәзар	-1282
▁ауаажәлар	-1283
▁аусмҩаԥга	-1284
маа	-1285
▁199	-1286
▁наӡа	-1287
хыҵ	-1288
▁иреиҳа	-1289
▁кон	-1290
▁акәын	-1291
ҭақәа	-1292
артә	-1293
▁аиҭа	-1294
▁аԥсы	-1295
мма	-1296
▁иҿа	-1297
лаҳкаа	-1298
еин	-1299
анагара	-1300
ҭаацәа	-1301
▁мааҭ	-1302
▁ишԥ	-1303
геи	-1304
зоу	-1305
оск	-1306
▁ҳры	-1307
ҳәшьцәеи	-1308
ырц	-1309
гәрахаҵара	-1310
▁ауадаҩрақәа	-1311
ланы	-1312
▁абар	-1313
▁иуа	-1314
▁агана	-1315
шьҭы	-1316
▁иаша	-1317
бала	-1318
▁амц	-1319
кыз	-1320
ӡакәа	-1321
▁аныҳәа	-1322
▁ганы	-1323
цәажәо	-1324
ҩса	-1325
раны	-1326
▁ахақәиҭра	-1327
ӡә	-1328
ҭоит	-1329
мп	-1330
лазаара	-1331
▁ишьақә	-1332
▁29	-1333
тәыҩса	-1334
бла	-1335
бзиара	-1336
ҵоз	-1337
гыло	-1338
▁тим	-1339
▁ианы	-1340
бжьа	-1341
ӡеит	-1342
хратә	-1343
заана	-1344
маана	-1345
▁́	-1346
▁ҭыԥ	-1347
зыҟазаашьақәа	-1348
бацәа	-1349
▁иаанаго	-1350
▁аҟә	-1351
▁акгьы	-1352
▁аҳауа	-1353
▁аҩа	-1354
кьа	-1355
▁адырра	-1356
ко	-1357
▁ацәгь	-1358
▁злоу	-1359
▁давид	-1360
▁аҭынч	-1361
▁асахьа	-1362
еле	-1363
ҵахыр	-1364
беи	-1365
▁рыр	-1366
▁доуҳа	-1367
▁аҩбатәи	-1368
▁ахьч	-1369
▁змам	-1370
▁иус	-1371
гылоу	-1372
▁ԥса	-1373
▁i	-1374
исеи	-1375
шәо	-1376
▁моск	-1377
▁аинтер	-1378
▁абарҭ	-1379
▁иануп	-1380
▁про	-1381
▁аҟәы	-1382
▁роу	-1383
цәажәа	-1384
▁реизара	-1385
беит	-1386
ҵшәа	-1387
доуҳа	-1388
▁раан	-1389
гәала	-1390
▁адҵа	-1391
▁ахьа	-1392
▁рына	-1393
она	-1394
▁ахәыҷы	-1395
▁даараӡа	-1396
рыз	-1397
ҳәон	-1398
▁аҵыхәтәантәи	-1399
▁ааԥхьара	-1400
хит	-1401
▁ажәы	-1402
▁агәнаҳа	-1403
▁аџьа	-1404
дырԥш	-1405
▁реиԥш	-1406
▁маҵзура	-1407
▁амилаҭ	-1408
дгьыл	-1409
▁апроект	-1410
мч	-1411
ҿи	-1412
мыз	-1413
▁иов	-1414
зу	-1415
▁рна	-1416
егь	-1417
ҳауа	-1418
қәкы	-1419
▁ҳар	-1420
ынха	-1421
қәшәо	-1422
▁аилкаара	-1423
то	-1424
▁иадҳәалоу	-1425
▁амшын	-1426
▁иҟар	-1427
моуп	-1428
ҿиара	-1429
▁зеиԥш	-1430
ыԥ	-1431
▁рыц	-1432
▁аӡба	-1433
ҵон	-1434
▁еиӷь	-1435
те	-1436
▁аԥҳәыс	-1437
ерс	-1438
гылеит	-1439
ҭарнакцәа	-1440
тра	-1441
ҳәоз	-1442
ҵәҟь	-1443
▁no	-1444
▁ажәамаана	-1445
▁ашәы	-1446
ӡы	-1447
▁есы	-1448
ҷыда	-1449
или	-1450
▁анапхгара	-1451
ҷкәын	-1452
▁ҽ	-1453
хьча	-1454
▁уаанӡа	-1455
куеит	-1456
ԥхьаҟа	-1457
▁имаҵз	-1458
▁анагӡара	-1459
▁матф	-1460
▁адыррақәа	-1461
ҵаҩ	-1462
еинра	-1463
▁инхо	-1464
кт	-1465
▁аԥш	-1466
▁ухы	-1467
▁москва	-1468
цәажәеит	-1469
▁дш	-1470
тәылатәи	-1471
▁хымԥада	-1472
▁иҩ	-1473
▁адоуҳатә	-1474
▁аԥхь	-1475
▁игә	-1476
▁ишаҳаҭ	-1477
зароуп	-1478
▁еибашьра	-1479
▁ибзианы	-1480
қәым	-1481
грамма	-1482
▁ижәлар	-1483
али	-1484
гӡо	-1485
аниа	-1486
ҳәаҩ	-1487
▁иҿы	-1488
алы	-1489
▁зынӡа	-1490
риа	-1491
▁ирҭа	-1492
харҭа	-1493
▁аиԥш	-1494
▁31	-1495
гатә	-1496
▁дани	-1497
ныр	-1498
ҵәҟьаны	-1499
▁наӡаӡа	-1500
мад	-1501
▁аҟазаара	-1502
▁иаҳнар	-1503
хәра	-1504
дим	-1505
▁дар	-1506
▁рҟынтәи	-1507
ора	-1508
▁уаԥхьа	-1509
ӷьы	-1510
гәырӷь	-1511
▁уажәы	-1512
▁иазгәа	-1513
▁зын	-1514
зыз	-1515
фи	-1516
ԥхгара	-1517
еинраала	-1518
ӷәӷәара	-1519
шьеи	-1520
шҭ	-1521
▁ишы	-1522
▁алекс	-1523
харц	-1524
▁израил	-1525
цип	-1526
▁ком	-1527
▁реиҳа	-1528
▁аҟнытә	-1529
ԥшым	-1530
ҵареи	-1531
▁корин	-1532
ды	-1533
ҭас	-1534
кқәа	-1535
▁руа	-1536
▁ахаан	-1537
ина	-1538
роу	-1539
дырра	-1540
▁еилаҳкаа	-1541
ӡо	-1542
ру	-1543
деи	-1544
▁иахьы	-1545
▁ҳгәа	-1546
мчы	-1547
▁ҳаҭыр	-1548
▁моисеи	-1549
қьы	-1550
оциа	-1551
шьны	-1552
▁ри	-1553
цәеижь	-1554
алықь	-1555
▁доуҳала	-1556
гоз	-1557
ҟны	-1558
ӡаны	-1559
▁деи	-1560
цәоуп	-1561
▁аҽы	-1562
▁шры	-1563
▁аԥыза	-1564
▁зху	-1565
оп	-1566
меи	-1567
▁уахь	-1568
▁ихаҭыԥуаҩ	-1569
▁ишԥаҳалшо	-1570
ринцип	-1571
▁акультура	-1572
▁иахҟьаны	-1573
ҭны	-1574
ԥхьагәа	-1575
▁ииашоу	-1576
рак	-1577
итет	-1578
▁еиҵаны	-1579
▁иаԥ	-1580
кыра	-1581
▁аполит	-1582
▁имаҵзуҩцәа	-1583
фаа	-1584
▁аме	-1585
ҵоуп	-1586
каауа	-1587
ыҟам	-1588
▁уҳәа	-1589
ҟаз	-1590
▁e	-1591
ныҟәа	-1592
хны	-1593
▁ишьҭ	-1594
▁аҳәаақәа	-1595
ot	-1596
циақәа	-1597
кәша	-1598
ымкәа	-1599
ҵәара	-1600
▁ҩа	-1601
қәшәа	-1602
▁иац	-1603
еицура	-1604
▁ацәгьа	-1605
стит	-1606
▁иди	-1607
▁ацәа	-1608
анда	-1609
▁коринфаа	-1610
▁аилатәара	-1611
ганы	-1612
▁шьҭ	-1613
▁аиҳабацәа	-1614
вка	-1615
қәыԥш	-1616
▁аконгресс	-1617
хәыла	-1618
ҽны	-1619
хьеит	-1620
▁шәахәаԥш	-1621
ԥшаа	-1622
ԥхықәра	-1623
шәар	-1624
антәи	-1625
▁зынла	-1626
оль	-1627
ҭаны	-1628
▁жәҩан	-1629
кыло	-1630
▁авид	-1631
qu	-1632
▁иҵаҩцәа	-1633
▁хаҭала	-1634
ам	-1635
аир	-1636
quot	-1637
▁апре	-1638
▁дана	-1639
▁аҿырԥш	-1640
хәҭа	-1641
шәала	-1642
▁аӡәгьы	-1643
ки	-1644
емиа	-1645
буп	-1646
мит	-1647
▁мы	-1648
▁аҩныҵҟа	-1649
лон	-1650
мен	-1651
ҳәарала	-1652
▁200	-1653
▁иԥсы	-1654
зқь	-1655
▁еиқә	-1656
▁аиқәшаҳаҭ	-1657
лист	-1658
▁адҿ	-1659
▁раасҭа	-1660
▁ишаҳаҭцәа	-1661
▁анеи	-1662
дкыла	-1663
ҵеи	-1664
ӡын	-1665
зына	-1666
▁ацәыр	-1667
бжьы	-1668
валь	-1669
▁кор	-1670
итера	-1671
▁инап	-1672
▁аӡыр	-1673
▁акәым	-1674
▁ҟаиҵеит	-1675
гаҩ	-1676
гон	-1677
ель	-1678
▁диа	-1679
хақәа	-1680
▁министр	-1681
▁иҷы	-1682
▁иԥсҭазаара	-1683
▁заа	-1684
қалақь	-1685
▁ҳаргьы	-1686
естиваль	-1687
ьаа	-1688
▁иҟаиҵаз	-1689
▁аизараҿы	-1690
лав	-1691
лԥа	-1692
ерт	-1693
роши	-1694
ҭыҵ	-1695
сабала	-1696
▁иаҳра	-1697
уӷа	-1698
ласны	-1699
▁00	-1700
ӡбара	-1701
▁аинформа	-1702
▁ҵ	-1703
▁мил	-1704
ҵшьны	-1705
▁ате	-1706
▁гәык	-1707
▁иҷыдоу	-1708
▁аарт	-1709
▁иаар	-1710
зыл	-1711
▁усура	-1712
▁азгәа	-1713
▁еилыр	-1714
▁кавка	-1715
рошиура	-1716
▁*	-1717
▁имҩа	-1718
▁иаарт	-1719
ҭынч	-1720
▁рзеи	-1721
▁алҵшәа	-1722
▁еилҳар	-1723
▁рҭа	-1724
дыруеит	-1725
урн	-1726
▁аишьцәа	-1727
▁дша	-1728
▁уаҳа	-1729
▁зыӡбахә	-1730
▁аиԥылара	-1731
ҭаацәара	-1732
рым	-1733
ҩыс	-1734
▁агәырӷьара	-1735
натә	-1736
▁ацәы	-1737
▁пату	-1738
хәу	-1739
▁ахын	-1740
▁аҽны	-1741
▁уажәшьҭа	-1742
▁баа	-1743
▁аԥсалом	-1744
▁инаҵшьны	-1745
зегь	-1746
ҵозеи	-1747
▁нызқь	-1748
▁зла	-1749
▁иҳәа	-1750
▁иҳамоу	-1751
▁џьа	-1752
▁аброшиура	-1753
хәар	-1754
▁ҭыр	-1755
▁ааир	-1756
▁ауриа	-1757
иҭеит	-1758
▁владим	-1759
ҩыза	-1760
урнир	-1761
▁иреиҳаӡоу	-1762
▁ахылаԥш	-1763
ҩра	-1764
емон	-1765
ырҭа	-1766
куп	-1767
орд	-1768
шар	-1769
ҵан	-1770
иссиа	-1771
▁владимир	-1772
▁уз	-1773
зегьтәи	-1774
▁абзоу	-1775
▁еф	-1776
▁шыҟа	-1777
гылоит	-1778
▁александ	-1779
ард	-1780
▁аишьцәеи	-1781
иҭа	-1782
ҭана	-1783
нагӡа	-1784
қәгәыӷ	-1785
▁идоуҳа	-1786
ант	-1787
ӷара	-1788
▁адеп	-1789
▁шьақә	-1790
▁абжьы	-1791
▁иҳақәиҭу	-1792
▁абзоурала	-1793
▁ирҭагӡаны	-1794
териа	-1795
▁ажәамаанақәа	-1796
▁иоу	-1797
ҩызцәа	-1798
▁амаалықь	-1799
дгыла	-1800
▁аԥара	-1801
▁анаҩстәи	-1802
мш	-1803
▁ԥхын	-1804
гақәҵа	-1805
▁милли	-1806
▁агәыӷра	-1807
нцәа	-1808
омызт	-1809
▁агәаҟ	-1810
ижь	-1811
▁ҳи	-1812
лери	-1813
▁рим	-1814
▁аҵыхәтәаны	-1815
▁изла	-1816
▁дҟа	-1817
▁шәааи	-1818
▁ек	-1819
▁маҷк	-1820
▁иҵа	-1821
хынҳә	-1822
▁ыҟоуп	-1823
▁иҟалаз	-1824
▁бзи	-1825
▁ҟар	-1826
заалакгьы	-1827
▁мҩаԥысит	-1828
▁аныҟә	-1829
▁иамоу	-1830
зааигәа	-1831
▁иҳәоит	-1832
▁исаиа	-1833
▁убасгьы	-1834
▁маҷ	-1835
▁иархәа	-1836
▁еиҳарак	-1837
▁го	-1838
урна	-1839
ҟәқәа	-1840
▁аҿар	-1841
▁аинтерес	-1842
иабр	-1843
▁шәи	-1844
▁мариа	-1845
разы	-1846
▁аџьынџь	-1847
▁аҭҵаара	-1848
▁рыма	-1849
▁ашәышықәса	-1850
▁аана	-1851
▁еилы	-1852
▁аазыр	-1853
хәо	-1854
утат	-1855
хуеит	-1856
каауеит	-1857
▁ахархәара	-1858
▁ааак	-1859
ул	-1860
▁32	-1861
▁иши	-1862
▁кавказ	-1863
онд	-1864
▁шәры	-1865
▁валери	-1866
▁иалагеит	-1867
▁шәеи	-1868
▁израильаа	-1869
▁ру	-1870
▁имҩаԥ	-1871
▁напхгара	-1872
гоуп	-1873
баражәа	-1874
▁ҟ	-1875
▁уаҟа	-1876
хон	-1877
шәҟәы	-1878
▁ракә	-1879
▁аԥсни	-1880
▁инхоз	-1881
амҭа	-1882
▁алахәыла	-1883
ӡала	-1884
қьара	-1885
▁бзиақәа	-1886
▁ҳха	-1887
ҵамҭа	-1888
иашара	-1889
▁ҟалоит	-1890
смен	-1891
▁ҟала	-1892
ӷьу	-1893
▁ми	-1894
офеи	-1895
▁ачы	-1896
кааит	-1897
▁ауаҩ	-1898
анеи	-1899
▁еиҿкаа	-1900
▁усбарҭа	-1901
▁адә	-1902
гәара	-1903
▁аԥхьара	-1904
▁иеговеи	-1905
▁цәгьа	-1906
инхаҵара	-1907
атә	-1908
урс	-1909
▁иҟаҳ	-1910
▁арӡын	-1911
шәарақәа	-1912
▁ԥш	-1913
ҟьара	-1914
▁анаԥх	-1915
▁иоси	-1916
▁ҷыда	-1917
▁рхыԥхьаӡара	-1918
гареи	-1919
▁ахара	-1920
ҳәозар	-1921
▁мч	-1922
▁даны	-1923
▁александр	-1924
ҵарц	-1925
▁аиба	-1926
▁тимофеи	-1927
▁аиқәшаҳаҭра	-1928
▁еицыр	-1929
ныҟәара	-1930
▁аеконом	-1931
▁атурнир	-1932
▁33	-1933
узеи	-1934
▁гәыԥ	-1935
▁амилаҭтә	-1936
ҳәыси	-1937
▁иаков	-1938
▁адепутат	-1939
ну	-1940
▁ҟаз	-1941
елега	-1942
рит	-1943
саа	-1944
▁сер	-1945
ҽыр	-1946
гана	-1947
туреи	-1948
ҟам	-1949
▁ҭырқә	-1950
▁еиҳагьы	-1951
ран	-1952
▁зыр	-1953
▁ижә	-1954
▁абза	-1955
▁еиҳаны	-1956
▁аԥааимбар	-1957
▁агәрахаҵара	-1958
▁35	-1959
▁иаҳа	-1960
лал	-1961
катә	-1962
ынҵа	-1963
▁аныр	-1964
▁угәы	-1965
▁ажәахә	-1966
▁ауриацәа	-1967
▁аусмҩаԥгатә	-1968
▁уеи	-1969
▁аиура	-1970
ҟарақәа	-1971
▁абызшәа	-1972
ҿлым	-1973
▁дарбан	-1974
сыр	-1975
▁ахәыҷ	-1976
▁ааҳарԥш	-1977
▁аҭаацә	-1978
ханы	-1979
ҵәҟьоу	-1980
▁авидеон	-1981
▁хыр	-1982
ҵаарақәа	-1983
еҭ	-1984
хиа	-1985
▁ҵара	-1986
▁ҿырԥш	-1987
знак	-1988
ырхага	-1989
▁агәым	-1990
▁иҿыц	-1991
раз	-1992
шан	-1993
ҳәарақәа	-1994
хьаз	-1995
бареи	-1996
▁рықә	-1997
▁аҳҭны	-1998
▁џьана	-1999
▁инареи	-2000
▁аҳәара	-2001
▁аргылара	-2002
ели	-2003
▁мҩа	-2004
▁насыԥ	-2005
▁аладырхә	-2006
▁амҩаԥгара	-2007
▁34	-2008
иас	-2009
рыс	-2010
цла	-2011
мазара	-2012
▁рҭак	-2013
▁ахҭысқәа	-2014
лоуп	-2015
ҵала	-2016
▁аҳаҭыр	-2017
ҽы	-2018
▁шьаҭас	-2019
▁ахадара	-2020
▁аминистрра	-2021
▁рҟны	-2022
лу	-2023
▁+	-2024
гарц	-2025
▁зуа	-2026
цәырҵ	-2027
▁аҳҭнықалақь	-2028
шьо	-2029
ҵаҩы	-2030
▁зха	-2031
▁рыхә	-2032
гье	-2033
сыԥ	-2034
▁кә	-2035
ҵәык	-2036
▁шыр	-2037
ҩцәеи	-2038
▁адунеизегьтәи	-2039
лага	-2040
шьоит	-2041
ԥҵә	-2042
▁рыд	-2043
▁имаҷ	-2044
▁аурок	-2045
▁ақәҵара	-2046
▁иаразнак	-2047
шьақәыргылара	-2048
ҳәарц	-2049
▁анхара	-2050
▁аҭыԥқәа	-2051
хьаа	-2052
хыраа	-2053
▁сгәы	-2054
▁аганахьала	-2055
▁ҵабырг	-2056
▁ԥа	-2057
ҟатәи	-2058
▁фа	-2059
▁ча	-2060
ҳәшьа	-2061
лԥаз	-2062
▁ҩыџьа	-2063
▁аиаҳәшьцәеи	-2064
заареи	-2065
▁еилакы	-2066
▁инареиҳаны	-2067
маданы	-2068
▁ахынраа	-2069
▁аспортсмен	-2070
хоу	-2071
џьар	-2072
▁дзы	-2073
▁азха	-2074
цыԥхьаӡа	-2075
▁ииашаҵәҟьаны	-2076
зм	-2077
▁анапх	-2078
▁қә	-2079
лқәа	-2080
▁кәа	-2081
▁ажурна	-2082
ирхә	-2083
▁инапы	-2084
мбыл	-2085
ԥшьа	-2086
▁хар	-2087
▁ааирԥш	-2088
▁иҟынтә	-2089
доуп	-2090
▁лха	-2091
▁ҳаб	-2092
датәи	-2093
▁шықә	-2094
▁иҿаԥхьа	-2095
хамҩа	-2096
▁иакә	-2097
▁иаҵанакуа	-2098
▁афестиваль	-2099
▁ст	-2100
▁шԥа	-2101
▁аиқәыр	-2102
▁акәӡам	-2103
хеи	-2104
усали	-2105
▁иерусали	-2106
▁рынагӡара	-2107
▁ауаажәларратә	-2108
▁ҟаҳ	-2109
уз	-2110
шьҭоу	-2111
▁иазы	-2112
▁ақьырсиантә	-2113
▁рҽа	-2114
ҳауеит	-2115
▁иаагоу	-2116
▁сергеи	-2117
▁сан	-2118
▁шәхы	-2119
▁алага	-2120
▁шәгәы	-2121
▁шиа	-2122
гылоуп	-2123
▁инары	-2124
▁ашықәсқәа	-2125
▁ли	-2126
▁иҟәы	-2127
ԥар	-2128
мзар	-2129
цәаныр	-2130
▁рыԥсы	-2131
▁аҟазшьа	-2132
итература	-2133
▁иҟан	-2134
▁рышьҭахь	-2135
▁аҭакԥхықәра	-2136
атр	-2137
ҳәаҩцәа	-2138
▁агәабзиара	-2139
▁шәарҭ	-2140
цәоу	-2141
▁ҳареи	-2142
▁арӡынба	-2143
▁еиба	-2144
▁миллион	-2145
▁те	-2146
▁аҳамҭа	-2147
▁ж	-2148
ахә	-2149
▁аиашьа	-2150
▁анаԥхгара	-2151
кл	-2152
қәир	-2153
▁гәыкала	-2154
ҿыԥш	-2155
▁чер	-2156
▁дахь	-2157
▁ақыҭа	-2158
▁аҳәса	-2159
▁аҭынчра	-2160
зыҟаҵара	-2161
ҩызара	-2162
▁ахаҭарнакцәа	-2163
▁ақь	-2164
мбылџь	-2165
▁аԥсал	-2166
▁иосиф	-2167
▁аизарақәа	-2168
ентр	-2169
мҩаԥгашьа	-2170
▁иалагӡаны	-2171
нив	-2172
▁имҩаԥга	-2173
▁авидеонҵамҭа	-2174
хн	-2175
▁ишыҟа	-2176
▁аделега	-2177
▁адәны	-2178
▁ӡ	-2179
▁изиа	-2180
зуҩцәа	-2181
ҵарамза	-2182
▁реилазаара	-2183
овет	-2184
ҳаражә	-2185
▁римаа	-2186
▁ирымоу	-2187
▁уахәаԥш	-2188
▁культура	-2189
▁ик	-2190
зациа	-2191
ылара	-2192
▁марк	-2193
гәоу	-2194
мра	-2195
оли	-2196
▁цәы	-2197
ҿиа	-2198
уам	-2199
ҽеи	-2200
ҩыла	-2201
▁акыл	-2202
▁иерусалим	-2203
ть	-2204
▁40	-2205
▁аӷ	-2206
ерен	-2207
▁иду	-2208
зааит	-2209
▁атәылақәа	-2210
▁дуӡ	-2211
▁ақыҭан	-2212
аныр	-2213
гәаҟ	-2214
▁исы	-2215
▁изеи	-2216
▁инамаданы	-2217
хәыз	-2218
хәқәа	-2219
кахьала	-2220
▁ацәгьаура	-2221
мыс	-2222
▁ины	-2223
қәын	-2224
▁аиу	-2225
ароуп	-2226
▁уадаҩ	-2227
▁аасҭа	-2228
▁аусеицура	-2229
қәаб	-2230
зыҟоу	-2231
▁иалху	-2232
▁аматериа	-2233
▁акәымкәа	-2234
▁ахәылԥаз	-2235
▁ев	-2236
▁иҿырԥш	-2237
баз	-2238
▁арратә	-2239
▁аҿиара	-2240
▁иаанагоит	-2241
▁ауаатәыҩса	-2242
ориа	-2243
зҭана	-2244
▁ахаҵа	-2245
хьын	-2246
▁аԥсра	-2247
▁анаԥхгаҩы	-2248
▁мар	-2249
▁рак	-2250
▁еили	-2251
▁хәыҷы	-2252
▁џьанаҭ	-2253
цәаныррақәа	-2254
▁ажәеинраала	-2255
▁бес	-2256
▁асоциа	-2257
▁аҩаӡара	-2258
анс	-2259
▁шәҟәы	-2260
ниверс	-2261
▁акәны	-2262
▁иҿыцу	-2263
▁агәҭынч	-2264
▁ҭагылазаашьа	-2265
▁абзиа	-2266
▁закәан	-2267
▁заҵәык	-2268
▁j	-2269
ҵазкуа	-2270
▁аурыс	-2271
▁ирзеи	-2272
▁рыдыр	-2273
▁рылшоит	-2274
ал	-2275
▁ары	-2276
▁аҟаз	-2277
урҭа	-2278
шәра	-2279
ҳәала	-2280
▁асас	-2281
▁иахьатәи	-2282
▁ҿҳәарала	-2283
▁аар	-2284
▁иааир	-2285
▁ииашаны	-2286
ери	-2287
кит	-2288
▁даз	-2289
▁шәыр	-2290
▁ажәытә	-2291
▁астатиаҿы	-2292
▁апрограмма	-2293
спора	-2294
рақәеи	-2295
қәагьы	-2296
▁рыҩны	-2297
заауеит	-2298
▁хықәкы	-2299
баҩ	-2300
рыцҳа	-2301
зго	-2302
лашәара	-2303
▁иаҿ	-2304
▁змаз	-2305
▁беслан	-2306
▁шықәсы	-2307
▁му	-2308
хаҿы	-2309
▁илы	-2310
▁саму	-2311
▁аҟынӡа	-2312
▁ирызкны	-2313
ег	-2314
кр	-2315
тәыз	-2316
▁ган	-2317
▁оча	-2318
хылҵ	-2319
▁абзац	-2320
▁аиҿкаара	-2321
хәда	-2322
шьар	-2323
▁аусуратә	-2324
▁ег	-2325
куль	-2326
▁акр	-2327
▁рҿа	-2328
▁ҩынтә	-2329
▁азхәыц	-2330
▁анцәаи	-2331
▁ахеилак	-2332
шәын	-2333
орг	-2334
ԥыр	-2335
▁ицәыр	-2336
аа	-2337
иеи	-2338
иуџь	-2339
тәан	-2340
▁амца	-2341
▁агара	-2342
▁аарԥшны	-2343
ото	-2344
зырҳара	-2345
▁ҳҽа	-2346
▁акор	-2347
▁ажәларқәа	-2348
ԥхо	-2349
▁ҭы	-2350
▁ирацәаны	-2351
▁гь	-2352
▁рз	-2353
ԥсах	-2354
▁иԥҳа	-2355
▁шакәу	-2356
▁шықәс	-2357
аз	-2358
мар	-2359
▁аима	-2360
▁зықәра	-2361
▁самуил	-2362
▁иаарласны	-2363
▁есым	-2364
▁згәы	-2365
▁изакәан	-2366
▁иреиӷьу	-2367
ароу	-2368
▁ады	-2369
латәи	-2370
▁атема	-2371
▁анырра	-2372
▁иҭахуп	-2373
▁ахынраалара	-2374
чра	-2375
▁шьы	-2376
▁узыр	-2377
▁ахьчара	-2378
▁аџьшьара	-2379
▁рыԥсҭазаара	-2380
ылшо	-2381
▁илш	-2382
ҵахырхәара	-2383
шеит	-2384
▁азгәеиҭеит	-2385
граф	-2386
▁ахьыр	-2387
▁асовет	-2388
шьеит	-2389
▁аҟәша	-2390
▁аҵакы	-2391
▁рацәаны	-2392
ҭын	-2393
иҭоит	-2394
▁ҳана	-2395
цәгьоу	-2396
▁аҩныҵҟатәи	-2397
▁ири	-2398
▁игәаԥхара	-2399
▁иҵ	-2400
▁мра	-2401
▁алар	-2402
▁ҳала	-2403
хәаԥшы	-2404
▁авраа	-2405
▁ишԥар	-2406
гәырӷьа	-2407
жьыз	-2408
хәама	-2409
▁аҟәатәи	-2410
ниверситет	-2411
▁аинформациа	-2412
ҳаз	-2413
кәыр	-2414
▁нан	-2415
гәарҭ	-2416
▁амшқәа	-2417
▁анасыԥ	-2418
▁иӷәӷәа	-2419
▁ԥсыкала	-2420
ека	-2421
▁сын	-2422
ҳареи	-2423
▁азыл	-2424
▁адәныҟатәи	-2425
цәыӡ	-2426
еф	-2427
мчыра	-2428
хырҭа	-2429
▁адгьы	-2430
▁рминистрра	-2431
▁аусбарҭа	-2432
▁37	-2433
гаҩцәа	-2434
шәынтәа	-2435
▁аҵаҩцәа	-2436
▁иархәаны	-2437
▁даа	-2438
▁илиа	-2439
лхра	-2440
тист	-2441
▁бжь	-2442
ферен	-2443
ҵалар	-2444
▁рымоуп	-2445
▁ҭырқәтәыла	-2446
жәақәа	-2447
▁иҭабуп	-2448
▁аполитикатә	-2449
▁000	-2450
▁ахшыҩ	-2451
▁иазыр	-2452
▁усмҩаԥга	-2453
ить	-2454
хым	-2455
баара	-2456
ҳәарҭа	-2457
▁еиҭеи	-2458
ена	-2459
▁иахә	-2460
▁жәҩантәи	-2461
▁зин	-2462
ҳалал	-2463
цәанырра	-2464
тәым	-2465
▁аих	-2466
гылан	-2467
▁аԥшь	-2468
▁гәыр	-2469
▁очамчыра	-2470
▁рхәыҷқәа	-2471
бле	-2472
▁мҩаԥысуеит	-2473
хәыҷ	-2474
▁ишыр	-2475
▁гәдоу	-2476
▁ишьҭанеи	-2477
▁ақәа	-2478
▁уаԥс	-2479
▁хылаԥш	-2480
ститут	-2481
▁агәымшәара	-2482
▁иахьаҵанакуа	-2483
ӡоит	-2484
▁зҽа	-2485
блема	-2486
мыршҭ	-2487
▁иҽеи	-2488
▁аԥышәа	-2489
▁ԥхьаҟа	-2490
▁аминистрцәа	-2491
циеи	-2492
▁иҭы	-2493
▁леон	-2494
ози	-2495
ҭаара	-2496
▁аҽыр	-2497
цҳауеит	-2498
▁апрези	-2499
▁аадырԥш	-2500
▁ахәаахә	-2501
нт	-2502
▁аби	-2503
▁хара	-2504
▁даниил	-2505
▁ацҳаражә	-2506
диа	-2507
кыс	-2508
бзоу	-2509
▁гал	-2510
▁рых	-2511
▁фили	-2512
ҳараҩык	-2513
чч	-2514
▁саб	-2515
▁далагеит	-2516
дыз	-2517
ыжь	-2518
▁36	-2519
ислав	-2520
марра	-2521
лагара	-2522
▁ирызку	-2523
▁аԥсабара	-2524
▁аицәажәара	-2525
▁ауаҩытәыҩса	-2526
▁но	-2527
ҟәым	-2528
▁хьӡ	-2529
ныҟәо	-2530
▁зыхә	-2531
▁ахаангьы	-2532
шба	-2533
ҳча	-2534
орти	-2535
▁мари	-2536
▁еиӷьны	-2537
▁аделегациа	-2538
▁ҳаԥсҭазаара	-2539
▁нау	-2540
брақәа	-2541
кылоит	-2542
гылареи	-2543
▁ааигәа	-2544
их	-2545
но	-2546
▁’	-2547
шьц	-2548
▁ыҟа	-2549
қәу	-2550
анааҭ	-2551
▁есыҽны	-2552
▁дарбанзаалак	-2553
даҳ	-2554
әма	-2555
спорт	-2556
▁изкны	-2557
▁адаҟьа	-2558
▁азԥхьагәа	-2559
▁аџьынџьтәылатәи	-2560
ониа	-2561
әымӷ	-2562
▁аԥх	-2563
ҵатәу	-2564
▁имаз	-2565
▁аатра	-2566
▁ҷыдала	-2567
ринципқәа	-2568
▁ажәабжьҳәаҩцәа	-2569
▁аусмҩаԥгатәқәа	-2570
цеи	-2571
▁акәа	-2572
▁акырӡа	-2573
▁гәдоуҭа	-2574
▁уеизгьы	-2575
▁аму	-2576
▁иман	-2577
▁ҳарҭ	-2578
органи	-2579
▁дуӡӡа	-2580
▁ату	-2581
▁дшы	-2582
▁нои	-2583
▁иџьа	-2584
иуџьет	-2585
▁алахә	-2586
барақәа	-2587
ныҳәалеит	-2588
▁шәазхәыц	-2589
шәеи	-2590
ҳаит	-2591
ӡбеит	-2592
цхраар	-2593
▁амчра	-2594
▁аԥшьа	-2595
▁ахәарҭа	-2596
▁анаҩсгьы	-2597
жа	-2598
анди	-2599
ббра	-2600
дыруаз	-2601
▁ахьыԥшым	-2602
▁аазырԥшуа	-2603
заҳ	-2604
дици	-2605
▁ахәыц	-2606
▁иаҵана	-2607
емп	-2608
кгьы	-2609
▁рыҽ	-2610
▁ахԥа	-2611
▁анцәаиҳәара	-2612
роуп	-2613
▁хәа	-2614
▁агәыԥ	-2615
▁амала	-2616
▁иԥхьаӡ	-2617
гәаԥхара	-2618
▁ишьақәыр	-2619
▁шеи	-2620
шьақә	-2621
▁ихаҭа	-2622
ӷәӷәоит	-2623
сеи	-2624
ԥшу	-2625
ԥҟа	-2626
ктәи	-2627
церт	-2628
▁ықә	-2629
шәеит	-2630
уаажәлар	-2631
▁аамҭақәа	-2632
▁b	-2633
▁ип	-2634
иона	-2635
▁мыц	-2636
жәара	-2637
▁ажәам	-2638
▁полит	-2639
▁алабжьара	-2640
▁аԥааимбаражәа	-2641
даз	-2642
▁шым	-2643
▁акоманда	-2644
▁ацәгьара	-2645
▁аилазаара	-2646
иҩ	-2647
ниа	-2648
кәха	-2649
▁асааҭ	-2650
рц	-2651
оет	-2652
хьӡу	-2653
▁акрыз	-2654
▁аҭара	-2655
▁измоу	-2656
ҳарақәа	-2657
▁цәыббра	-2658
▁идыруеит	-2659
шра	-2660
шьына	-2661
▁иани	-2662
▁аганахь	-2663
▁есышықәса	-2664
ԥхьо	-2665
▁ргана	-2666
орум	-2667
▁иԥса	-2668
▁ахәҭакахьала	-2669
▁аспортсменцәа	-2670
цу	-2671
▁ааны	-2672
▁хҭыс	-2673
истема	-2674
ӡырҩра	-2675
▁ахԥатәи	-2676
лыҵ	-2677
▁афин	-2678
▁урыстәылеи	-2679
зцәа	-2680
▁ақәы	-2681
ԥшуаз	-2682
ԥшаара	-2683
▁акуль	-2684
▁афатә	-2685
▁еизара	-2686
ԥсоу	-2687
▁иона	-2688
▁ахәҭаҷ	-2689
▁атәылауаҩ	-2690
▁цәыр	-2691
дыркны	-2692
▁рахьтә	-2693
▁аԥсныҟа	-2694
▁аҟәыӷара	-2695
ҳан	-2696
▁рк	-2697
жьыр	-2698
▁иԥш	-2699
удент	-2700
▁ачҳара	-2701
▁иргыланы	-2702
иҵа	-2703
▁арт	-2704
▁аган	-2705
▁ақәыр	-2706
▁авраам	-2707
▁идырба	-2708
▁ашәарҭа	-2709
арҷ	-2710
▁иагь	-2711
▁хаҵеи	-2712
▁ԥҳәыси	-2713
▁убасҟан	-2714
▁арыцҳара	-2715
▁наунагӡа	-2716
▁аладырхәит	-2717
▁шьҭа	-2718
▁ирыдыр	-2719
▁аӡырҩцәа	-2720
▁аҭыԥантәи	-2721
▁инадыркны	-2722
▁„	-2723
▁нанҳәа	-2724
▁ԥсалом	-2725
▁ацәыргақәҵа	-2726
ҳам	-2727
мпыл	-2728
мазар	-2729
▁иԥҳәыс	-2730
фициа	-2731
ԥсара	-2732
▁ртәы	-2733
раамҭа	-2734
▁араҟа	-2735
▁дыҟан	-2736
ԥхарақәа	-2737
кын	-2738
▁еиц	-2739
▁еиқәыр	-2740
тәыр	-2741
▁аат	-2742
ьаҿ	-2743
ҩын	-2744
▁гагра	-2745
▁амаалықьцәа	-2746
▁‘	-2747
иҭо	-2748
ков	-2749
▁38	-2750
▁ирҭ	-2751
▁ахацәа	-2752
▁̊	-2753
ӡәы	-2754
▁ирых	-2755
аимбар	-2756
▁зҭаху	-2757
▁кәарҷ	-2758
▁иҟалеит	-2759
▁ӷәӷәала	-2760
ессиа	-2761
кылаз	-2762
▁влад	-2763
▁шәыз	-2764
дҳәалоу	-2765
▁акультуратә	-2766
хтә	-2767
▁ихә	-2768
шареи	-2769
▁иқәыр	-2770
ви	-2771
был	-2772
саб	-2773
▁мша	-2774
ектив	-2775
▁ишәа	-2776
▁шәзы	-2777
▁азиашара	-2778
▁ахырхарҭа	-2779
ауа	-2780
ева	-2781
сахьа	-2782
▁ишаз	-2783
▁акорр	-2784
▁аусзуҩцәа	-2785
▁еицырдыруа	-2786
вил	-2787
ени	-2788
лшозеи	-2789
▁жь	-2790
шоит	-2791
▁анакәха	-2792
▁владислав	-2793
▁культуратә	-2794
▁уаҩ	-2795
▁1992	-2796
▁ишеи	-2797
▁миха	-2798
▁назы	-2799
▁ихәыц	-2800
▁рыҭара	-2801
▁си	-2802
арҭара	-2803
хәдатәра	-2804
гап	-2805
▁дҳа	-2806
аигәа	-2807
▁бызшәала	-2808
▁иахьагьы	-2809
▁апрезидент	-2810
ҽан	-2811
зҵаа	-2812
ԥҵара	-2813
▁адам	-2814
▁аҭах	-2815
▁хатә	-2816
цәажәоз	-2817
▁ҳаракны	-2818
ся	-2819
боз	-2820
▁аицла	-2821
▁зыԥсы	-2822
шьақәыр	-2823
▁даҽакала	-2824
цар	-2825
▁ҳам	-2826
▁абыр	-2827
▁баша	-2828
▁аахыҵ	-2829
▁ашьауӷа	-2830
▁алагамҭа	-2831
иан	-2832
нам	-2833
жьны	-2834
▁зҵаара	-2835
▁аҭоурыхтә	-2836
▁ибзиабара	-2837
қуа	-2838
▁ихь	-2839
▁рымҩаԥгара	-2840
ҭәар	-2841
▁рана	-2842
▁дуқәа	-2843
цԥы	-2844
▁ца	-2845
хырц	-2846
қьым	-2847
чҳара	-2848
▁бааԥс	-2849
▁аӡбахә	-2850
▁аԥҵара	-2851
▁ԥхынгәы	-2852
▁инапхгара	-2853
ибо	-2854
напы	-2855
ҳәоуп	-2856
▁алыр	-2857
андида	-2858
▁абзиара	-2859
▁рыҩныҵҟа	-2860
ҭи	-2861
▁иад	-2862
▁леи	-2863
▁анагӡ	-2864
▁ҳаамҭа	-2865
▁адгылара	-2866
лҭеит	-2867
ологиа	-2868
▁алахәылацәа	-2869
шьҭит	-2870
лаҵаны	-2871
▁аныҟа	-2872
▁вавил	-2873
▁аҳауатә	-2874
▁рацәоуп	-2875
.0	-2876
▁кьы	-2877
▁ԥшь	-2878
▁дықә	-2879
қәшәаз	-2880
▁сареи	-2881
▁ԥҳәыс	-2882
▁аамҭала	-2883
▁аџьабаа	-2884
ип	-2885
митри	-2886
▁цқьа	-2887
▁еиҿка	-2888
▁ашәақәа	-2889
▁ԥсҭазаара	-2890
маза	-2891
шәҵа	-2892
▁даҳ	-2893
▁имоу	-2894
▁ҩыза	-2895
▁аҳәаа	-2896
▁аԥсҭа	-2897
▁ҟазшьа	-2898
▁амедици	-2899
▁кәарҷиа	-2900
▁рх	-2901
▁дал	-2902
барала	-2903
▁дмитри	-2904
ологиатә	-2905
▁анапхгаҩы	-2906
цыз	-2907
зтәи	-2908
▁аам	-2909
▁аԥыр	-2910
▁гәлиа	-2911
▁иқәын	-2912
▁ҳамҭа	-2913
гәырӷьоит	-2914
▁алхәдатәра	-2915
ета	-2916
▁шш	-2917
ҟәыҵ	-2918
▁шҳа	-2919
▁хазы	-2920
▁тәыла	-2921
зааигәоу	-2922
инг	-2923
рика	-2924
▁али	-2925
ектор	-2926
▁ааха	-2927
ҟаҵаҩ	-2928
▁аҭҵа	-2929
ҵура	-2930
ԥшыз	-2931
▁аша	-2932
гылар	-2933
▁аҩыра	-2934
▁ргәаз	-2935
жәи	-2936
лақәа	-2937
ҟазар	-2938
▁афинанс	-2939
каар	-2940
▁иҽа	-2941
▁ҭак	-2942
▁иҟам	-2943
▁наӡаӡатәи	-2944
▁ауаажәларра	-2945
кеи	-2946
кум	-2947
▁апа	-2948
цхраарц	-2949
▁иԥсхьоу	-2950
▁аизырҳара	-2951
▁амаҵзураҿы	-2952
▁иҳацхраауеит	-2953
хҩы	-2954
ӡаз	-2955
ҭрак	-2956
▁уаа	-2957
▁хьы	-2958
ҭааит	-2959
▁зеиԥшыҟам	-2960
▁ача	-2961
▁дра	-2962
▁акәу	-2963
▁март	-2964
▁мыцхәы	-2965
▁улшоит	-2966
▁иҟалоит	-2967
▁азылԥхарақәа	-2968
бон	-2969
рон	-2970
▁рф	-2971
▁иаҳнарҵозеи	-2972
▁ареспубликатә	-2973
кыр	-2974
▁хыхь	-2975
ӷәӷәоу	-2976
▁черқь	-2977
▁аартра	-2978
▁аспорти	-2979
▁акультуреи	-2980
кьы	-2981
арча	-2982
есаа	-2983
сала	-2984
▁дир	-2985
▁рыҭ	-2986
▁сыз	-2987
гаразы	-2988
▁аԥсуаа	-2989
▁рзеиҭа	-2990
цхраауеи	-2991
▁иахәҭоу	-2992
▁хықәкыс	-2993
елиа	-2994
лшома	-2995
▁аҵәы	-2996
▁ефесаа	-2997
▁шьауӷа	-2998
▁араионтә	-2999
цәажәарақәа	-3000
▁абзиабареи	-3001
ҵыс	-3002
▁иақә	-3003
▁қырҭ	-3004
▁алхра	-3005
▁агәҭынчым	-3006
хала	-3007
▁ианыр	-3008
▁иаҳар	-3009
▁иԥсра	-3010
▁ԥыҭрак	-3011
организациа	-3012
ори	-3013
курс	-3014
▁маи	-3015
▁мчы	-3016
бжьоу	-3017
хиоуп	-3018
▁акол	-3019
ормақәа	-3020
ҭахызар	-3021
▁михаил	-3022
▁адепутатцәа	-3023
▁ақыҭанхамҩа	-3024
гор	-3025
уст	-3026
ҽаны	-3027
▁кәы	-3028
▁ҽын	-3029
▁макь	-3030
ԥҵәоуп	-3031
▁ибзиа	-3032
▁лхаҵа	-3033
▁усурақәа	-3034
▁апроблема	-3035
▁аҭаацәаратә	-3036
сс	-3037
▁сп	-3038
▁ген	-3039
артиа	-3040
▁жәпа	-3041
▁изку	-3042
ектқәа	-3043
мырҟьа	-3044
▁дырмит	-3045
▁ҳаԥхьаҟа	-3046
▁имҩаԥысуа	-3047
ҿу	-3048
▁ҷ	-3049
иба	-3050
мат	-3051
▁иатәу	-3052
▁иашьа	-3053
зынаԥшуа	-3054
▁аанацҳауеит	-3055
гу	-3056
гозар	-3057
ҭахыз	-3058
▁акра	-3059
▁аҭыԥҳа	-3060
▁макьана	-3061
▁рашәара	-3062
игӡ	-3063
нап	-3064
зааҭ	-3065
рыла	-3066
ҭҳәа	-3067
▁сым	-3068
листцәа	-3069
▁илшоит	-3070
▁инаӡоит	-3071
бжьарақәа	-3072
▁иаадырԥш	-3073
▁t	-3074
хатә	-3075
ҟьар	-3076
▁ага	-3077
▁нцәа	-3078
▁абжьа	-3079
▁филип	-3080
▁адемон	-3081
▁иаанарԥш	-3082
▁нанҳәамза	-3083
▁ахьын	-3084
▁изакәы	-3085
▁алхратә	-3086
▁астудент	-3087
▁иҳацхраауа	-3088
▁мус	-3089
ститу	-3090
▁адгәыр	-3091
▁израиль	-3092
▁ҳагәрахаҵара	-3093
ург	-3094
▁агр	-3095
▁зал	-3096
харазы	-3097
▁игәра	-3098
▁ахыҵра	-3099
▁ҳараку	-3100
оф	-3101
бзи	-3102
▁иез	-3103
ӷәӷәо	-3104
▁аӡиас	-3105
▁иҟало	-3106
▁иабзоу	-3107
▁иаҳәоит	-3108
▁агәыҳалал	-3109
18	-3110
анк	-3111
хҭа	-3112
иааи	-3113
▁цәыббрамза	-3114
ҵәар	-3115
хәышә	-3116
▁адин	-3117
▁иорд	-3118
▁иҳаи	-3119
▁мҩаԥи	-3120
▁асалам	-3121
▁имариа	-3122
▁хеилак	-3123
қәыршәара	-3124
▁ашьақәыр	-3125
▁ишьҭанеицәа	-3126
вин	-3127
▁дц	-3128
исси	-3129
ҟәша	-3130
зыԥшу	-3131
лагала	-3132
▁милаҭ	-3133
▁ашәҟәыҩ	-3134
▁инарзынаԥшуа	-3135
уд	-3136
▁не	-3137
ильм	-3138
тәиу	-3139
▁имч	-3140
▁акциа	-3141
▁центр	-3142
▁ииҳәаз	-3143
▁шьауӷас	-3144
▁еиҿкаара	-3145
▁алитература	-3146
ҵас	-3147
▁ур	-3148
аргь	-3149
ԥсаз	-3150
ԥсам	-3151
▁ҵәы	-3152
▁иҭах	-3153
▁адами	-3154
цәгьара	-3155
▁жьҭаара	-3156
▁еилаҳкаауеит	-3157
▁рхаҭарнакцәа	-3158
▁ашьақәыргылара	-3159
глы	-3160
ови	-3161
лкаа	-3162
маҵзура	-3163
▁цхыраара	-3164
▁%	-3165
ҽха	-3166
▁ҭар	-3167
▁дыԥс	-3168
ԥхьоит	-3169
▁аиҿка	-3170
▁ҭынха	-3171
дкылара	-3172
хәын	-3173
ԥҳәыс	-3174
▁ақьа	-3175
шәареи	-3176
▁ҩаԥхьа	-3177
▁азгәаҭара	-3178
▁имҩаԥысит	-3179
▁аинв	-3180
▁ашьы	-3181
▁ҟара	-3182
ларазы	-3183
хылаԥш	-3184
хылҵыз	-3185
заанаго	-3186
▁рыҟаҵара	-3187
▁аекономика	-3188
кааз	-3189
▁барц	-3190
ԥмырҟьа	-3191
▁хархәа	-3192
ԥшы	-3193
▁50	-3194
ериа	-3195
▁198	-3196
ӷацәа	-3197
▁аиқә	-3198
▁егза	-3199
▁ашьха	-3200
▁анқәаб	-3201
▁агәалар	-3202
▁алашара	-3203
▁комиссиа	-3204
▁акомиссиа	-3205
▁еизыҟазаашьақәа	-3206
шеи	-3207
ҿыха	-3208
▁руф	-3209
▁ҳус	-3210
▁2017	-3211
▁евеи	-3212
▁ҳахь	-3213
▁амедицинатә	-3214
▁39	-3215
жьуа	-3216
▁аҩн	-3217
ектак	-3218
▁актив	-3219
▁гьаргь	-3220
шала	-3221
еспон	-3222
ҭахым	-3223
▁зқәу	-3224
▁егзакь	-3225
▁еилкаа	-3226
цәажәоит	-3227
▁иадырхә	-3228
▁идыруан	-3229
▁шәылшоит	-3230
▁москватәи	-3231
ԥмырҟьаӡакәа	-3232
об	-3233
▁су	-3234
▁ҭем	-3235
галоит	-3236
▁амузы	-3237
▁уахын	-3238
ектакль	-3239
▁ҿыцқәа	-3240
▁аԥхарра	-3241
ԥым	-3242
ҟәарча	-3243
▁дызус	-3244
▁иреиу	-3245
▁шәага	-3246
▁иқәыԥш	-3247
еспондент	-3248
ԥыларақәа	-3249
хиоу	-3250
▁ҳаш	-3251
▁ироу	-3252
▁шәым	-3253
▁иҟана	-3254
▁агәрыцҳа	-3255
▁аӡбарақәа	-3256
ҩар	-3257
есси	-3258
зареи	-3259
▁адәы	-3260
▁аред	-3261
ԥсахра	-3262
▁ииашам	-3263
▁вавилон	-3264
▁аусурақәа	-3265
▁x	-3266
хан	-3267
клаԥш	-3268
▁ихьы	-3269
▁аслан	-3270
▁уажәа	-3271
▁ашәара	-3272
▁шьақәыр	-3273
цо	-3274
хәны	-3275
▁ажь	-3276
▁еиза	-3277
ԥшуеит	-3278
▁ацәеижь	-3279
▁убасҵәҟьа	-3280
▁акрызҵазкуа	-3281
▁хатәгәаԥхара	-3282
сса	-3283
рацәа	-3284
▁даур	-3285
▁ишаҳ	-3286
▁рхар	-3287
▁апрок	-3288
▁амаҭәа	-3289
▁ракәзар	-3290
▁рыхьчара	-3291
▁имҩаԥысуеит	-3292
ӡиа	-3293
жьҭеи	-3294
анырцә	-3295
▁ашәарҭара	-3296
ау	-3297
ираҟ	-3298
▁маҭ	-3299
▁ник	-3300
▁схы	-3301
▁авет	-3302
▁алшо	-3303
▁ихыр	-3304
▁асахьаҭы	-3305
▁ауахәама	-3306
ец	-3307
лап	-3308
нади	-3309
ионер	-3310
▁амчы	-3311
▁ашьап	-3312
▁апресс	-3313
▁аҭыԥан	-3314
▁ҳтәыла	-3315
▁иахьазы	-3316
▁рашәарамза	-3317
хас	-3318
▁арег	-3319
ӡаныҟә	-3320
▁имоуп	-3321
зхәыцуа	-3322
зымдыруа	-3323
▁аҳәамҭа	-3324
▁иазԥхьагәа	-3325
хом	-3326
иареи	-3327
▁изаа	-3328
▁ируа	-3329
▁ишры	-3330
▁руак	-3331
лкаара	-3332
тәылеи	-3333
▁иҽеим	-3334
▁ихадоуп	-3335
▁аматериал	-3336
▁программа	-3337
лыз	-3338
хьеи	-3339
галар	-3340
лукаа	-3341
ԥхықә	-3342
▁2016	-3343
▁аҵар	-3344
▁ҭемыр	-3345
▁ишыҟоу	-3346
▁иҭахаз	-3347
▁иҿырԥшы	-3348
▁аиаҳәшьа	-3349
ети	-3350
тат	-3351
сақәа	-3352
▁реиз	-3353
итартә	-3354
неишьа	-3355
▁мусса	-3356
ҭаацәеи	-3357
ҭал	-3358
самб	-3359
▁дна	-3360
▁иуз	-3361
▁узы	-3362
▁амза	-3363
▁есымша	-3364
ҿлымҳара	-3365
▁иуҳәозар	-3366
▁асоциалтә	-3367
▁ирыхҟьаны	-3368
▁ииашаҵәҟьоу	-3369
▁аҵыхәтәанынӡа	-3370
▁инарықәыршәаны	-3371
12	-3372
мҵа	-3373
нҩа	-3374
ски	-3375
▁45	-3376
хреи	-3377
ҳазы	-3378
▁лым	-3379
▁ҳна	-3380
шьоуп	-3381
▁2018	-3382
▁рҳәа	-3383
ӡаахра	-3384
▁русура	-3385
▁ахаҭарнак	-3386
жьит	-3387
ҭакы	-3388
шьҭыз	-3389
▁даан	-3390
▁афото	-3391
▁дышԥа	-3392
▁ицқьа	-3393
▁аҳратә	-3394
▁ахықәкы	-3395
зен	-3396
ҳәра	-3397
ҭынха	-3398
▁шьам	-3399
ԥхьаӡо	-3400
▁атәым	-3401
ԥхьаӡоит	-3402
▁рыӡбара	-3403
▁рҿаԥхьа	-3404
▁шықәсык	-3405
▁шәаргьы	-3406
▁аныҳәатә	-3407
▁лаҵарамза	-3408
сир	-3409
цца	-3410
▁ii	-3411
куаз	-3412
ҿгьы	-3413
▁зҳа	-3414
▁рыда	-3415
▁еиҭар	-3416
▁мҩаԥга	-3417
▁раҟара	-3418
▁амазара	-3419
▁аконститу	-3420
▁аҳәаанырцә	-3421
▁аҭаацәараҿы	-3422
ео	-3423
нык	-3424
▁иӡ	-3425
шоуп	-3426
▁аоп	-3427
▁афи	-3428
▁наҟ	-3429
каарц	-3430
▁ииас	-3431
жәкыра	-3432
▁ҵәыџь	-3433
▁геннади	-3434
▁адгалара	-3435
▁ахьыԥшымра	-3436
кка	-3437
ртә	-3438
▁еид	-3439
▁аексп	-3440
шәҟәқәа	-3441
▁адинхаҵара	-3442
▁иабзоураны	-3443
ҽазы	-3444
▁уиа	-3445
қәаки	-3446
▁анаҳ	-3447
▁ачемп	-3448
ԥырхага	-3449
▁абахҭа	-3450
▁барцыц	-3451
▁жәпакы	-3452
▁идоуҳала	-3453
▁ачымазара	-3454
▁апостолцәа	-3455
▁агәаанагара	-3456
лшоз	-3457
▁атер	-3458
▁игор	-3459
▁лана	-3460
▁ҽынла	-3461
ҟазаара	-3462
▁иуадаҩ	-3463
▁ҳазшаз	-3464
▁аҩызцәа	-3465
▁ҳәынҭқарра	-3466
▁ирзы	-3467
▁ҭынч	-3468
ԥылеит	-3469
▁аилак	-3470
▁аԥсыӡ	-3471
ҟәарчал	-3472
ҵахырхә	-3473
▁ҳамоуп	-3474
▁назыгӡо	-3475
ҳәынҭқарра	-3476
▁аԥҟарақәа	-3477
бз	-3478
илеи	-3479
▁атә	-3480
▁зым	-3481
уадаҩ	-3482
▁изым	-3483
▁амоуп	-3484
▁аветера	-3485
▁ишахәҭоу	-3486
▁кь	-3487
фара	-3488
шәым	-3489
▁дшыр	-3490
▁амзыз	-3491
▁иаарту	-3492
▁ҳазхәыц	-3493
▁аныҟәара	-3494
▁ҳашьцәеи	-3495
▁университет	-3496
▁акорреспондент	-3497
гиа	-3498
мал	-3499
мка	-3500
уазеи	-3501
▁хәыҷ	-3502
гаратә	-3503
▁конст	-3504
▁аусԥҟа	-3505
▁зыгәра	-3506
фициалтә	-3507
▁диаспора	-3508
▁реиҳараҩык	-3509
шәон	-3510
ҭҵаа	-3511
▁шаҳ	-3512
џьара	-3513
▁абара	-3514
▁апублика	-3515
▁аҭынчреи	-3516
▁ԥхынҷкәын	-3517
▁зеи	-3518
▁ҩба	-3519
антин	-3520
▁ирыц	-3521
▁ахаҿы	-3522
▁мҩаԥыр	-3523
▁ацәгьоу	-3524
▁аҳақьым	-3525
▁иҟаҵатәу	-3526
лир	-3527
рас	-3528
▁41	-3529
▁42	-3530
дина	-3531
▁авг	-3532
▁хра	-3533
▁ԥыҭ	-3534
▁ахьи	-3535
▁рыгә	-3536
ынҵақәа	-3537
▁иҭахын	-3538
▁амчыбжь	-3539
▁агәаҟрақәа	-3540
ҳау	-3541
▁2019	-3542
▁дека	-3543
▁азоуп	-3544
▁ашәыр	-3545
▁аҟара	-3546
тәылатә	-3547
▁акзаара	-3548
▁аҳасабала	-3549
▁ажәабжьҳәаратә	-3550
есса	-3551
тқәа	-3552
▁зых	-3553
▁авто	-3554
▁амал	-3555
▁иҭыҵ	-3556
ҵаразы	-3557
▁ахьча	-3558
▁иҭаацәа	-3559
▁ажәытәан	-3560
▁хәажәкыра	-3561
екст	-3562
хьчо	-3563
газеҭ	-3564
ьыԥхь	-3565
хьчоит	-3566
▁апроф	-3567
▁дареи	-3568
аигәара	-3569
▁ҟарачы	-3570
қәиргәыӷ	-3571
▁аҿаԥхьа	-3572
▁иаҳасабала	-3573
▁константин	-3574
▁ре	-3575
шәоу	-3576
▁при	-3577
▁адиа	-3578
▁ҩышықәса	-3579
▁аҿагылара	-3580
▁рыдыркылеит	-3581
▁ашәышықәсазы	-3582
▁it	-3583
▁ҿа	-3584
тәыс	-3585
џьыр	-3586
ҟәымҵ	-3587
▁бган	-3588
▁рнап	-3589
▁автор	-3590
▁анышә	-3591
▁иқәынхо	-3592
иаа	-3593
▁сим	-3594
▁сол	-3595
▁абра	-3596
▁акад	-3597
▁бага	-3598
▁иаажә	-3599
дырратә	-3600
▁азхәыцра	-3601
▁ақәҿиара	-3602
▁th	-3603
хәыр	-3604
▁лхы	-3605
арҭәа	-3606
▁2015	-3607
мадара	-3608
▁акомп	-3609
әынҭқар	-3610
ԥсадгьыл	-3611
▁иақәиҭу	-3612
▁иааҳарԥш	-3613
▁аицлабрақәа	-3614
рҭа	-3615
ӡра	-3616
▁пр	-3617
▁арх	-3618
лаҳар	-3619
▁агар	-3620
▁изыр	-3621
▁рхеилак	-3622
▁азхаҵара	-3623
▁хатәгәаԥхарала	-3624
шт	-3625
▁44	-3626
илаа	-3627
▁ида	-3628
▁аман	-3629
▁евро	-3630
каауан	-3631
мзаара	-3632
▁ауааи	-3633
▁қәыԥш	-3634
▁декабр	-3635
▁дыҟоуп	-3636
▁иналаҵаны	-3637
▁усмҩаԥгатәқәа	-3638
изм	-3639
ибли	-3640
коба	-3641
▁анг	-3642
▁пала	-3643
▁руфь	-3644
▁инарҭ	-3645
▁ҭабуп	-3646
▁уахынла	-3647
▁рганахьала	-3648
▁алабжьарақәа	-3649
▁аҭаацәалазаара	-3650
▁60	-3651
▁апр	-3652
▁1993	-3653
арацәа	-3654
▁лҳәеит	-3655
▁атурист	-3656
▁иаҳҳәар	-3657
▁адкылара	-3658
▁аконцерт	-3659
▁атәылауаа	-3660
чи	-3661
гәаа	-3662
▁окт	-3663
▁сзы	-3664
▁ҟәы	-3665
▁зҵоу	-3666
гақәеи	-3667
▁афонд	-3668
▁еилҳаргап	-3669
▁имаҷымкәа	-3670
▁аԥышәарақәа	-3671
наҭа	-3672
мазаҩ	-3673
ҳәаны	-3674
▁хьаа	-3675
▁ҳәаа	-3676
▁ихьан	-3677
▁бганба	-3678
▁абиуџьет	-3679
▁иеиҳәеит	-3680
ҵит	-3681
каау	-3682
ымца	-3683
ҳәан	-3684
▁194	-3685
▁егь	-3686
ерман	-3687
кылар	-3688
▁асаб	-3689
▁ашәахтә	-3690
▁рацәала	-3691
ԥаҳ	-3692
иҵаз	-3693
шьан	-3694
▁иаҿа	-3695
▁школ	-3696
▁аҳцәа	-3697
▁маҭәа	-3698
▁убарҭ	-3699
лукааша	-3700
▁аҿыхра	-3701
▁рҭаацәа	-3702
▁израилаа	-3703
▁конгресс	-3704
▁70	-3705
толи	-3706
гозеи	-3707
▁рҽыр	-3708
▁ақьиара	-3709
▁имаҵура	-3710
▁ану	-3711
▁есф	-3712
хасҭа	-3713
самбль	-3714
▁ԥхьаҟатәи	-3715
▁имҩаԥысуаз	-3716
иҵо	-3717
қәыз	-3718
галарц	-3719
▁економ	-3720
▁ракәын	-3721
му	-3722
ӷәы	-3723
ԥын	-3724
гакәа	-3725
иатәи	-3726
▁лгәы	-3727
шәырԥш	-3728
▁атехн	-3729
▁еилышә	-3730
▁иҵабырг	-3731
▁аконкурс	-3732
▁мл	-3733
слан	-3734
гориа	-3735
тивтә	-3736
▁амра	-3737
▁амыр	-3738
▁иҩуан	-3739
▁шамба	-3740
▁апрель	-3741
▁сҭахуп	-3742
▁агәаҟра	-3743
▁хышықәса	-3744
▁43	-3745
▁анд	-3746
▁аҵы	-3747
▁иахы	-3748
▁алкаа	-3749
▁акәзеи	-3750
▁афорум	-3751
▁аҟазара	-3752
▁аизыҟазаашьақәа	-3753
рал	-3754
заар	-3755
▁ааӡа	-3756
ҿкаара	-3757
▁август	-3758
▁аиҿкаа	-3759
▁рҳәоит	-3760
▁иалагоит	-3761
▁хь	-3762
▁алы	-3763
дициа	-3764
ҳәалар	-3765
▁шҳалшо	-3766
неидкыла	-3767
▁ицәгьоу	-3768
▁аԥышәара	-3769
маҷ	-3770
▁хыҭ	-3771
гьежь	-3772
▁џьоу	-3773
дырреи	-3774
▁асаит	-3775
▁ахатә	-3776
▁ахьеи	-3777
▁дахьы	-3778
дырԥшуа	-3779
▁иҳалшо	-3780
▁шәагаала	-3781
▁иазгәалҭеит	-3782
ык	-3783
зал	-3784
әықә	-3785
хәыҷы	-3786
шьҭаз	-3787
▁хықә	-3788
ижьҭеи	-3789
лектив	-3790
шәтәыр	-3791
▁театр	-3792
дгылара	-3793
▁сынтәа	-3794
▁хыԥхьаӡара	-3795
вар	-3796
хаҳ	-3797
лҿиа	-3798
▁ахьаа	-3799
▁дамеи	-3800
▁дгьыл	-3801
▁иагьы	-3802
хьчаратә	-3803
▁ахылаԥшра	-3804
▁аҽазыҟаҵара	-3805
ӡак	-3806
лакы	-3807
▁зыл	-3808
▁рыҩ	-3809
▁аоби	-3810
▁рылш	-3811
▁ақырҭ	-3812
тегориа	-3813
▁игәала	-3814
ӡаныҟәгаҩ	-3815
▁еилазаара	-3816
▁ахәаахәҭра	-3817
ҭаҳ	-3818
ӡац	-3819
илар	-3820
▁иск	-3821
▁мыш	-3822
▁знык	-3823
▁рзин	-3824
▁ҳәоу	-3825
закәан	-3826
▁аибашь	-3827
▁иисуси	-3828
▁палата	-3829
▁ансамбль	-3830
▁имҩаԥгаз	-3831
▁иналукааша	-3832
▁вит	-3833
зҭгьы	-3834
латәу	-3835
▁иҟал	-3836
▁ыҟам	-3837
▁ажьыр	-3838
▁абаҳча	-3839
▁аҭаара	-3840
▁рыӡбахә	-3841
▁ихаҭыԥуа	-3842
▁сыр	-3843
ҵақәа	-3844
нагоит	-3845
▁азеиԥш	-3846
▁ишԥаҳа	-3847
ԥсазтәыз	-3848
▁аԥхьахә	-3849
▁иеремиа	-3850
заанагоит	-3851
▁ауадаҩра	-3852
or	-3853
еб	-3854
оман	-3855
▁кыр	-3856
▁раҳ	-3857
▁анна	-3858
▁иури	-3859
▁аҵаҟа	-3860
▁рыҟны	-3861
▁џьара	-3862
зиашаны	-3863
▁аспектакль	-3864
шьр	-3865
▁зи	-3866
қьоу	-3867
хареи	-3868
ԥхоит	-3869
▁сент	-3870
хыҩцәа	-3871
шьаала	-3872
▁шаҳаҭ	-3873
▁ҟазҵаз	-3874
▁ҳҭахуп	-3875
▁ахәыҷтәы	-3876
▁агәҭынчымра	-3877
▁зҽаԥсазтәыз	-3878
▁агәрыцҳашьара	-3879
ита	-3880
сны	-3881
ысра	-3882
дареи	-3883
маҭәа	-3884
әымшәы	-3885
андидат	-3886
▁ирацәа	-3887
▁агәырҿыха	-3888
▁аҟазшьақәа	-3889
ныш	-3890
▁иҳ	-3891
▁ум	-3892
кәым	-3893
паҿы	-3894
▁аӡәи	-3895
ларатә	-3896
ҳангьы	-3897
▁мессиа	-3898
▁ҳаҳәшьцәеи	-3899
быр	-3900
гал	-3901
атри	-3902
гало	-3903
▁зус	-3904
ламыс	-3905
хадоу	-3906
▁алым	-3907
▁апоет	-3908
▁ибоит	-3909
▁рымам	-3910
▁арӷәӷә	-3911
▁афырха	-3912
ҽра	-3913
▁75	-3914
▁лаб	-3915
▁иааз	-3916
▁пион	-3917
ӡомызт	-3918
▁арҵаҩы	-3919
▁иҟарҵаз	-3920
▁пионерс	-3921
зҭанаҵоит	-3922
▁аинвести	-3923
▁ахцәажәара	-3924
қа	-3925
ҟы	-3926
вол	-3927
▁рп	-3928
▁риа	-3929
▁ахеи	-3930
▁кьаҿ	-3931
арԥшра	-3932
кәшара	-3933
▁сыҟоуп	-3934
▁узырбо	-3935
дыс	-3936
ҵыз	-3937
ӡәк	-3938
баны	-3939
▁зылшо	-3940
▁иҟашә	-3941
▁иӡбахә	-3942
▁агәаҳәара	-3943
▁аҳамҭақәа	-3944
▁ели	-3945
▁ицә	-3946
▁иуан	-3947
▁аԥеиԥш	-3948
▁шиакәу	-3949
▁ахаҵара	-3950
▁иџьашьа	-3951
▁амашьына	-3952
▁ахараԥса	-3953
ров	-3954
ҩуп	-3955
ҭоз	-3956
ӷаб	-3957
▁қь	-3958
▁191	-3959
▁акәы	-3960
▁ашәҭ	-3961
ҟазара	-3962
▁ахаҳә	-3963
▁мчыла	-3964
▁асабша	-3965
▁рҽазыр	-3966
▁аекономикатә	-3967
гед	-3968
чес	-3969
ҿыз	-3970
▁jw	-3971
анаго	-3972
▁акур	-3973
▁иҭоу	-3974
халарц	-3975
ԥхашәа	-3976
умҭақәа	-3977
хәаԥшып	-3978
▁витали	-3979
▁ирымаз	-3980
▁каслан	-3981
ференциа	-3982
анагарала	-3983
кәанеидкыла	-3984
▁ме	-3985
▁дын	-3986
қәшәоит	-3987
▁ааӡара	-3988
▁анцәеи	-3989
▁иазкыз	-3990
▁руслан	-3991
зыӡырҩуа	-3992
қьырсиан	-3993
▁адгьыла	-3994
▁ажьырныҳәа	-3995
дон	-3996
пан	-3997
стра	-3998
ҭаацә	-3999
▁гәым	-4000
▁ирыд	-4001
▁иҳаз	-4002
▁мзыз	-4003
▁сала	-4004
гәыӷра	-4005
раанӡа	-4006
ҳәареи	-4007
▁амаҵура	-4008
▁ирласны	-4009
▁ирылацәажәеит	-4010
рук	-4011
даны	-4012
иҩит	-4013
мҩаԥ	-4014
мҭазы	-4015
▁акин	-4016
▁ацара	-4017
▁ихатә	-4018
▁бзианы	-4019
▁еидгыла	-4020
▁еилыкка	-4021
▁иалахәыз	-4022
илы	-4023
паа	-4024
▁ҳш	-4025
тәии	-4026
▁акь	-4027
▁гала	-4028
▁солом	-4029
▁ҳанры	-4030
ылампыл	-4031
▁анаука	-4032
▁аԥсахра	-4033
▁изышьҭоу	-4034
▁ацҳаражәҳәаҩ	-4035
лах	-4036
ова	-4037
▁па	-4038
кәны	-4039
гӡоит	-4040
зыҟаз	-4041
▁аҳас	-4042
▁ҳама	-4043
▁аилка	-4044
▁апату	-4045
шьаратә	-4046
қәныҟәа	-4047
▁џьоукы	-4048
ҭазаареи	-4049
кыу	-4050
жәтә	-4051
мара	-4052
▁197	-4053
▁иџь	-4054
бааԥс	-4055
▁иагьа	-4056
цхрааит	-4057
ҿиаратә	-4058
▁аҷкәын	-4059
▁ҳанцәа	-4060
ҭакрақәа	-4061
▁адныҳәа	-4062
▁аиашара	-4063
▁дҟаҵоуп	-4064
▁касланӡиа	-4065
лк	-4066
рам	-4067
▁48	-4068
▁иҭә	-4069
▁агрба	-4070
▁арахь	-4071
▁даҽаз	-4072
▁еиҭал	-4073
▁еиҭах	-4074
▁иазха	-4075
▁ныҳәа	-4076
▁агазеҭ	-4077
▁ацхыра	-4078
цесс	-4079
ҟәра	-4080
ҳәыр	-4081
ҽхәа	-4082
▁нар	-4083
ӡамызт	-4084
▁анҭыҵ	-4085
ӷәӷәоуп	-4086
▁ахшара	-4087
▁даҽаӡәы	-4088
аимбаражәа	-4089
хаа	-4090
матә	-4091
опуа	-4092
▁100	-4093
ҭыхра	-4094
▁амет	-4095
▁ахкы	-4096
▁нызы	-4097
еремон	-4098
уамызт	-4099
риториа	-4100
▁иаирхә	-4101
▁исканд	-4102
ҩеи	-4103
ԥши	-4104
бург	-4105
▁бас	-4106
▁ҳах	-4107
арҭоу	-4108
дыруан	-4109
▁иҳара	-4110
лархәра	-4111
цәажәон	-4112
▁ахыбра	-4113
▁рҿырԥш	-4114
▁аџьашьа	-4115
▁иҩызцәа	-4116
▁азхаҵаҩцәа	-4117
▁жьҭаарамза	-4118
▁иаҵанакуеит	-4119
▁инапынҵақәа	-4120
чара	-4121
▁дреи	-4122
▁ихын	-4123
▁ԥсык	-4124
шьҭоуп	-4125
▁игорь	-4126
▁рхатә	-4127
▁рыхьч	-4128
хәаԥшуа	-4129
▁аамҭак	-4130
▁роуеит	-4131
▁зеиԥшра	-4132
▁алҵшәақәа	-4133
▁аҳәынҭқар	-4134
▁еиҭеиҳәеит	-4135
иф	-4136
луб	-4137
▁дза	-4138
▁абзи	-4139
▁аҽын	-4140
▁уааи	-4141
тикатә	-4142
ҵахоит	-4143
▁ишԥеи	-4144
▁унцәа	-4145
▁машәыр	-4146
▁ноиабр	-4147
▁нызықь	-4148
▁аиҩызара	-4149
▁абҵарамза	-4150
▁аинформациатә	-4151
ҳҵо	-4152
▁рд	-4153
вали	-4154
тика	-4155
хәым	-4156
▁арб	-4157
▁или	-4158
▁пет	-4159
цҵаны	-4160
▁атра	-4161
▁аҵак	-4162
▁аӡын	-4163
▁бжьы	-4164
▁артур	-4165
ҭарақәа	-4166
▁злахәу	-4167
▁абасала	-4168
▁қәҿиара	-4169
▁агәахәара	-4170
▁уаԥстәыла	-4171
vi	-4172
ҽр	-4173
ӡбо	-4174
▁бы	-4175
арас	-4176
емин	-4177
ециа	-4178
ԥхьы	-4179
ҵымҭа	-4180
▁архи	-4181
▁иҩыза	-4182
▁агәазы	-4183
▁риҭеит	-4184
▁принципқәа	-4185
▁иорганизациа	-4186
су	-4187
тр	-4188
лин	-4189
▁аҷ	-4190
▁по	-4191
цала	-4192
шьыр	-4193
▁лар	-4194
▁лев	-4195
▁аорд	-4196
ызшәеи	-4197
▁иҳаҩс	-4198
зышьҭра	-4199
еремониа	-4200
▁ажәеинраалақәа	-4201
st	-4202
лҭ	-4203
баҟа	-4204
заҳа	-4205
иҵеит	-4206
▁дыҟа	-4207
▁ҟәша	-4208
лаҵара	-4209
▁аплан	-4210
▁аруаа	-4211
▁дрыла	-4212
▁иабан	-4213
цхраара	-4214
▁иаргьы	-4215
▁хәарҭа	-4216
▁соломон	-4217
▁ақәҵымҭа	-4218
▁иреиуоуп	-4219
▁реидгыла	-4220
▁ҳалшозеи	-4221
ӷоу	-4222
▁рар	-4223
ԥымза	-4224
▁зауз	-4225
▁багра	-4226
▁ииҭеит	-4227
▁аҵаразы	-4228
▁издыруа	-4229
▁иӷәӷәоу	-4230
▁ҳаҟазар	-4231
▁аладатәи	-4232
▁апринцип	-4233
▁ирылагӡаны	-4234
▁80	-4235
кәыз	-4236
шәан	-4237
гылоз	-4238
гьара	-4239
нахыс	-4240
▁ацар	-4241
▁ҟарҵеит	-4242
▁аусшәҟәы	-4243
▁ашәҟәқәа	-4244
▁иаанхоит	-4245
▁искандер	-4246
▁филиппаа	-4247
▁ачемпиона	-4248
▁уажәраанӡа	-4249
▁астудентцәа	-4250
▁агәаларшәара	-4251
▁атәылахьчара	-4252
▁аҭаацәарақәа	-4253
▁идиныҳәалеит	-4254
ҷаҳа	-4255
ԥшит	-4256
▁мшы	-4257
гаӡом	-4258
▁нары	-4259
шьареи	-4260
хәаԥшра	-4261
шьҭыхра	-4262
▁ҳҽазаҳ	-4263
қәыӷәӷәара	-4264
▁зҵаарақәа	-4265
▁ииашамкәа	-4266
миа	-4267
етра	-4268
лаша	-4269
▁ииз	-4270
лгара	-4271
▁дҳар	-4272
ҵабырг	-4273
▁зҳалшо	-4274
▁активла	-4275
▁октиабр	-4276
▁уазхәыц	-4277
▁аиҳабыра	-4278
▁мшаԥымза	-4279
▁мрагылара	-4280
бжа	-4281
иза	-4282
ӷар	-4283
шәоз	-4284
▁егьи	-4285
▁иажә	-4286
кыланы	-4287
▁хьаас	-4288
лыргара	-4289
▁аиудеи	-4290
▁даргьы	-4291
▁иаҳгәа	-4292
▁аизҳазы	-4293
▁аҿырԥшы	-4294
▁зықәрахь	-4295
фан	-4296
ҵыр	-4297
ласс	-4298
▁имари	-4299
▁гәакьа	-4300
▁иааиуа	-4301
▁леонид	-4302
▁анатоли	-4303
▁зныԥшуа	-4304
▁асистема	-4305
▁аҭышәынтәа	-4306
▁аҳәаанырцәтәи	-4307
зуҩ	-4308
▁имш	-4309
▁раз	-4310
▁ахаҭа	-4311
гыларақәа	-4312
▁иахьынӡа	-4313
▁ҭҟәарчал	-4314
▁аҿырԥштәы	-4315
▁шәхәыҷқәа	-4316
▁инеиҳангьы	-4317
▁рҭагылазаашьа	-4318
иц	-4319
роп	-4320
ҵау	-4321
куан	-4322
мҭак	-4323
наго	-4324
ҽӡаа	-4325
▁абу	-4326
▁кол	-4327
▁фев	-4328
нуҵҟа	-4329
▁ҳагә	-4330
ҵаларц	-4331
ӷьареи	-4332
▁аџьар	-4333
▁рыхьӡ	-4334
▁зхыҵуа	-4335
▁ҳашьцәа	-4336
▁ԥхынгәымза	-4337
▁економикатә	-4338
ным	-4339
бзиа	-4340
цқьа	-4341
▁асц	-4342
▁гыц	-4343
лымшо	-4344
ҵуеит	-4345
▁нхыҵ	-4346
графиа	-4347
▁аџьныш	-4348
▁баграт	-4349
▁маҭфеи	-4350
▁агәрагара	-4351
▁алшарақәа	-4352
▁изакәызеи	-4353
▁кавказтәи	-4354
▁аиҭакрақәа	-4355
▁иазыԥҵәоуп	-4356
иҭы	-4357
шоз	-4358
▁арԥ	-4359
▁аӡа	-4360
анатә	-4361
▁иали	-4362
▁иҩны	-4363
▁кәыҵ	-4364
▁фази	-4365
▁ҽнак	-4366
▁ашьҭа	-4367
▁ргәыр	-4368
ҩызцәеи	-4369
▁иҳәара	-4370
▁илҳәоит	-4371
▁ахачҳара	-4372
▁иреиҳәеит	-4373
▁рзеиҭаҳәара	-4374
анг	-4375
бран	-4376
ҳәоу	-4377
▁зыз	-4378
ҵазеи	-4379
▁анҵәа	-4380
лагалара	-4381
▁ахазына	-4382
▁ацәқәыр	-4383
▁иқәыԥшу	-4384
▁аҳаҭыртә	-4385
▁имҩаԥысыз	-4386
шш	-4387
дум	-4388
▁та	-4389
икеи	-4390
ҟәыр	-4391
▁дҭа	-4392
▁уан	-4393
барда	-4394
▁зура	-4395
▁сгәа	-4396
▁шәха	-4397
ԥсахуа	-4398
▁ашәҟә	-4399
▁иаҳбо	-4400
▁европа	-4401
▁џьашьа	-4402
▁алшозеи	-4403
▁изыӡырҩ	-4404
▁аспорттә	-4405
▁зҳахәҭоу	-4406
▁ишԥарылшо	-4407
жәар	-4408
мыжь	-4409
▁мза	-4410
лԥшьа	-4411
▁асҭа	-4412
▁уаҩы	-4413
зыԥшуп	-4414
цәагьы	-4415
хгаҩцәа	-4416
▁аорден	-4417
▁аԥҟара	-4418
▁иаҭаху	-4419
▁иаԥсоу	-4420
▁саргьы	-4421
▁фазиль	-4422
▁џьопуа	-4423
▁аганқәа	-4424
▁аумҭақәа	-4425
▁реиԥылара	-4426
ез	-4427
уҭ	-4428
бна	-4429
дак	-4430
они	-4431
▁см	-4432
▁ун	-4433
барц	-4434
цәым	-4435
▁193	-4436
ҟынтә	-4437
▁убра	-4438
убилеи	-4439
▁есфир	-4440
▁ихаан	-4441
▁аԥшаара	-4442
▁аҵыхәтәан	-4443
▁иаанагозеи	-4444
▁ирыдҳәалоу	-4445
▁сеи	-4446
гаԥса	-4447
мҭаны	-4448
ҟәара	-4449
▁ахра	-4450
▁иуда	-4451
▁иҳәоуп	-4452
▁адгьыли	-4453
▁акурорт	-4454
▁багаԥшь	-4455
▁жәабран	-4456
▁рҭоурых	-4457
▁мҩаԥгахоит	-4458
лых	-4459
лшом	-4460
пара	-4461
▁аҵә	-4462
▁ель	-4463
▁ишь	-4464
▁ҟаҵа	-4465
ҭаратә	-4466
▁ҟазҵо	-4467
ҳараӡак	-4468
▁ҭыԥқәа	-4469
▁ҳазҭоу	-4470
▁аҟалара	-4471
▁алхрақәа	-4472
▁цәгьақәа	-4473
▁иԥааимбар	-4474
▁хархәагақәа	-4475
еиа	-4476
▁46	-4477
▁ҟана	-4478
ҩаԥысуа	-4479
ҿцәажәо	-4480
▁арамка	-4481
▁иҭыҵыз	-4482
▁маҵура	-4483
▁асҭамыр	-4484
▁ҳажәлар	-4485
▁ихьанҭоу	-4486
▁лажәақәа	-4487
▁сентиабр	-4488
▁арӷәӷәара	-4489
▁ацәажәара	-4490
▁агәымбылџь	-4491
ԥи	-4492
ҵак	-4493
▁jy	-4494
▁196	-4495
▁иап	-4496
ҭәара	-4497
ҵозар	-4498
▁еиду	-4499
▁зқәым	-4500
▁иудеи	-4501
▁цхыраа	-4502
▁ԥсыхәа	-4503
▁ишԥааир	-4504
▁абзацқәа	-4505
▁иазгәарҭ	-4506
▁институт	-4507
гыз	-4508
ҟра	-4509
уааи	-4510
▁зцу	-4511
рыԥшь	-4512
ҭаауа	-4513
▁иҳар	-4514
▁хшыҩ	-4515
▁аалыҵ	-4516
▁аихьӡ	-4517
▁интер	-4518
▁шыҟоу	-4519
▁ахарџь	-4520
▁асасцәа	-4521
▁усҟантәи	-4522
еки	-4523
руг	-4524
хьар	-4525
хьыр	-4526
ҟьаз	-4527
бааны	-4528
▁зуаз	-4529
▁ааглы	-4530
▁ароль	-4531
▁зураб	-4532
▁лакоба	-4533
▁руаӡәк	-4534
цхраауан	-4535
▁аԥсшьара	-4536
▁иорданиа	-4537
▁анагӡаразы	-4538
▁жәеинраала	-4539
▁ҳацхраауеит	-4540
▁иазԥхьагәаҭоу	-4541
org	-4542
ури	-4543
уҩы	-4544
▁би	-4545
▁млн	-4546
▁уна	-4547
▁амар	-4548
▁кәала	-4549
▁ҳхәыц	-4550
цәырҵуа	-4551
▁арҵара	-4552
▁аҭыжьы	-4553
▁ааирԥшит	-4554
▁аныҳәарҭа	-4555
▁усбарҭақәа	-4556
лоз	-4557
сит	-4558
клет	-4559
▁ҳша	-4560
▁аҳаир	-4561
▁аҵаиҩит	-4562
▁аполитика	-4563
▁ахьчаратә	-4564
▁агәыҳалалратә	-4565
уи	-4566
қы	-4567
ану	-4568
▁ич	-4569
ҵаар	-4570
▁ҳау	-4571
ҩызшо	-4572
ҵәоит	-4573
▁ахым	-4574
▁иҟны	-4575
▁ишԥаи	-4576
▁мраҭа	-4577
▁иакәын	-4578
▁шәареи	-4579
дыруазар	-4580
▁ҟалаӡом	-4581
▁кәаласаа	-4582
▁наԥхгара	-4583
ӡои	-4584
▁мыз	-4585
хыҵра	-4586
▁еиҵа	-4587
▁рыԥс	-4588
сҳәоит	-4589
▁ақәым	-4590
▁мҩаԥигеит	-4591
▁акыршықәса	-4592
цәи	-4593
ӷба	-4594
▁со	-4595
ӷьас	-4596
ӷареи	-4597
▁2014	-4598
ӷьтәра	-4599
▁ааныр	-4600
▁аҳәар	-4601
▁рыԥша	-4602
▁рыгәра	-4603
▁ахьынӡа	-4604
▁аԥсҭҳәа	-4605
▁иҿыԥшра	-4606
▁ачемпионат	-4607
▁иарбанзаалак	-4608
енд	-4609
мер	-4610
ҵәо	-4611
▁ае	-4612
▁ез	-4613
▁гри	-4614
▁саи	-4615
▁иаур	-4616
▁еилыс	-4617
▁иаҿуп	-4618
▁ахәаԥш	-4619
▁ашьаус	-4620
▁иусура	-4621
▁иҟарҵо	-4622
▁иҟаҵаны	-4623
▁уиаҟара	-4624
▁иазырхоу	-4625
ҟәымҵӡакәа	-4626
▁шәрыхәаԥш	-4627
▁ҩынтәзакәан	-4628
мҵ	-4629
фф	-4630
нда	-4631
▁55	-4632
ҭатә	-4633
ҳәыз	-4634
▁доу	-4635
▁дыл	-4636
гарҭа	-4637
▁абаҩ	-4638
▁бори	-4639
▁дууп	-4640
дыруеи	-4641
▁спорт	-4642
▁хадас	-4643
▁ахатәы	-4644
лырҟьаны	-4645
▁абжьара	-4646
▁игәҭакы	-4647
▁ишәымоу	-4648
▁еиҳараӡак	-4649
▁аԥсахрақәа	-4650
▁миллионҩыла	-4651
▁рызҵаарақәа	-4652
▁иаанарԥшуеит	-4653
▁ишԥаҳацхраауеи	-4654
мца	-4655
▁от	-4656
еиба	-4657
шәаз	-4658
орцәа	-4659
рҭынч	-4660
ҭахын	-4661
▁шына	-4662
гыларц	-4663
▁адлеи	-4664
▁аҩган	-4665
▁еиқәа	-4666
▁закәу	-4667
▁иаҳәо	-4668
▁арыцҳа	-4669
▁цәгьара	-4670
▁иҳалшоит	-4671
▁амаҵзуратә	-4672
▁аҽынкылара	-4673
▁еилҳаргоит	-4674
пл	-4675
шу	-4676
ланар	-4677
шәқәа	-4678
▁аани	-4679
▁аҭыр	-4680
▁ириа	-4681
▁ицәы	-4682
▁уама	-4683
▁фонд	-4684
▁шәын	-4685
озициа	-4686
▁ахықә	-4687
▁иҽази	-4688
▁навин	-4689
▁наигӡ	-4690
▁атеатр	-4691
▁ашьақә	-4692
анитартә	-4693
▁аԥхасҭа	-4694
▁кәыҵниа	-4695
▁акыраамҭа	-4696
▁аиԥыларақәа	-4697
▁раԥхьаӡатәи	-4698
▁азакәанеидкыла	-4699
лра	-4700
сим	-4701
тит	-4702
ӷыр	-4703
▁шь	-4704
гәуа	-4705
ҽала	-4706
▁еле	-4707
салиа	-4708
ҟәаҿы	-4709
▁абаа	-4710
▁ашҟа	-4711
▁изыҟа	-4712
▁иҳәон	-4713
▁реиҭа	-4714
▁зыхьӡу	-4715
▁идунеи	-4716
▁шәарҭа	-4717
шьцылара	-4718
▁аӡбарҭа	-4719
▁иҳаҩсыз	-4720
▁ҭахрақәа	-4721
▁ицхыраара	-4722
20	-4723
хам	-4724
ҳәаа	-4725
▁ика	-4726
▁уах	-4727
кааны	-4728
лшара	-4729
қәоуп	-4730
ҭахӡам	-4731
▁февра	-4732
▁рынцәа	-4733
цхраауаз	-4734
ыҵәҟьаны	-4735
▁басариа	-4736
▁реиҳәеит	-4737
▁ацхыраарала	-4738
ома	-4739
цра	-4740
ҵәыр	-4741
▁зду	-4742
▁иам	-4743
▁изи	-4744
▁акры	-4745
▁арым	-4746
▁ибон	-4747
▁борис	-4748
▁лазар	-4749
ныҟәоит	-4750
▁аизарахь	-4751
▁ҭаацәара	-4752
бац	-4753
дра	-4754
иԥш	-4755
хуп	-4756
18.0	-4757
▁афа	-4758
▁ддыр	-4759
тәуеит	-4760
шәарыц	-4761
▁аахыс	-4762
▁аштат	-4763
▁еилаҳ	-4764
▁изнык	-4765
▁амқәаб	-4766
▁жәабжь	-4767
▁шәхаҿы	-4768
маррақәа	-4769
қәырхара	-4770
▁асахьаҿы	-4771
▁ирыбжьоу	-4772
▁ақалақьқәа	-4773
▁разыҟаҵара	-4774
сҭ	-4775
урц	-4776
уама	-4777
▁рны	-4778
▁ҳир	-4779
ндара	-4780
шьҭан	-4781
▁иаци	-4782
▁инал	-4783
▁изааигәа	-4784
гәалашәоит	-4785
гом	-4786
зра	-4787
цны	-4788
гори	-4789
▁вик	-4790
иҭарц	-4791
▁изыз	-4792
▁ԥшьы	-4793
▁аҿари	-4794
▁ицқьам	-4795
▁аиашазы	-4796
▁аԥшаҳәа	-4797
шьаалақәа	-4798
▁қырҭтәыла	-4799
▁агәырҿыхагақәа	-4800
ума	-4801
ӡар	-4802
бжьар	-4803
ӡааӡо	-4804
▁зҳәо	-4805
▁аимак	-4806
▁петер	-4807
доуҳатә	-4808
▁афильм	-4809
▁захьӡу	-4810
▁абуклет	-4811
▁асоциал	-4812
▁ахәыцра	-4813
▁дызусҭа	-4814
▁система	-4815
▁иҭаацәара	-4816
▁иаалырҟьаны	-4817
▁аброшиурақәа	-4818
▁ацәаныррақәа	-4819
кле	-4820
шәҭ	-4821
▁абы	-4822
▁нам	-4823
▁хкы	-4824
▁цәа	-4825
▁аҵәа	-4826
▁зқьы	-4827
▁иҳаил	-4828
гьежьра	-4829
лҵшьҭра	-4830
▁еиӷьуп	-4831
▁есфирь	-4832
▁ириҭаз	-4833
▁ҳамҭас	-4834
ҵамҭақәа	-4835
▁арыжәтә	-4836
▁амзызқәа	-4837
▁рхархәара	-4838
▁азааигәара	-4839
▁мраҭашәара	-4840
▁ааҳарԥшуеит	-4841
▁аветеранцәа	-4842
лга	-4843
▁65	-4844
жәра	-4845
бласт	-4846
зиаст	-4847
▁амин	-4848
▁ареп	-4849
▁аӷба	-4850
▁ҟалар	-4851
зымариа	-4852
зыҟашьа	-4853
▁ахысра	-4854
▁аҵараи	-4855
▁гәацԥы	-4856
▁иезеки	-4857
▁партиа	-4858
▁амаҭәар	-4859
▁февраль	-4860
гәыӷрақәа	-4861
▁аамҭазгьы	-4862
▁аибашьцәа	-4863
▁диҿцәажәо	-4864
▁атерриториа	-4865
▁ихаҭыԥуаҩыс	-4866
лаи	-4867
▁чы	-4868
хуан	-4869
▁195	-4870
▁авт	-4871
▁аҷы	-4872
▁хаз	-4873
шәарц	-4874
▁адип	-4875
▁диит	-4876
▁иаир	-4877
▁идир	-4878
▁рыди	-4879
галеит	-4880
риаҟара	-4881
ҭынҵара	-4882
▁виктор	-4883
▁иалаго	-4884
▁ахархәа	-4885
▁ҳахәаԥшып	-4886
▁республика	-4887
▁азакәанԥҵара	-4888
▁азԥхьагәаҭоуп	-4889
изн	-4890
ӡәа	-4891
▁габ	-4892
▁дым	-4893
амҭоу	-4894
ҵанӡа	-4895
▁саул	-4896
гахоит	-4897
▁анапа	-4898
гарақәа	-4899
▁ахәҭоуп	-4900
▁иалкаау	-4901
▁ӷәӷәақәа	-4902
▁изныкымкәа	-4903
▁аинвестициатә	-4904
▁иаба	-4905
арҭоуп	-4906
шәалоу	-4907
ҵзуреи	-4908
▁арԥар	-4909
▁кырӡа	-4910
▁ркуль	-4911
▁рылар	-4912
дкыланы	-4913
клезиаст	-4914
▁аарԥшуа	-4915
цәыхьчара	-4916
▁ихәыцшьа	-4917
▁аԥсҭалара	-4918
▁ацеремониа	-4919
▁бзиабарала	-4920
▁ргәалашәара	-4921
иқә	-4922
хада	-4923
▁рин	-4924
дароу	-4925
▁алев	-4926
▁еизаз	-4927
▁иалоу	-4928
▁шалшо	-4929
дыруама	-4930
▁аҳәсеи	-4931
▁григори	-4932
▁иҳамоуп	-4933
▁азнеишьа	-4934
▁аамҭахәҭа	-4935
▁акандидат	-4936
▁ашәҟәыҩҩы	-4937
▁политикатә	-4938
дал	-4939
хкы	-4940
ӡеи	-4941
▁фл	-4942
баау	-4943
окум	-4944
ортә	-4945
хәуа	-4946
▁ихи	-4947
▁тра	-4948
ҩбара	-4949
▁анры	-4950
▁анҳа	-4951
▁сааҭ	-4952
▁роуит	-4953
▁ҵакыс	-4954
▁абираҟ	-4955
▁атекст	-4956
▁ашьаҿа	-4957
▁ааӡаԥса	-4958
▁иаанхаз	-4959
▁ихьыԥшым	-4960
▁адаҟьақәа	-4961
▁афинанстә	-4962
▁ажәалагала	-4963
▁ахазынақәа	-4964
▁y	-4965
▁мш	-4966
наҭо	-4967
ӡоуп	-4968
▁аев	-4969
лшәыр	-4970
хәоит	-4971
цәымӷ	-4972
▁аимп	-4973
▁крас	-4974
▁техн	-4975
▁хәҭа	-4976
шәылшо	-4977
▁афара	-4978
▁ибжьы	-4979
▁аспециа	-4980
▁ацқьара	-4981
▁изаамҭаны	-4982
▁петербург	-4983
мӡ	-4984
▁э	-4985
вер	-4986
ҩара	-4987
▁виа	-4988
▁рҵа	-4989
лацәа	-4990
хаӡом	-4991
ԥеиԥш	-4992
▁саит	-4993
▁агәна	-4994
▁жәаба	-4995
▁ирыди	-4996
▁алырша	-4997
▁мҩаԥыз	-4998
▁рынагӡ	-4999
▁аобласт	-5000
▁еиҿкаау	-5001
▁иалахәу	-5002
▁ицхыраа	-5003
▁џьаҳаны	-5004
▁иаҳархәа	-5005
▁ҵәыџьԥҳа	-5006
▁қәҿиарала	-5007
▁аколлектив	-5008
▁ажурналистцәа	-5009
быс	-5010
▁ҷы	-5011
ыртә	-5012
џьал	-5013
▁ҳаа	-5014
жисси	-5015
ҩанга	-5016
ҭанеи	-5017
▁аҳәы	-5018
▁ҳани	-5019
хароуп	-5020
чеслав	-5021
џьагьы	-5022
ҳәозеи	-5023
▁зыхьӡ	-5024
▁ирықә	-5025
хәарҭоу	-5026
▁аԥсшәа	-5027
▁цәеижь	-5028
кәыршаны	-5029
▁аашәырԥш	-5030
▁ахәаԥшра	-5031
▁азыӡырҩра	-5032
▁виачеслав	-5033
▁хаҭалатәи	-5034
▁имҩаԥысраны	-5035
мҭаз	-5036
план	-5037
хиаз	-5038
ыреи	-5039
ҭәеи	-5040
ԥсуа	-5041
▁иун	-5042
▁чач	-5043
▁ҩны	-5044
ԥҟара	-5045
▁бара	-5046
емориа	-5047
▁иахыс	-5048
▁ҭарба	-5049
▁имариам	-5050
▁иҟаҳҵар	-5051
▁иҟәыӷоу	-5052
▁абжьаратәи	-5053
ҷҷ	-5054
цун	-5055
▁ен	-5056
ԥҵәа	-5057
▁хԥа	-5058
ынтәи	-5059
▁арма	-5060
ентқәа	-5061
шьуеит	-5062
ҷаҳара	-5063
▁аҩӡба	-5064
▁пицун	-5065
хырҭатә	-5066
▁агхақәа	-5067
▁иашьцәа	-5068
▁шаҳаҭра	-5069
ҵанакуеит	-5070
▁ахәҭақәа	-5071
▁иԥхьаӡоуп	-5072
▁иаҳнарбоит	-5073
▁игәалашәара	-5074
▁аҳәынҭқарреи	-5075
мц	-5076
ыҩ	-5077
124	-5078
иҵы	-5079
ула	-5080
ҵам	-5081
елли	-5082
цырк	-5083
▁нико	-5084
▁дшыҟа	-5085
хәаразы	-5086
▁ахьыҟоу	-5087
▁ахьӡала	-5088
▁иреиҳау	-5089
▁инеихьоу	-5090
▁ишьақәир	-5091
▁џьаҳаным	-5092
▁ианаамҭоу	-5093
▁инарҭбааны	-5094
▁ажәабжьҳәаҩ	-5095
▁игәрахаҵара	-5096
19	-5097
нет	-5098
цаҳ	-5099
124;	-5100
хашә	-5101
ҭаҿы	-5102
▁пол	-5103
закны	-5104
шықәс	-5105
ԥшаар	-5106
▁адәа	-5107
▁дула	-5108
▁аршба	-5109
▁иргәа	-5110
цәгьоуп	-5111
ҟьашьра	-5112
▁&#124;	-5113
▁зхадоу	-5114
ферендум	-5115
▁уажәазы	-5116
▁аҵарауаҩ	-5117
▁имаҵзура	-5118
▁ԥхынҷкәынмза	-5119
во	-5120
ҩи	-5121
гаа	-5122
дин	-5123
оди	-5124
уад	-5125
ункт	-5126
гылон	-5127
мариа	-5128
хразы	-5129
цәхьа	-5130
▁адир	-5131
▁иқәы	-5132
гхақәа	-5133
▁акоуп	-5134
▁иааит	-5135
▁иманы	-5136
▁усқәа	-5137
▁аламыс	-5138
дыррақәа	-5139
▁ажурнал	-5140
▁аханатә	-5141
▁гәыԥҩык	-5142
▁изиашаз	-5143
мԥадатәиу	-5144
▁раарԥшра	-5145
▁араионқәа	-5146
▁литература	-5147
▁ареферендум	-5148
▁ҳҳәынҭқарра	-5149
▁аџьынџьтәылатә	-5150
иҿ	-5151
бус	-5152
▁шу	-5153
шьап	-5154
▁аца	-5155
▁ақа	-5156
▁пер	-5157
▁сры	-5158
неиуа	-5159
шәҳәа	-5160
▁абыл	-5161
▁анаа	-5162
▁аҭар	-5163
▁бааш	-5164
▁нест	-5165
▁ҳзыр	-5166
разҵаа	-5167
шьақәа	-5168
гылазаа	-5169
▁асцена	-5170
▁мадина	-5171
▁изиашоу	-5172
▁ҿарацәа	-5173
динхаҵара	-5174
▁аҟәымшәы	-5175
▁аҳауагәа	-5176
▁азҿлымҳара	-5177
▁амҩақәҵара	-5178
▁ақәныҟәара	-5179
▁ашьапылампыл	-5180
▁иҳацхраауазеи	-5181
гр	-5182
кад	-5183
▁ҵы	-5184
ӷьаҳ	-5185
ԥсар	-5186
▁аок	-5187
▁хыс	-5188
лартә	-5189
▁раҳа	-5190
▁шьын	-5191
ҵыхәтәа	-5192
▁ҳаҟоуп	-5193
▁ақырҭуа	-5194
▁ирҳәоит	-5195
▁ҟаиҵоит	-5196
▁ҳаиҭоит	-5197
▁инагӡаны	-5198
▁рыдкылара	-5199
▁аиқәырхара	-5200
▁рыцхыраара	-5201
▁қәыӷәӷәара	-5202
пыл	-5203
крат	-5204
ҟала	-5205
ҽхак	-5206
▁флп	-5207
▁шаа	-5208
цалара	-5209
▁иалыр	-5210
▁санкт	-5211
▁шәана	-5212
оциациа	-5213
уазҭгьы	-5214
▁ацентр	-5215
▁библиа	-5216
▁рҳәеит	-5217
ранспорт	-5218
▁абырзен	-5219
▁азгәарҭ	-5220
▁иуадаҩу	-5221
▁ибзиаӡаны	-5222
шр	-5223
ник	-5224
ҽыз	-5225
▁ед	-5226
▁иааны	-5227
▁иаауа	-5228
▁ухаҿы	-5229
▁ҩажәи	-5230
▁аҭахуп	-5231
▁ибзиоу	-5232
▁иԥацәа	-5233
бзиабара	-5234
гәалашәо	-5235
▁аҵарауаа	-5236
▁шықәсанӡа	-5237
▁афедералтә	-5238
▁аԥсҭҳәақәа	-5239
▁ишьақәгылаз	-5240
▁апроблемақәа	-5241
▁далацәажәеит	-5242
гуа	-5243
дио	-5244
ини	-5245
лов	-5246
ҵом	-5247
кәар	-5248
▁500	-5249
▁аел	-5250
▁ицо	-5251
▁аҵас	-5252
▁дааи	-5253
▁злам	-5254
▁иҟас	-5255
гәылиа	-5256
хыҵуаз	-5257
▁аҷыда	-5258
▁игәаз	-5259
▁руеит	-5260
▁афилиа	-5261
▁ҟазара	-5262
▁алахәцәа	-5263
▁егьырҭгьы	-5264
▁иезекииль	-5265
▁ахымҩаԥгашьа	-5266
▁цы	-5267
геиа	-5268
одар	-5269
ӷьыц	-5270
ԥшны	-5271
▁зна	-5272
▁кан	-5273
▁шам	-5274
дҵара	-5275
қьаны	-5276
▁ахӡыр	-5277
▁иацәы	-5278
▁инаӡо	-5279
▁ихала	-5280
▁марфа	-5281
▁рыман	-5282
▁фесса	-5283
▁шьаҿа	-5284
▁иаарԥш	-5285
▁аанарԥш	-5286
▁рџьынџь	-5287
ҽанызаара	-5288
▁аҟәандара	-5289
ван	-5290
цоз	-5291
ҩит	-5292
▁ол	-5293
шақә	-5294
ԥыло	-5295
▁веф	-5296
валид	-5297
▁аума	-5298
▁ақәҵ	-5299
▁аҵла	-5300
▁быжь	-5301
▁ирба	-5302
▁ишаа	-5303
▁елена	-5304
▁ҭаара	-5305
ҳәарада	-5306
▁амузеи	-5307
▁марина	-5308
▁уаргьы	-5309
цеиҩызшо	-5310
▁апионер	-5311
▁ауаагьы	-5312
▁иаартны	-5313
▁рыхгара	-5314
▁ҳаиҿыԥш	-5315
▁инацҵаны	-5316
▁фессалон	-5317
▁цәанырра	-5318
▁аиҿкааҩцәа	-5319
зо	-5320
чу	-5321
ӡе	-5322
вал	-5323
меҭ	-5324
суа	-5325
ҟана	-5326
▁агы	-5327
▁вен	-5328
▁дук	-5329
▁заҳ	-5330
▁хьа	-5331
галан	-5332
гылаҩ	-5333
цәаҳа	-5334
ҭратә	-5335
нҩажәи	-5336
хаанӡа	-5337
▁рхала	-5338
▁ҟаԥшь	-5339
заалакь	-5340
▁амҩаду	-5341
▁афымца	-5342
▁аҳәатә	-5343
▁рхатәы	-5344
▁ҳауеит	-5345
ҭеиҳәеит	-5346
▁адҵақәа	-5347
▁мҩаԥган	-5348
▁аҩадатәи	-5349
▁черқьесс	-5350
▁абызшәақәа	-5351
▁рыгәрахаҵара	-5352
лла	-5353
шԥа	-5354
▁ор	-5355
цәар	-5356
ӡами	-5357
▁иир	-5358
▁ица	-5359
шанҵа	-5360
ӡәӡәа	-5361
▁ашәр	-5362
▁лахь	-5363
▁апарк	-5364
▁аумҭа	-5365
▁ҳҳәар	-5366
руктура	-5367
хаҵареи	-5368
▁ашьаҭа	-5369
▁аҵыхәа	-5370
▁аԥшәма	-5371
▁вефиль	-5372
▁дақәиҭ	-5373
мыршҭлан	-5374
қәыргәыӷ	-5375
▁адлеиба	-5376
▁аиҭанеи	-5377
▁бызшәеи	-5378
▁ҳахәҭоу	-5379
мазарақәа	-5380
▁ашьҭыхра	-5381
▁аҽӡаахра	-5382
▁адиректор	-5383
▁иҿырԥштәы	-5384
▁c	-5385
ген	-5386
хап	-5387
▁90	-5388
едит	-5389
заҵә	-5390
ибоз	-5391
нага	-5392
роль	-5393
әыма	-5394
▁аҭә	-5395
▁зну	-5396
иҵоит	-5397
мҭала	-5398
▁амон	-5399
▁ахыҵ	-5400
хьчала	-5401
▁аҟәыр	-5402
▁ианеи	-5403
▁иаҩыз	-5404
▁тарас	-5405
▁шәгәа	-5406
▁иамоуп	-5407
цәыцәгьа	-5408
цԥыҳәара	-5409
▁акьыԥхь	-5410
▁амшынӡы	-5411
▁ахшыҩзышьҭра	-5412
ало	-5413
емо	-5414
лен	-5415
ҭым	-5416
ҵла	-5417
ӷьар	-5418
иться	-5419
каала	-5420
▁арра	-5421
▁архе	-5422
▁исым	-5423
▁ажәла	-5424
▁акурс	-5425
▁ателе	-5426
▁дахьа	-5427
▁доусы	-5428
▁лареи	-5429
▁ҟалом	-5430
▁здыруа	-5431
▁иҟаҵоу	-5432
▁римтәи	-5433
▁рыбжьа	-5434
▁шьынқә	-5435
меигӡара	-5436
▁иҳараку	-5437
▁агәаҭара	-5438
▁гәахәара	-5439
▁инормақәа	-5440
▁еиликаауан	-5441
▁аиқәыршәара	-5442
▁шәыԥсҭазаара	-5443
гер	-5444
сон	-5445
ттә	-5446
иҭар	-5447
лҵра	-5448
нест	-5449
ынӡа	-5450
ҟаза	-5451
▁жен	-5452
▁рыш	-5453
▁афак	-5454
▁дзыр	-5455
▁хҩык	-5456
▁ԥсра	-5457
шәтәра	-5458
▁красн	-5459
ӷәӷәеит	-5460
▁иаҳзеи	-5461
▁изеиԥш	-5462
▁ҭоурых	-5463
бзоурала	-5464
▁иакәзар	-5465
▁иаҳҭахуп	-5466
▁иеиҳәоит	-5467
▁адиаспора	-5468
▁категориа	-5469
▁ргәаанагара	-5470
▁ос	-5471
жәба	-5472
сара	-5473
ҭцәа	-5474
▁iii	-5475
▁иҭи	-5476
▁ҳал	-5477
жәытә	-5478
ссатә	-5479
хәҭам	-5480
▁ҳақә	-5481
хәареи	-5482
ҵәахра	-5483
▁азыҟа	-5484
▁арԥыс	-5485
▁иҭынч	-5486
▁рцәыр	-5487
еицуреи	-5488
▁артист	-5489
▁ҭҵаара	-5490
▁риааира	-5491
▁ҟарҵоит	-5492
▁аихшанҵа	-5493
▁аҭҵааразы	-5494
▁идикылеит	-5495
▁уаанӡатәи	-5496
▁алагамҭаҿы	-5497
▁жәаҳәарада	-5498
▁иазгәаҭоуп	-5499
▁иҟаҵатәузеи	-5500
▁ҳгәазҭанаҵоит	-5501
дәы	-5502
сыз	-5503
ҩна	-5504
ҭон	-5505
ӡыз	-5506
▁рб	-5507
убли	-5508
шьуа	-5509
▁акт	-5510
▁кар	-5511
ԥхеит	-5512
▁афар	-5513
▁банк	-5514
▁угәа	-5515
▁шәҽа	-5516
заазго	-5517
ҭаххар	-5518
▁астол	-5519
▁астра	-5520
▁мысра	-5521
▁рнапы	-5522
▁шьҭыз	-5523
▁ҳажәа	-5524
▁ахыхра	-5525
▁бзиоуп	-5526
▁еизгоу	-5527
▁иҳаиҭаз	-5528
▁рымацара	-5529
▁ауниверситет	-5530
▁ахырхарҭақәа	-5531
мз	-5532
ты	-5533
шьаз	-5534
ԥшыр	-5535
▁ӡба	-5536
ессор	-5537
ԥсоуп	-5538
▁изин	-5539
▁ыҟан	-5540
шәҵала	-5541
▁гыцба	-5542
▁иссир	-5543
ҳәаларц	-5544
▁амшала	-5545
▁ииҭаху	-5546
▁ишәзеи	-5547
хҭынҵара	-5548
▁алитера	-5549
▁хыркәша	-5550
▁ирацәоуп	-5551
▁рҵыхәтәа	-5552
▁екклезиаст	-5553
▁уԥсҭазаара	-5554
▁ҳаамҭазтәи	-5555
жәла	-5556
лимп	-5557
▁рза	-5558
▁қьа	-5559
▁ҟал	-5560
ӡбоит	-5561
▁агум	-5562
▁азыр	-5563
▁ҳаны	-5564
халоит	-5565
▁аӡӷаб	-5566
илкаара	-5567
уратура	-5568
▁абџьар	-5569
▁аҩныҟа	-5570
▁сынцәа	-5571
шәалахәы	-5572
▁аиԥшәым	-5573
▁иақәшәо	-5574
▁шьамтәыла	-5575
▁аофициалтә	-5576
▁аԥсабаратә	-5577
сар	-5578
спек	-5579
хәуп	-5580
▁арҽ	-5581
▁зан	-5582
бозар	-5583
▁авва	-5584
▁адис	-5585
▁акти	-5586
▁илеи	-5587
▁ицәа	-5588
лараны	-5589
гәеиҭаз	-5590
▁англыз	-5591
▁ақәиҭы	-5592
▁иҟаҳҵо	-5593
▁нестор	-5594
▁рҭахуп	-5595
▁хылоит	-5596
▁шьҭахь	-5597
зыӡырҩла	-5598
џьынџьал	-5599
▁армагед	-5600
▁имгакәа	-5601
▁ҳџьынџь	-5602
▁аԥстәқәа	-5603
▁рыԥшаара	-5604
▁шықәсқәа	-5605
дыруазааит	-5606
▁амилаҭқәа	-5607
стр	-5608
ыжә	-5609
▁мм	-5610
анба	-5611
гшәы	-5612
тәны	-5613
▁зда	-5614
хәаша	-5615
ҭоуры	-5616
ҵәеит	-5617
ӡареи	-5618
▁ҵакы	-5619
ҷаҳауа	-5620
▁дызла	-5621
▁ишәыз	-5622
▁нахыс	-5623
▁шәахь	-5624
▁ҭаниа	-5625
кәызгьы	-5626
қәҵареи	-5627
▁иаҳдыр	-5628
▁ицқьоу	-5629
▁қалақь	-5630
зылхратә	-5631
ҿиарақәа	-5632
▁ацәгьеи	-5633
▁информа	-5634
▁аҟәыӷареи	-5635
▁армагеддон	-5636
▁анапхгаратә	-5637
▁асаламшәҟәы	-5638
бӷа	-5639
гәар	-5640
хоуп	-5641
ызеи	-5642
ҵаҟа	-5643
ӷьра	-5644
▁аль	-5645
▁иқь	-5646
ҭареи	-5647
▁аӷьы	-5648
▁икыл	-5649
▁иҩит	-5650
▁хьӡы	-5651
ҵароуп	-5652
▁аформа	-5653
▁аҵареи	-5654
▁иақәиҭ	-5655
▁ҟалеит	-5656
▁апрокур	-5657
▁галаҭаа	-5658
▁инарҵау	-5659
▁аринахыс	-5660
▁ҭакԥхықәра	-5661
▁агәазыҳәара	-5662
▁ашьақәырӷәӷә	-5663
ту	-5664
еви	-5665
▁47	-5666
▁xi	-5667
▁ҿы	-5668
фика	-5669
ҵаша	-5670
ԥхар	-5671
▁зма	-5672
▁згаз	-5673
▁здыз	-5674
▁идеи	-5675
▁шәаз	-5676
маншәа	-5677
нагара	-5678
хьынтә	-5679
хәҭоуп	-5680
шәақәа	-5681
▁абаҟа	-5682
гәырӷьо	-5683
дарақәа	-5684
ессиона	-5685
▁акласс	-5686
▁андреи	-5687
▁аҳасаб	-5688
▁аӡхыҵра	-5689
▁уамашәа	-5690
▁аинвалид	-5691
▁ахәыҷқәеи	-5692
▁ацәанырра	-5693
▁ааглыхратә	-5694
▁ажурналист	-5695
▁апроектқәа	-5696
быз	-5697
жак	-5698
ҿра	-5699
вира	-5700
креи	-5701
олда	-5702
орон	-5703
ҵӷәы	-5704
ԥҳаи	-5705
▁ҳма	-5706
цҳауа	-5707
▁аном	-5708
▁афон	-5709
▁иира	-5710
▁сана	-5711
иаақәа	-5712
әымкәа	-5713
▁абҩар	-5714
▁иԥсыз	-5715
жиссиор	-5716
▁ахьтәы	-5717
▁иҟалар	-5718
▁шымҩаԥ	-5719
▁алагара	-5720
▁рыҿиара	-5721
гәырӷьара	-5722
▁атәылаҿа	-5723
▁иҭаацәеи	-5724
▁адемонцәа	-5725
▁ашьҭахьгьы	-5726
▁рыбзоурала	-5727
▁аадырԥшуеит	-5728
▁еиҿкаарақәа	-5729
▁аҭагылазаашьаҿы	-5730
овч	-5731
лахь	-5732
либа	-5733
ркра	-5734
хуаз	-5735
ӡқәа	-5736
ӡәӡә	-5737
▁мак	-5738
ломат	-5739
мчқәа	-5740
цҳара	-5741
ҟарҵо	-5742
▁ауха	-5743
▁ешба	-5744
▁избо	-5745
▁илым	-5746
▁ркон	-5747
шаратә	-5748
ҵәыреи	-5749
ҿагыла	-5750
▁баҭал	-5751
▁ииуль	-5752
қәшәеит	-5753
▁арзаҳа	-5754
▁аԥсреи	-5755
▁женева	-5756
▁иреиӷь	-5757
▁каҳаны	-5758
▁риҭоит	-5759
▁анаплак	-5760
▁гәахәар	-5761
▁мчыбжьы	-5762
▁абарҭқәа	-5763
▁иуаажәлар	-5764
▁рацәажәара	-5765
▁ашәарҭадара	-5766
бу	-5767
мҭ	-5768
мха	-5769
ҟак	-5770
ҭам	-5771
лана	-5772
ҭыԥш	-5773
▁сха	-5774
оуеит	-5775
▁2013	-5776
▁аиҿа	-5777
▁аџьы	-5778
▁дыши	-5779
иблиот	-5780
ԥылоит	-5781
▁ианры	-5782
▁иакәны	-5783
▁тәылак	-5784
▁азанааҭ	-5785
▁закәанла	-5786
▁аинститут	-5787
▁иааизакны	-5788
▁аиԥылараҿы	-5789
▁инарҵауланы	-5790
▁рықәныҟәара	-5791
▁ажьырныҳәамза	-5792
ия	-5793
лху	-5794
▁иҿ	-5795
гәын	-5796
ента	-5797
икаа	-5798
мхра	-5799
оума	-5800
▁аҟь	-5801
▁асим	-5802
▁иаха	-5803
▁ихар	-5804
▁мыса	-5805
гарала	-5806
даратә	-5807
ԥхьеит	-5808
▁атури	-5809
▁иамаз	-5810
▁иҭахы	-5811
▁ахәаша	-5812
▁аҳабла	-5813
▁мыкәша	-5814
▁драматә	-5815
▁инаӡеит	-5816
▁аҩганктәи	-5817
▁ишьақәнар	-5818
▁астатиақәа	-5819
▁аҽалархәра	-5820
▁апубликациа	-5821
▁иалацәажәеит	-5822
▁vi	-5823
▁қы	-5824
шьни	-5825
ортал	-5826
усура	-5827
▁амҽы	-5828
▁афил	-5829
▁иҟау	-5830
бацәеи	-5831
шарақәа	-5832
шьҭуеит	-5833
▁иаажәг	-5834
накылоит	-5835
ҭыԥқәаки	-5836
ԥҟарақәа	-5837
▁анаӡара	-5838
▁ахацәеи	-5839
▁иаагоуп	-5840
▁иаҳәшьа	-5841
▁николаи	-5842
▁русбарҭа	-5843
▁ацәеижьтә	-5844
▁аҭыжьымҭа	-5845
▁шәыбжьара	-5846
▁аобиектқәа	-5847
▁ралагалара	-5848
▁хәажәкырамза	-5849
▁l	-5850
▁цә	-5851
леиа	-5852
раҿы	-5853
уара	-5854
▁асс	-5855
▁мет	-5856
▁сыл	-5857
▁ҵҩа	-5858
иақәа	-5859
шәоуп	-5860
ҳәаша	-5861
▁агха	-5862
▁еибы	-5863
▁ҳаан	-5864
хьынхо	-5865
▁азхам	-5866
▁нагӡа	-5867
▁шьҭна	-5868
▁ҟалап	-5869
▁ҳалшо	-5870
инистра	-5871
ԥшуазар	-5872
▁дшыҟоу	-5873
▁инаӡам	-5874
▁инаӡоу	-5875
▁рыбжьы	-5876
▁агәырҩа	-5877
▁даҽазны	-5878
▁ельвира	-5879
▁иазхәыц	-5880
▁ишәхашә	-5881
▁аимадара	-5882
▁аиӷьтәра	-5883
▁арҵаҩцәа	-5884
▁аӡбаҩцәа	-5885
▁иаанагар	-5886
▁аашәырԥшла	-5887
▁ишԥааирԥши	-5888
▁игәаанагара	-5889
▁амаӡаныҟәгаҩ	-5890
▁ирыдыркылеит	-5891
▁фессалоникаа	-5892
▁гәацԥыҳәарала	-5893
▁ацҳаражәҳәарҭа	-5894
лаа	-5895
сил	-5896
езиа	-5897
илом	-5898
▁длы	-5899
▁зҵо	-5900
▁сем	-5901
▁ҳац	-5902
ӡаара	-5903
▁гәаҟ	-5904
▁идҵа	-5905
▁арҵаҩ	-5906
▁дышры	-5907
▁ибара	-5908
▁илшон	-5909
▁лҵшәа	-5910
▁ҳасаб	-5911
▁абзиеи	-5912
▁ноемин	-5913
▁аиуразы	-5914
▁апроцесс	-5915
▁иӷәӷәаны	-5916
зааҭгылеит	-5917
▁ахьырхәра	-5918
▁аԥсадгьыл	-5919
▁рыцхраара	-5920
▁апрофессор	-5921
▁иадҳәалоуп	-5922
▁усмҩаԥгатә	-5923
▁ашәышықәсақәа	-5924
шьақәыргыларатә	-5925
ҿуп	-5926
▁ни	-5927
неит	-5928
рада	-5929
сҭан	-5930
▁асы	-5931
▁мед	-5932
▁ҭоу	-5933
культ	-5934
▁хьан	-5935
▁шәаа	-5936
латәуп	-5937
шаҭара	-5938
ҟалара	-5939
▁иадыр	-5940
наҳақәа	-5941
▁иалага	-5942
▁ралхра	-5943
▁сымоуп	-5944
▁хьыбла	-5945
▁аввакум	-5946
▁даҭааит	-5947
▁иахәаԥш	-5948
хәаԥшышьа	-5949
ҭагылазаашьа	-5950
▁аҿырԥштәқәа	-5951
▁апрокуратура	-5952
▁ажәабжьҳәараҿы	-5953
▁апубликациақәа	-5954
раҳ	-5955
ули	-5956
▁52	-5957
игӡо	-5958
тәын	-5959
▁вар	-5960
▁лак	-5961
▁мыр	-5962
▁уаз	-5963
лахҿы	-5964
овчег	-5965
тәаны	-5966
ҳаҭыр	-5967
▁агьа	-5968
▁алек	-5969
▁иааҳ	-5970
▁иалҵ	-5971
лкаатә	-5972
наҵоит	-5973
хатәра	-5974
ҭбаара	-5975
▁дыҟам	-5976
▁знапы	-5977
▁излар	-5978
▁шимоу	-5979
ҽанҵара	-5980
▁аԥсцәа	-5981
▁иусқәа	-5982
анацҳауа	-5983
министра	-5984
сахьақәа	-5985
▁зынӡаск	-5986
▁ахыркәша	-5987
▁ашьаустә	-5988
▁аныҟәгаԥса	-5989
▁абҩарҵәыреи	-5990
▁агәацԥыҳәара	-5991
ерк	-5992
ҷра	-5993
гәам	-5994
дышә	-5995
хьуа	-5996
шәтә	-5997
ӡана	-5998
▁ҭеи	-5999
зыраз	-6000
халак	-6001
ччара	-6002
ӡырҩы	-6003
▁ирны	-6004
▁лышә	-6005
▁рхыр	-6006
кыратә	-6007
хьӡала	-6008
▁аспир	-6009
▁ламыс	-6010
мҭалазы	-6011
ҭоурыхи	-6012
▁аиҭага	-6013
▁анеира	-6014
▁ианвар	-6015
▁иаҟәыҵ	-6016
▁чагәаа	-6017
ҭынхацәа	-6018
▁алаирхә	-6019
▁рыцҳара	-6020
▁ҳаиҭеит	-6021
ныҳәалоит	-6022
▁ҳмаҵзура	-6023
▁амузыкатә	-6024
▁апрокурор	-6025
▁гәымбылџь	-6026
▁зҵаарақәоу	-6027
▁иаадырԥшуа	-6028
▁апринципқәа	-6029
▁ацәқәырԥара	-6030
▁ишазгәеиҭаз	-6031
▁аԥсҭазаарахь	-6032
▁реиқәыршәара	-6033
▁аконституциатә	-6034
енг	-6035
шәх	-6036
ырго	-6037
ӡбаз	-6038
▁еих	-6039
▁кам	-6040
анаҵы	-6041
былра	-6042
гшәыг	-6043
ыԥҵәа	-6044
ҭарна	-6045
▁аинф	-6046
▁ииун	-6047
▁олег	-6048
нагеит	-6049
шьцара	-6050
▁ахьры	-6051
▁русқәа	-6052
▁шәыҟаз	-6053
графиатә	-6054
▁апартиа	-6055
▁арсалиа	-6056
▁афилиал	-6057
▁даныҟаз	-6058
▁еилырга	-6059
▁жәларык	-6060
▁рааӡара	-6061
▁аҭҵаареи	-6062
▁библиатә	-6063
▁ишәарҭоу	-6064
▁машәырла	-6065
▁шьынқәба	-6066
мҩаԥгашьеи	-6067
▁аҷыдалкаатә	-6068
wt	-6069
мс	-6070
хт	-6071
ҩу	-6072
sty	-6073
дар	-6074
▁ок	-6075
аиуа	-6076
ҩуаз	-6077
▁nwt	-6078
▁иба	-6079
▁итә	-6080
арцәы	-6081
гиатә	-6082
кылон	-6083
лаӡом	-6084
▁гәыл	-6085
▁дрыз	-6086
▁иуза	-6087
артыла	-6088
гәаҟуа	-6089
▁абыжь	-6090
▁алықь	-6091
▁амыру	-6092
▁асаса	-6093
▁даныр	-6094
▁еиҳау	-6095
▁закәы	-6096
▁иҳана	-6097
▁иԥхьа	-6098
▁кьыла	-6099
▁аредак	-6100
▁намӡац	-6101
▁урыҳәа	-6102
▁шрымоу	-6103
▁астрате	-6104
▁ауаҩԥсы	-6105
▁аԥсуааи	-6106
▁аԥхьаҟа	-6107
▁рартист	-6108
▁ҭыԥхада	-6109
▁арегиона	-6110
▁ҳҭахызар	-6111
ԥхықәрақәа	-6112
▁афедерациеи	-6113
▁ахылаԥшырҭа	-6114
▁агәҽанызаара	-6115
ап	-6116
до	-6117
ып	-6118
иуа	-6119
скь	-6120
ҩыр	-6121
ҟәын	-6122
▁зры	-6123
балак	-6124
хозар	-6125
ҵааит	-6126
ԥхьаз	-6127
▁агра	-6128
▁амам	-6129
▁дшәы	-6130
▁идәы	-6131
▁рышә	-6132
дарала	-6133
ектрон	-6134
мҭацәа	-6135
қәшәар	-6136
ҭакқәа	-6137
ҿаԥхьа	-6138
ԥсахит	-6139
▁ауада	-6140
▁ачара	-6141
▁ворон	-6142
▁nwtsty	-6143
▁игылоу	-6144
▁ишԥаҟа	-6145
▁шыҟало	-6146
▁аанхара	-6147
▁аизҳара	-6148
▁самариа	-6149
ӷьасшьоит	-6150
▁гагәылиа	-6151
▁иаанагон	-6152
▁ҭынхақәа	-6153
▁аанкылара	-6154
▁динхаҵара	-6155
▁реиҿкаара	-6156
▁аилатәараҿы	-6157
ԥу	-6158
▁0	-6159
жра	-6160
ҩба	-6161
▁иф	-6162
▁уҽ	-6163
гӡаз	-6164
хьра	-6165
▁апо	-6166
▁аӷа	-6167
▁уха	-6168
▁ҳза	-6169
изнес	-6170
кылоз	-6171
лагаз	-6172
ҵаауа	-6173
▁дрыц	-6174
▁рымч	-6175
ҭатәуп	-6176
ҭаҩцәа	-6177
▁исаак	-6178
▁ишьҭа	-6179
▁уасил	-6180
▁хьӡыс	-6181
▁ҳарак	-6182
▁ҿиара	-6183
бзиареи	-6184
▁зинмчы	-6185
▁ицәгьа	-6186
▁ишәҟәы	-6187
▁мушьни	-6188
▁ашьхара	-6189
▁ихьӡала	-6190
▁анхаразы	-6191
▁дызусҭада	-6192
▁еизааигәа	-6193
▁ажәҩанқәеи	-6194
▁апатуқәҵара	-6195
▁имҩаԥгахоит	-6196
▁излаанацҳауа	-6197
ерз	-6198
зак	-6199
сым	-6200
лсра	-6201
хало	-6202
▁ева	-6203
▁иԥы	-6204
▁раб	-6205
▁шра	-6206
мыкьа	-6207
шьуаз	-6208
ҵазар	-6209
▁напх	-6210
▁расс	-6211
▁ршьа	-6212
▁рҭыԥ	-6213
▁шьҭы	-6214
хараны	-6215
▁иаҭаа	-6216
▁компл	-6217
▁ҩнаҭа	-6218
қәшәара	-6219
ҵаауеит	-6220
▁еизҳар	-6221
▁рыманы	-6222
шәтәырҭа	-6223
▁аковчег	-6224
▁аспирит	-6225
▁аԥаратә	-6226
▁ируакуп	-6227
▁иҳәатәы	-6228
▁ахьчареи	-6229
▁атуристтә	-6230
▁женеватәи	-6231
▁гәахәарыла	-6232
▁игәымбылџь	-6233
▁аҳәынҭқаррақәа	-6234
киа	-6235
оти	-6236
ска	-6237
цын	-6238
арыц	-6239
ибар	-6240
лҵит	-6241
▁дах	-6242
▁сар	-6243
арҭеи	-6244
▁зықь	-6245
▁иҭар	-6246
▁лаша	-6247
▁прид	-6248
▁ҭыԥк	-6249
▁абырг	-6250
▁аргар	-6251
▁дҳара	-6252
▁иуада	-6253
▁музеи	-6254
▁мшаԥы	-6255
▁рыцҳа	-6256
▁ҵуеит	-6257
ҳарԥшуа	-6258
ҳәшьцәа	-6259
▁усурҭа	-6260
▁шәҽазы	-6261
▁аӡбамҭа	-6262
иблиотека	-6263
▁адунеитә	-6264
▁аиашамра	-6265
▁аҵиаақәа	-6266
▁шакәугьы	-6267
▁ацхырааразы	-6268
▁мҵахырхәара	-6269
ие	-6270
▁r	-6271
иха	-6272
оси	-6273
про	-6274
ҿын	-6275
▁51	-6276
гаша	-6277
гьан	-6278
екиа	-6279
лбаа	-6280
скьа	-6281
▁гар	-6282
▁дши	-6283
▁рба	-6284
▁азым	-6285
▁шәҟә	-6286
шәалар	-6287
▁ибеит	-6288
нестров	-6289
▁аамҭеи	-6290
▁иҟаиҵо	-6291
шьҭаҵара	-6292
▁ааныжьны	-6293
▁аиубилеи	-6294
▁ауасақәа	-6295
▁зылԥхара	-6296
▁иусбарҭа	-6297
▁ихыркәша	-6298
▁ақалақьтә	-6299
▁ақәиҭымра	-6300
▁шакәызгьы	-6301
▁раҳасабала	-6302
▁ҳаԥсҭазаараҿы	-6303
▁маҵураҭыԥқәаки	-6304
▁76	-6305
хәыл	-6306
▁аау	-6307
бароу	-6308
тәиуп	-6309
▁апол	-6310
▁аргә	-6311
▁бжьа	-6312
▁згәа	-6313
▁уана	-6314
▁шәан	-6315
ныҟәон	-6316
ҿиареи	-6317
▁авель	-6318
▁азхар	-6319
▁аныха	-6320
хәышәтә	-6321
ҟарҵоит	-6322
ҵәрақәа	-6323
▁аҳәоит	-6324
▁герман	-6325
▁имҩаԥи	-6326
▁иҟазар	-6327
▁иҟәышу	-6328
▁акәхеит	-6329
▁алагала	-6330
▁алықьса	-6331
▁арымара	-6332
▁ахӡырым	-6333
▁аҩысҭаа	-6334
▁иаҳбоит	-6335
▁наплакы	-6336
▁рганахь	-6337
▁алархәны	-6338
▁еилкаауп	-6339
▁политика	-6340
нагӡатәқәа	-6341
ҭаацәараҿы	-6342
▁ааирԥшуан	-6343
▁дырԥылеит	-6344
▁реилкаара	-6345
▁аламҭалазы	-6346
▁еиҭеиҳәоит	-6347
▁аибашьрақәа	-6348
▁ԥааимбаражәа	-6349
▁алитературатә	-6350
зын	-6351
ҟьо	-6352
ҿар	-6353
еила	-6354
рахь	-6355
ҳарц	-6356
ҽани	-6357
▁119	-6358
▁неи	-6359
лырԥш	-6360
ҳауаз	-6361
▁гали	-6362
▁ирым	-6363
жьуеит	-6364
кыҩцәа	-6365
лакгьы	-6366
лыркаа	-6367
▁албаа	-6368
▁раҳәа	-6369
▁рҵара	-6370
▁ҳаԥсы	-6371
шьахеит	-6372
▁адокум	-6373
▁арегион	-6374
▁хадақәа	-6375
▁афарисеи	-6376
▁ақьиареи	-6377
▁бааԥсқәа	-6378
▁ихәарҭоу	-6379
▁асахьақәа	-6380
▁ахантәаҩыс	-6381
▁зқьышықәса	-6382
▁ахархәарала	-6383
▁аконституциа	-6384
▁аԥааимбарцәа	-6385
де	-6386
быџ	-6387
ица	-6388
▁зу	-6389
гӡоу	-6390
жьын	-6391
зуҩы	-6392
илыр	-6393
лаго	-6394
лега	-6395
олиу	-6396
▁нур	-6397
▁уҽа	-6398
шьҭуа	-6399
қарра	-6400
▁апат	-6401
▁аҵра	-6402
▁иаку	-6403
▁ирҿа	-6404
▁ишҳа	-6405
▁иԥша	-6406
▁саид	-6407
▁соуп	-6408
▁имчра	-6409
▁инана	-6410
▁иҭара	-6411
қәныҟәо	-6412
▁аопера	-6413
▁арҳара	-6414
▁дыԥсит	-6415
▁залшом	-6416
▁илҳәеит	-6417
▁аӡыргара	-6418
▁шьақәзыр	-6419
▁иадҳәалаз	-6420
▁асасдкылара	-6421
▁амцдинхаҵара	-6422
дна	-6423
мин	-6424
рем	-6425
ертә	-6426
▁тит	-6427
▁ҟас	-6428
гартә	-6429
гӡеит	-6430
хьшәа	-6431
ӡақәа	-6432
▁арба	-6433
▁ахба	-6434
▁днеи	-6435
▁злаз	-6436
бароуп	-6437
ҭҵааҩы	-6438
▁ааԥхь	-6439
▁акәыр	-6440
▁инеит	-6441
▁хәыда	-6442
▁занҭар	-6443
▁урҭгьы	-6444
ҭарнакра	-6445
▁анажьра	-6446
▁иаҭааит	-6447
▁апаспорт	-6448
▁ахьынӡана	-6449
▁ишԥаанаго	-6450
▁аазырԥшуаз	-6451
▁ааҳарԥшлар	-6452
▁аиашьаратә	-6453
▁анҵәамҭазы	-6454
▁атәылаҿацә	-6455
▁ааныркылеит	-6456
▁аиҿкаарақәа	-6457
▁рҽазыршәоит	-6458
▁апарламенттә	-6459
▁аҳауагәаҭаҩцәа	-6460
▁аилацәажәарақәа	-6461
gt	-6462
зин	-6463
мӡӷ	-6464
тара	-6465
хьам	-6466
цоит	-6467
џьра	-6468
ԥшқа	-6469
▁ден	-6470
▁иум	-6471
▁ҳаԥс	-6472
баҩцәа	-6473
▁аԥхын	-6474
▁иумоу	-6475
▁уигьы	-6476
▁хәҭак	-6477
▁шәача	-6478
зымхәыц	-6479
зыҟазар	-6480
▁иреиԥш	-6481
▁аҿиареи	-6482
▁ҟаҳҵоит	-6483
▁ақыҭақәа	-6484
▁иалахәын	-6485
▁иҳаилнар	-6486
▁ахәаԥшцәа	-6487
▁рылаҳәара	-6488
▁жәабранмза	-6489
▁агуманитартә	-6490
▁еилыркаауеит	-6491
шәу	-6492
▁49	-6493
мари	-6494
тәык	-6495
шьит	-6496
▁ман	-6497
арала	-6498
аӡара	-6499
кақәа	-6500
уалтә	-6501
ҳәаҩы	-6502
▁аста	-6503
▁кара	-6504
▁сахь	-6505
▁уала	-6506
иссион	-6507
▁агәыла	-6508
▁ишаҳәо	-6509
▁иԥшәма	-6510
▁лазарь	-6511
гылаҩцәа	-6512
ԥшаауеит	-6513
▁иааигәа	-6514
▁уадаҩра	-6515
▁азыҟаҵаҩ	-6516
▁хылаԥшҩы	-6517
▁агәҭынчра	-6518
▁азыҟаҵара	-6519
▁гәаартыла	-6520
▁дызхылҵыз	-6521
▁иааирԥшуа	-6522
▁убриаҟара	-6523
▁иаҳдыруеит	-6524
▁аринахысгьы	-6525
▁ахәаахәҭратә	-6526
▁рхыԥхьаӡараҿы	-6527
оч	-6528
зми	-6529
кан	-6530
шаа	-6531
▁еш	-6532
егьы	-6533
оура	-6534
ԥшуп	-6535
▁быр	-6536
▁виф	-6537
▁рҭы	-6538
жьырц	-6539
лааит	-6540
▁анти	-6541
▁ауан	-6542
▁рырҭ	-6543
▁фран	-6544
аркьаҿ	-6545
▁ахаша	-6546
▁ииҭаз	-6547
▁ирҳәо	-6548
▁ицоит	-6549
цәажәар	-6550
▁ахәҭоу	-6551
▁анхарҭа	-6552
▁аршаҳаҭ	-6553
▁биуџьет	-6554
▁агыгшәыг	-6555
▁аурокқәа	-6556
▁ацәгьоура	-6557
▁гәылрыԥшь	-6558
▁арегионалтә	-6559
▁аԥсҭазаараҿы	-6560
▁цәаныррақәоу	-6561
еч	-6562
гас	-6563
дҵа	-6564
ком	-6565
оҭа	-6566
пыҵа	-6567
уатә	-6568
хиан	-6569
ҭаҵа	-6570
ҭира	-6571
▁рын	-6572
октор	-6573
ршәра	-6574
▁зыҟа	-6575
▁ишиа	-6576
зыԥшыз	-6577
маҵура	-6578
мпаниа	-6579
ҳәақәа	-6580
▁аҿгьы	-6581
▁ихәыҷ	-6582
▁роман	-6583
▁рымҩа	-6584
▁шьаҟа	-6585
культет	-6586
страциа	-6587
▁алагьы	-6588
▁аланар	-6589
▁алевит	-6590
▁еиԥшым	-6591
▁иаҳхаҳ	-6592
▁неемиа	-6593
▁концерт	-6594
▁ҳнаҭоит	-6595
▁аҟәырҟан	-6596
▁иааркьаҿ	-6597
▁адгьылаҿы	-6598
▁аспиритизм	-6599
▁еиҭалҳәоит	-6600
▁имҩаԥысуан	-6601
▁ҳџьынџьуаа	-6602
▁аихшьаалақәа	-6603
▁аладырхәуеит	-6604
▁ашьақәырӷәӷәара	-6605
ей	-6606
дам	-6607
луа	-6608
фед	-6609
ардо	-6610
умҭа	-6611
▁ист	-6612
▁лзы	-6613
цҵара	-6614
▁ишым	-6615
▁хаҵа	-6616
▁ҳдыр	-6617
кыларц	-6618
чмазаҩ	-6619
ҟазшьа	-6620
ҵалоит	-6621
▁алхас	-6622
▁шааир	-6623
▁ҳәара	-6624
▁ахеиҵа	-6625
▁даҽакы	-6626
▁иалахә	-6627
▁иаԥсам	-6628
кәыршара	-6629
▁алексеи	-6630
▁аҭакқәа	-6631
▁ицәеижь	-6632
▁иҟанаҵо	-6633
▁амассатә	-6634
▁иапостол	-6635
▁уажәнатә	-6636
зышәарақәа	-6637
▁адипломат	-6638
▁аныҳәақәа	-6639
▁маҭәашьар	-6640
▁хәышықәса	-6641
▁ҳқьырсиан	-6642
▁аиԥшәымара	-6643
▁аҵарадырра	-6644
▁ҳаҳәарақәа	-6645
▁алитературеи	-6646
▁ауаатәыҩсатә	-6647
▁адныҳәаларатә	-6648
▁ҩнаҭацыԥхьаӡа	-6649
уф	-6650
дан	-6651
шам	-6652
ӷан	-6653
жәҩа	-6654
иҭаз	-6655
кырц	-6656
лҵыз	-6657
ости	-6658
ҳәом	-6659
▁бза	-6660
▁зҵа	-6661
бжьаз	-6662
хәырц	-6663
ҳарҵо	-6664
ҳауан	-6665
ҵәаны	-6666
▁азал	-6667
▁азур	-6668
▁акар	-6669
▁балк	-6670
▁кана	-6671
▁аацҳа	-6672
▁аҵана	-6673
▁дааит	-6674
▁дцеит	-6675
▁иоуит	-6676
▁сахьа	-6677
▁ҳадаҳ	-6678
баратәы	-6679
▁амҽыша	-6680
▁аныхра	-6681
▁ахгара	-6682
накылеит	-6683
ҵалароуп	-6684
▁аусуреи	-6685
▁дырҵара	-6686
▁иажәаҿы	-6687
▁ҟабарда	-6688
▁изеиԥшра	-6689
▁изыӡырҩра	-6690
▁ԥыҭраамҭа	-6691
▁администра	-6692
▁амаҭәарқәа	-6693
▁иааркьаҿны	-6694
▁ашәҟәыҩҩцәа	-6695
▁аконференциа	-6696
▁ашьақәгылара	-6697
▁имҵахырхәара	-6698
▁мрагыларатәи	-6699
дир	-6700
лба	-6701
фон	-6702
әыз	-6703
енко	-6704
мбеи	-6705
сиаҭ	-6706
қьыр	-6707
ҵауа	-6708
▁ает	-6709
мамыз	-6710
▁дагь	-6711
▁заур	-6712
▁иефф	-6713
▁стан	-6714
цәҳара	-6715
қәырԥа	-6716
ҭахума	-6717
▁ишԥау	-6718
ҩызареи	-6719
ӷьарахь	-6720
▁адырга	-6721
▁академ	-6722
▁ацәкра	-6723
▁иахьыр	-6724
▁иӡбеит	-6725
▁шрылшо	-6726
▁еиҿкаан	-6727
▁ирымоуп	-6728
▁ихарҭәа	-6729
▁команда	-6730
▁асасааир	-6731
▁шәҽазышә	-6732
▁ишамҭақәа	-6733
▁краснодар	-6734
▁шәышықәса	-6735
▁иадҳәаланы	-6736
▁аҟәымшәышәра	-6737
▁ишьақәырӷәӷәа	-6738
др	-6739
бал	-6740
ела	-6741
унд	-6742
▁иг	-6743
зкуа	-6744
зыра	-6745
шаҳа	-6746
▁аор	-6747
галаз	-6748
гьыли	-6749
мшқәа	-6750
хартә	-6751
ыҩцәа	-6752
▁аиха	-6753
▁мчра	-6754
▁рыуа	-6755
илаҭтә	-6756
лашара	-6757
цқьара	-6758
ҵәҟьаз	-6759
▁аиуит	-6760
▁еизыр	-6761
▁иаҭәа	-6762
▁иҭоуп	-6763
▁шьҭыр	-6764
▁ҭамаз	-6765
▁ҳгәаз	-6766
▁ԥҟара	-6767
▁аллаҳи	-6768
▁ацәҳәы	-6769
▁ашаҳаҭ	-6770
▁хақәиҭ	-6771
▁ԥҳәысс	-6772
дҳәаланы	-6773
▁амузыка	-6774
▁ноеминь	-6775
▁шԥамҩаԥ	-6776
▁абаҳчаҿы	-6777
▁ианалага	-6778
▁миллиард	-6779
▁хырхарҭа	-6780
▁шԥаҳалшо	-6781
▁ҟалаанӡа	-6782
▁ажәытәтәи	-6783
▁аҭыԥҳацәа	-6784
▁иацәажәара	-6785
▁ҳацеиҩызшо	-6786
▁ақыҭанхамҩатә	-6787
▁аҭышәынтәалареи	-6788
▁иҵабыргыҵәҟьаны	-6789
11	-6790
гӡоз	-6791
дкыл	-6792
едиа	-6793
кара	-6794
цәаз	-6795
ылаз	-6796
▁дсы	-6797
▁пут	-6798
▁ҟам	-6799
ҳҵоит	-6800
ҵарҭа	-6801
▁араз	-6802
дыруам	-6803
ныҟәоз	-6804
хьоума	-6805
қәшәоз	-6806
▁адыга	-6807
▁аеҵәа	-6808
▁аҭҵаа	-6809
▁дунеи	-6810
▁дызбо	-6811
▁еихьӡ	-6812
▁захар	-6813
▁ибжьа	-6814
▁игана	-6815
▁ицеит	-6816
▁лшара	-6817
▁минуҭ	-6818
ологиеи	-6819
▁аартуа	-6820
▁ашьхар	-6821
едерациа	-6822
кратиатә	-6823
▁автобус	-6824
▁албаага	-6825
▁инеиԥын	-6826
▁анкылара	-6827
▁мҩаԥызго	-6828
▁рхаҭақәа	-6829
қәыргәыӷыз	-6830
▁чагәааԥҳа	-6831
▁аусеицуреи	-6832
▁ԥыҭраамҭак	-6833
▁аусеицуразы	-6834
▁ахамеигӡара	-6835
▁сыԥсҭазаара	-6836
▁усурҭақәаки	-6837
on	-6838
рт	-6839
арш	-6840
гак	-6841
кин	-6842
лаш	-6843
ӡны	-6844
ԥыц	-6845
▁во	-6846
▁ҽа	-6847
цеит	-6848
ынхо	-6849
ырба	-6850
ҿаба	-6851
ԥсыз	-6852
▁192	-6853
▁ави	-6854
▁ззы	-6855
▁меи	-6856
лҵшьҭ	-6857
нарбо	-6858
терес	-6859
шьырц	-6860
▁едем	-6861
▁ҳнар	-6862
каамеҭ	-6863
тәқәеи	-6864
цәыӡыз	-6865
ԥсыреи	-6866
еспубли	-6867
кылареи	-6868
ларақәа	-6869
ҭанкыла	-6870
▁аргәын	-6871
▁ақаҩба	-6872
▁аҽаҩра	-6873
▁еиӷьаҳ	-6874
▁иҳадаҳ	-6875
▁хадара	-6876
хьеиқәҵа	-6877
▁акредит	-6878
▁ауриатә	-6879
▁аҵакыра	-6880
▁иаажәга	-6881
▁ирыбзоу	-6882
▁ариашара	-6883
▁еимадара	-6884
▁жәларқәа	-6885
▁иҟанаҵаз	-6886
напхгаҩцәа	-6887
▁гәырӷьара	-6888
▁иҟалараны	-6889
▁азҵаарақәеи	-6890
▁лыԥсҭазаара	-6891
▁амҵахырхәара	-6892
▁ажәабжьҳәаразы	-6893
▁иқәыргәыӷрақәа	-6894
лбы	-6895
атра	-6896
бахь	-6897
дион	-6898
елла	-6899
хаша	-6900
▁диб	-6901
▁дон	-6902
арқәа	-6903
дырҩы	-6904
кәара	-6905
шьҭам	-6906
ԥшуан	-6907
▁2008	-6908
▁днар	-6909
▁зхыҵ	-6910
▁иаҿу	-6911
▁мсыр	-6912
дырӡом	-6913
▁абанк	-6914
▁еиҿна	-6915
▁нхара	-6916
▁роурц	-6917
▁форум	-6918
▁хынтә	-6919
цәырҵит	-6920
ҳәаратә	-6921
▁аилиба	-6922
▁аураҿы	-6923
▁идәықә	-6924
▁иеффаи	-6925
▁мазара	-6926
▁мариам	-6927
бзиаратә	-6928
ҵәҟьагьы	-6929
▁агылара	-6930
▁адулара	-6931
▁зҵаарак	-6932
▁зҵазкуа	-6933
▁изхадоу	-6934
▁имариоу	-6935
▁ҵарақәа	-6936
хынҳәуеит	-6937
▁аиудеиаа	-6938
▁ириашаны	-6939
▁усеицура	-6940
зыӡырҩуеит	-6941
хьаркыратә	-6942
▁алхырҭатә	-6943
▁арҿиаратә	-6944
▁имаҵуҩцәа	-6945
▁ҭышәынтәа	-6946
▁арежиссиор	-6947
▁атуристцәа	-6948
▁шьаҭанкыла	-6949
▁ақәҿиарақәа	-6950
▁рынагӡаразы	-6951
▁иазгәаҭатәуп	-6952
аӡа	-6953
изы	-6954
иҿа	-6955
ҷаб	-6956
етап	-6957
ӡамц	-6958
▁дин	-6959
▁нӡа	-6960
▁ста	-6961
▁уба	-6962
▁хын	-6963
▁ԥша	-6964
▁ауал	-6965
▁аҽар	-6966
▁смыр	-6967
▁хәба	-6968
▁аполи	-6969
▁ахьаҳ	-6970
▁ракад	-6971
▁шәзеи	-6972
шәшәара	-6973
▁ашьапы	-6974
▁ишԥары	-6975
▁иҷкәын	-6976
▁мариеи	-6977
▁хәыҷла	-6978
ҩыџьагьы	-6979
▁аацҳамҭа	-6980
▁занҭариа	-6981
▁лымкаала	-6982
▁аелектрон	-6983
▁алагалара	-6984
▁еилатәара	-6985
▁ажәабжьқәа	-6986
▁аҳақьымцәа	-6987
▁конференциа	-6988
▁ашәарҭадареи	-6989
▁инеиԥынкыланы	-6990
▁рыдиныҳәалеит	-6991
ra	-6992
ву	-6993
қу	-6994
▁©	-6995
зан	-6996
лҩа	-6997
тәр	-6998
зааз	-6999
илым	-7000
ҳәны	-7001
▁аим	-7002
▁иуб	-7003
▁лԥа	-7004
ҭахьа	-7005
▁иӡба	-7006
кәакәа	-7007
наҭоит	-7008
цәышәы	-7009
▁алшон	-7010
▁анҵар	-7011
▁шилшо	-7012
мазаара	-7013
▁аинрал	-7014
▁ицәымӷ	-7015
▁рылшон	-7016
▁ҳахшыҩ	-7017
▁амҩақәа	-7018
▁ацхыраа	-7019
▁аԥшьаша	-7020
▁рҩызцәа	-7021
▁атехника	-7022
▁иаагозар	-7023
▁мчыбжьык	-7024
▁ргәазҭеи	-7025
▁аилкааразы	-7026
▁аџьармыкьа	-7027
▁ахашәалахәы	-7028
▁еилҳаргозеи	-7029
▁аспециалистцәа	-7030
▁гәымбылџьбарала	-7031
ож	-7032
има	-7033
ԥаа	-7034
▁54	-7035
▁ҳп	-7036
мила	-7037
чаԥа	-7038
▁аен	-7039
▁аҟы	-7040
▁сос	-7041
▁уар	-7042
ылман	-7043
▁ажәҩ	-7044
▁акыд	-7045
▁амҳа	-7046
▁анра	-7047
▁анха	-7048
▁иоуз	-7049
▁ҵаҟа	-7050
ҭахеит	-7051
▁аетап	-7052
▁амҵәы	-7053
▁анапы	-7054
▁асекс	-7055
▁дышҳа	-7056
▁ишԥаҳ	-7057
▁ҳхатә	-7058
▁ԥсада	-7059
хынҳәра	-7060
▁аиасра	-7061
▁арыцхә	-7062
▁мамзар	-7063
▁аиҳабыс	-7064
▁воронов	-7065
▁дҟалеит	-7066
▁закәытә	-7067
▁иахәҭак	-7068
▁принцип	-7069
▁хәарҭас	-7070
▁изиашаны	-7071
▁реиҳарак	-7072
▁аларҵәара	-7073
▁иалхрақәа	-7074
▁иреиҳәоит	-7075
▁еиҭарҳәарц	-7076
▁аинвалидцәа	-7077
▁атәылауаҩра	-7078
▁иаҳзааигәоу	-7079
▁ирыцхраауеит	-7080
иӡ	-7081
бзы	-7082
ерг	-7083
нат	-7084
▁bw	-7085
иура	-7086
саит	-7087
тива	-7088
хәаз	-7089
▁144	-7090
▁лан	-7091
иқәыр	-7092
хәҭаз	-7093
▁азиа	-7094
▁азоу	-7095
▁дышә	-7096
▁ирха	-7097
▁рсиа	-7098
▁рӷьы	-7099
▁џьон	-7100
ларшәа	-7101
▁алада	-7102
▁ауаса	-7103
▁бзиоу	-7104
▁дааны	-7105
▁иднар	-7106
▁рыбжь	-7107
▁симон	-7108
▁фатәы	-7109
▁хыркә	-7110
▁ихадаз	-7111
▁иҳаиҭо	-7112
▁ахәҭаҿы	-7113
▁ҟалҵеит	-7114
▁ҳхаҵара	-7115
▁ихадароу	-7116
▁маҷымкәа	-7117
▁рахьынтә	-7118
▁шьақәдыр	-7119
▁аԥшьбатәи	-7120
▁ҳмаҵзуреи	-7121
▁ашықәсынҵа	-7122
▁имаҵураҭыԥ	-7123
▁ирзыԥҵәоуп	-7124
▁азхәыцрақәа	-7125
▁алацәажәара	-7126
▁ахымҩаԥгара	-7127
▁ашәахтәқәеи	-7128
▁иаадырԥшуеит	-7129
▁хымԥадатәиуп	-7130
▁ахаҭарнакцәеи	-7131
пп	-7132
бза	-7133
вет	-7134
жьу	-7135
рик	-7136
хга	-7137
шҭра	-7138
қәаз	-7139
ҭарц	-7140
гәоуп	-7141
хьчар	-7142
▁2020	-7143
▁ахаҿ	-7144
▁икьа	-7145
▁иҟьа	-7146
▁иԥеи	-7147
▁рҽеи	-7148
▁ҳәаз	-7149
ерзмаа	-7150
нҩажәа	-7151
цклаԥш	-7152
▁акалҭ	-7153
▁аклуб	-7154
▁атәан	-7155
▁ҷанба	-7156
▁ашьыжь	-7157
▁бааԥсы	-7158
▁иахьын	-7159
▁изеиҭа	-7160
▁шәыԥсы	-7161
дикылеит	-7162
▁рзинқәа	-7163
▁шәынцәа	-7164
▁аиқәԥара	-7165
▁афырхаҵа	-7166
▁аӡӡаахра	-7167
▁шәиҳәала	-7168
▁ахықәкқәа	-7169
▁ишьақәдыр	-7170
▁реиҩызара	-7171
▁уахцәажәа	-7172
қәшаҳаҭхеит	-7173
▁ауааԥсыреи	-7174
▁изакәанқәа	-7175
▁израильтәи	-7176
▁шәарҭадара	-7177
▁есышықәсатәи	-7178
▁ҭырқәтәылатәи	-7179
▁ахьынӡанаӡааӡо	-7180
чр	-7181
виу	-7182
иҿы	-7183
кҩы	-7184
▁72	-7185
град	-7186
каан	-7187
кьыс	-7188
озар	-7189
ҳәса	-7190
бадыр	-7191
шаӡом	-7192
▁1914	-7193
▁амаҭ	-7194
▁ачер	-7195
▁иацу	-7196
▁черк	-7197
блақәа	-7198
цәыӡит	-7199
ҵаанӡа	-7200
ԥҵәара	-7201
▁ахьҳа	-7202
▁денис	-7203
▁усзуҩ	-7204
ҵаҩцәеи	-7205
▁апатри	-7206
▁еиҳауп	-7207
▁филипп	-7208
қәҵарала	-7209
▁абизнес	-7210
▁ҳамазар	-7211
▁ҵәыџьба	-7212
▁атәылаҿы	-7213
▁ахыԥхьаӡ	-7214
▁ашколқәа	-7215
▁аштатқәа	-7216
▁далагоит	-7217
▁иаҳнарҵо	-7218
▁ирықәшәо	-7219
▁уаажәлар	-7220
▁дзықәшәаз	-7221
▁аргыларатә	-7222
▁ҳзаанагоит	-7223
▁ахьыԥшымреи	-7224
▁иԥсҭазаараҿы	-7225
▁акраҵанакуеит	-7226
лл	-7227
арх	-7228
окс	-7229
▁бо	-7230
▁рҽ	-7231
цаны	-7232
▁аеп	-7233
кәзар	-7234
суеит	-7235
▁апси	-7236
▁база	-7237
▁дбар	-7238
▁зықә	-7239
▁иҭәу	-7240
▁клуб	-7241
▁рымш	-7242
▁хәыц	-7243
зыжьуа	-7244
ишьеит	-7245
каареи	-7246
▁ианар	-7247
▁рхада	-7248
▁рымаҵ	-7249
▁шагыз	-7250
▁шәала	-7251
▁ашьаҟа	-7252
▁бзиара	-7253
▁идырны	-7254
▁ирбоит	-7255
▁нарцәы	-7256
▁шамиль	-7257
▁ыҟаӡам	-7258
▁афараон	-7259
▁иргәала	-7260
▁ракәӡам	-7261
▁ҩырақәа	-7262
▁ҭакԥхықә	-7263
▁русеицура	-7264
▁приднестров	-7265
жи	-7266
цаз	-7267
ьын	-7268
▁58	-7269
лиев	-7270
ҵхра	-7271
▁мир	-7272
шаара	-7273
ҵыҩра	-7274
▁араб	-7275
▁ател	-7276
▁аҩна	-7277
▁заҟа	-7278
▁иҵау	-7279
▁рҭах	-7280
▁став	-7281
әымзар	-7282
▁акино	-7283
▁архит	-7284
▁аҩаша	-7285
▁дыруа	-7286
▁иаара	-7287
▁игәыр	-7288
▁ииҳәо	-7289
▁ишаԥу	-7290
▁ишьҭы	-7291
▁ишәыр	-7292
▁округ	-7293
▁ҭаҭар	-7294
▁ҳсаит	-7295
▁ҳхаҿы	-7296
▁иҳарак	-7297
гылахоит	-7298
ҭазаашьа	-7299
▁абиԥара	-7300
▁леиуеит	-7301
▁акырынтә	-7302
▁зеиԥшроу	-7303
▁рымазарц	-7304
▁шьҭахьҟа	-7305
▁ҳзықәшәо	-7306
ессионалтә	-7307
▁дизиашаны	-7308
▁еиҳараҩык	-7309
▁ҳаиҩызара	-7310
▁азакәанқәа	-7311
▁афинансқәа	-7312
▁аихьӡарақәа	-7313
▁арыцҳашьара	-7314
▁маӡаныҟәгаҩ	-7315
▁ацәгьаурақәа	-7316
▁асахьаҭыхыҩцәа	-7317
▁аҭакԥхықәрақәа	-7318
▁аҭҵаарадырратә	-7319
аб	-7320
иԥ	-7321
ня	-7322
ерв	-7323
оуз	-7324
▁66	-7325
уаҩы	-7326
хәла	-7327
шьын	-7328
ҵага	-7329
ӡааи	-7330
ԥшын	-7331
▁иҩы	-7332
крада	-7333
ҳәауа	-7334
▁ашьц	-7335
▁илыз	-7336
▁ирхы	-7337
▁иуль	-7338
▁иҭыԥ	-7339
▁лашә	-7340
хәыҷыз	-7341
ҭахоит	-7342
ӷәӷәар	-7343
▁агәеи	-7344
▁анааи	-7345
▁апери	-7346
▁архив	-7347
▁бираҟ	-7348
▁ианыз	-7349
▁хаала	-7350
мадареи	-7351
хьчареи	-7352
▁аларҵә	-7353
▁еиқәир	-7354
▁инагӡа	-7355
▁лҿырԥш	-7356
бжьаратә	-7357
▁акаамеҭ	-7358
▁дазхәыц	-7359
▁ҳаразиа	-7360
гылазаара	-7361
▁изхылҵыз	-7362
▁қьырсиан	-7363
▁ԥсадгьыл	-7364
▁агәыҩбара	-7365
▁фестиваль	-7366
▁агәазыҟашьа	-7367
▁илахьеиқәҵа	-7368
▁адемонстрациа	-7369
▁ишәхашәмыршҭлан	-7370
ҳх	-7371
лиз	-7372
ения	-7373
маны	-7374
нана	-7375
хәит	-7376
шшыл	-7377
▁аеф	-7378
▁рыл	-7379
▁цар	-7380
▁ԥыр	-7381
мырԥш	-7382
ҭелиа	-7383
▁аилы	-7384
▁амши	-7385
▁анҵы	-7386
▁зымч	-7387
▁кәал	-7388
▁наҳа	-7389
▁нури	-7390
▁риҵа	-7391
▁ҳамч	-7392
лкаауа	-7393
шьцыла	-7394
▁аӡбаҩ	-7395
▁еиқәы	-7396
▁иаҳир	-7397
▁иҵегь	-7398
▁рыҽры	-7399
шәаҳәаҩ	-7400
▁аҿартә	-7401
▁данԥсы	-7402
▁иашәыр	-7403
▁ибааԥс	-7404
мышьҭахь	-7405
▁арзаҳал	-7406
▁ачҳареи	-7407
▁ишыҟало	-7408
▁рыдагьы	-7409
▁рызхәыц	-7410
галарақәа	-7411
▁аԥхьаԥшьа	-7412
▁иҿагылара	-7413
▁ркультура	-7414
▁реизырҳара	-7415
▁азхамҵаҩцәа	-7416
▁иерусалимҟа	-7417
▁ирыԥхьаӡоит	-7418
▁ачымазарақәа	-7419
таб	-7420
тон	-7421
шон	-7422
▁53	-7423
▁ги	-7424
еида	-7425
ерва	-7426
лома	-7427
▁дыс	-7428
▁ӡиӡ	-7429
еиқәа	-7430
етрад	-7431
капан	-7432
сылшо	-7433
шьҭыр	-7434
ҽеира	-7435
▁арҩа	-7436
▁еккл	-7437
▁парк	-7438
▁уоуп	-7439
▁хана	-7440
▁шама	-7441
ԥаразы	-7442
▁аманы	-7443
▁рбара	-7444
▁аҭӡамц	-7445
▁габниа	-7446
▁езекиа	-7447
▁ргәала	-7448
лацәажәо	-7449
ҵахырхәа	-7450
▁америка	-7451
▁ианаало	-7452
▁рӷьырак	-7453
▁иамоузеи	-7454
▁имаалықь	-7455
▁иудыруама	-7456
▁ҿырԥштәыс	-7457
гылазаашьеи	-7458
▁аанарԥшуеит	-7459
▁агәыҳалалра	-7460
▁адгаларақәа	-7461
▁f	-7462
▁s	-7463
маҵ	-7464
ҳәр	-7465
▁ер	-7466
▁оп	-7467
ение	-7468
мҵра	-7469
тцәа	-7470
цәас	-7471
▁300	-7472
▁аҵх	-7473
▁иаг	-7474
▁ива	-7475
▁тон	-7476
▁фес	-7477
гаҩыс	-7478
мбара	-7479
хәеит	-7480
▁аҭыӡ	-7481
▁даха	-7482
▁рцәы	-7483
иаанӡа	-7484
мҩаԥыс	-7485
цхрааз	-7486
▁аҵаҩы	-7487
▁бџьар	-7488
▁ианба	-7489
▁рныҟә	-7490
▁рыцеи	-7491
▁уареи	-7492
▁ҳаиба	-7493
▁ҳамам	-7494
▁арҭынч	-7495
▁ачерқь	-7496
▁диҳәон	-7497
▁еилика	-7498
▁ҩызцәа	-7499
қәгәыӷуа	-7500
▁аҿҳәара	-7501
▁игәаԥхо	-7502
▁пицунда	-7503
▁ставроп	-7504
▁уажәгьы	-7505
▁ҳаламыс	-7506
▁агәырԥса	-7507
▁игәрагоу	-7508
▁хықәкқәа	-7509
андидатура	-7510
қәиргәыӷыз	-7511
▁ахьчаразы	-7512
▁ракадемиа	-7513
▁ааирԥшуеит	-7514
▁ахыркәшара	-7515
▁иааҳарԥшуа	-7516
▁ирыцхраауа	-7517
▁цәыргақәҵа	-7518
▁ирыбзоураны	-7519
▁ҳқьырсиантә	-7520
▁аизҳазыӷьара	-7521
▁изааигәахара	-7522
▁рхымҩаԥгашьа	-7523
▁аизҳазыӷьареи	-7524
дым	-7525
19.0	-7526
иқәы	-7527
лакь	-7528
хана	-7529
ӡаар	-7530
▁xix	-7531
▁биб	-7532
▁мых	-7533
▁хир	-7534
исттә	-7535
ԥхьыӡ	-7536
ԥырха	-7537
▁аары	-7538
▁акаҳ	-7539
▁арҭә	-7540
▁ацҵа	-7541
▁аҿыц	-7542
▁еиҿа	-7543
▁зшаз	-7544
▁лиуд	-7545
каауаз	-7546
џьабаа	-7547
▁ацқьа	-7548
▁иашам	-7549
▁игәаҟ	-7550
▁ишеит	-7551
▁ражәа	-7552
▁ҳаурц	-7553
▁инаигӡ	-7554
▁рзаана	-7555
▁шиҭаху	-7556
▁ԥҳәыск	-7557
▁арбџьар	-7558
▁ахәаԥшы	-7559
▁иаӷацәа	-7560
▁ҟәыӷара	-7561
ҿиамҭақәа	-7562
▁ҳамҭақәа	-7563
▁акампаниа	-7564
▁аныҟәгара	-7565
зымариахоит	-7566
▁амыругақәа	-7567
▁ҳауаажәлар	-7568
▁ҳҽазаҳшәоит	-7569
▁жәеинраалақәа	-7570
цик	-7571
▁ит	-7572
имыр	-7573
лафа	-7574
шьыз	-7575
ӡбар	-7576
▁кал	-7577
екәын	-7578
раара	-7579
хәрас	-7580
шәынҭ	-7581
ԥслак	-7582
▁апер	-7583
▁ацҳа	-7584
▁гәҭа	-7585
▁иҭеи	-7586
▁реих	-7587
▁џьар	-7588
гароуп	-7589
гәарҭа	-7590
халара	-7591
ԥсахыз	-7592
▁аусеи	-7593
▁ашәар	-7594
▁иаҵоу	-7595
▁ргоит	-7596
▁сариа	-7597
▁хыҭуа	-7598
ҳәҳәара	-7599
▁абраҟа	-7600
▁рҭаара	-7601
▁шьалуа	-7602
▁ҳаракы	-7603
кыларазы	-7604
▁рхылаԥш	-7605
дамзаргьы	-7606
▁аиԥшәыма	-7607
▁ахәшьара	-7608
▁аԥырхага	-7609
▁бзиабара	-7610
▁иаҩызоуп	-7611
▁акәзаргьы	-7612
▁аҟаҵаразы	-7613
▁еилаҳкаап	-7614
▁жәашықәса	-7615
▁алагамҭазы	-7616
▁иофициалтә	-7617
▁мҩаԥыргоит	-7618
▁мҩаԥысраны	-7619
▁уаԥстәылеи	-7620
▁иаҳхаҳмыршҭ	-7621
▁ауснагӡатәқәа	-7622
▁адиннапхгаҩцәа	-7623
▁g	-7624
▁лу	-7625
▁ҽы	-7626
иуит	-7627
иҵоз	-7628
нқәа	-7629
роуа	-7630
шәап	-7631
ҩаны	-7632
ӷырӡ	-7633
▁сул	-7634
▁тем	-7635
▁уза	-7636
▁уск	-7637
заауа	-7638
мониа	-7639
▁ахан	-7640
▁иван	-7641
▁игоу	-7642
▁иҵәа	-7643
▁лгәа	-7644
▁муҳа	-7645
ҭҵаара	-7646
▁аконс	-7647
▁ахқәа	-7648
▁инцәа	-7649
▁иҳауа	-7650
▁рнаԥх	-7651
▁рхаҭа	-7652
▁рҿгьы	-7653
зыӡырҩы	-7654
ԥарақәа	-7655
▁агәмаа	-7656
▁ахьыҟа	-7657
▁бырзен	-7658
▁иссиру	-7659
заарақәа	-7660
мҩаԥысуа	-7661
ҵәахырҭа	-7662
ҷаҳауеит	-7663
▁аԥҳәыси	-7664
▁знымзар	-7665
▁иаҿырԥш	-7666
▁илагала	-7667
▁иҟаиҵоз	-7668
▁ҟаларын	-7669
▁ҳаҭырла	-7670
хьынџьара	-7671
▁аимпериа	-7672
▁германиа	-7673
▁иациҵеит	-7674
▁нызқьҩык	-7675
▁шьақәнар	-7676
▁имҵахырхә	-7677
▁иԥҟарақәа	-7678
▁аусшәҟәқәа	-7679
▁ганкахьала	-7680
▁ԥсҭазаареи	-7681
дысныҳәалоит	-7682
▁агәырӷьареи	-7683
▁ахархәагақәа	-7684
ых	-7685
иса	-7686
мон	-7687
шьу	-7688
гахо	-7689
икит	-7690
нгьы	-7691
хьҭа	-7692
ҵкыс	-7693
▁арк	-7694
▁фак	-7695
аниеи	-7696
иааит	-7697
ларҭа	-7698
ҿакны	-7699
▁дақә	-7700
▁каин	-7701
▁шәых	-7702
гӡарах	-7703
▁акрит	-7704
▁аҳәын	-7705
▁дшәыр	-7706
▁иаԥса	-7707
▁изкыу	-7708
▁килом	-7709
▁ргәыԥ	-7710
▁шамоу	-7711
урҭақәа	-7712
▁аҩнқәа	-7713
▁змамыз	-7714
▁иалхыз	-7715
▁мҩаԥаҳ	-7716
▁ахахәыл	-7717
▁рыгәқәа	-7718
▁ҟалашьа	-7719
▁ҳаракуп	-7720
хәышәтәра	-7721
▁лиудмила	-7722
▁арыцқьара	-7723
▁аҵарадырреи	-7724
▁иаҳгәалаҳар	-7725
▁рцәыргақәҵа	-7726
▁ихымҩаԥгашьа	-7727
▁уажәраанӡагьы	-7728
▁аԥсаломшәаҳәаҩ	-7729
▁рџьынџьтәылатә	-7730
ҭр	-7731
уоу	-7732
ҭни	-7733
ениа	-7734
илтә	-7735
ҵәоу	-7736
▁ади	-7737
▁азу	-7738
▁аиц	-7739
▁ати	-7740
▁еду	-7741
▁рзи	-7742
▁хеи	-7743
артра	-7744
талиа	-7745
хьчоз	-7746
ӡахра	-7747
▁2011	-7748
▁2012	-7749
▁аинт	-7750
▁ирыл	-7751
▁реиҿ	-7752
▁рыцә	-7753
▁тема	-7754
▁ааныз	-7755
▁ашьра	-7756
▁молда	-7757
▁ҳрыла	-7758
▁ҵыхәа	-7759
зымӡырҩ	-7760
▁аагара	-7761
▁агьама	-7762
▁аеванг	-7763
▁еиҳабы	-7764
▁иҟаҵаз	-7765
▁мҩаԥго	-7766
▁шаҭаху	-7767
лшәыркаа	-7768
ҩаԥгареи	-7769
▁уахәама	-7770
▁аветеран	-7771
▁рыхьӡала	-7772
▁ҩынҩажәи	-7773
▁ҵабыргла	-7774
▁аџьынџьал	-7775
▁еиликааит	-7776
▁уадаҩрақәа	-7777
▁ихымԥадатәиу	-7778
▁ҳаигәырӷьоит	-7779
▁иԥааимбаражәа	-7780
гам	-7781
еди	-7782
цуп	-7783
ԥеи	-7784
ԥыз	-7785
▁56	-7786
▁ки	-7787
▁дуу	-7788
▁рла	-7789
▁ула	-7790
арҭаа	-7791
ижьит	-7792
нагаз	-7793
ӷониа	-7794
ԥхьон	-7795
▁аниа	-7796
▁аҽеи	-7797
▁ицыз	-7798
▁мыхц	-7799
▁план	-7800
зыԥшым	-7801
▁аҩада	-7802
▁гәара	-7803
▁иаани	-7804
▁лыхны	-7805
▁лыԥха	-7806
▁мардо	-7807
нагӡара	-7808
шәагатә	-7809
▁аномер	-7810
▁аушьҭы	-7811
▁африка	-7812
▁ахаҵеи	-7813
▁аӡынба	-7814
▁аԥсныи	-7815
▁иҩуеит	-7816
қәымгәыӷ	-7817
▁иҟаларц	-7818
▁иҟалҵаз	-7819
▁милаҭтә	-7820
▁аанагоит	-7821
▁мардохеи	-7822
▁цәқәырԥа	-7823
▁ҳрызхәыц	-7824
▁аинтервиу	-7825
▁аинтернет	-7826
▁меигӡарах	-7827
▁черқьесск	-7828
▁аҭыԥҳацәеи	-7829
▁аелектронтә	-7830
▁аусбарҭақәа	-7831
▁еиҭашьақәыр	-7832
▁аџьашьахәқәа	-7833
▁атәылауаҩратә	-7834
▁аиқәшаҳаҭрақәа	-7835
рд	-7836
ҽу	-7837
есу	-7838
лей	-7839
рар	-7840
ҭых	-7841
ҵны	-7842
ихит	-7843
кыга	-7844
тали	-7845
ться	-7846
уада	-7847
цент	-7848
шыра	-7849
▁арш	-7850
▁мац	-7851
▁саа	-7852
▁шыл	-7853
баҳча	-7854
жәаба	-7855
зымхо	-7856
шәары	-7857
ҭахыу	-7858
▁алеи	-7859
▁асыс	-7860
▁иҭаз	-7861
▁нана	-7862
▁қьыр	-7863
▁ҟашә	-7864
ландиа	-7865
сааира	-7866
хьчарц	-7867
ҟаҵаҩы	-7868
▁иабжь	-7869
▁ирныр	-7870
▁уҳәар	-7871
▁ԥышәа	-7872
хәҭақәа	-7873
▁ароман	-7874
▁едуард	-7875
▁ҳәагьы	-7876
▁абекәын	-7877
▁ашәахьа	-7878
▁захариа	-7879
▁икьыԥхь	-7880
▁публика	-7881
хәаԥшуеит	-7882
▁абыргцәа	-7883
▁аусураҿы	-7884
▁дызусҭоу	-7885
▁комплекс	-7886
▁ҳамазарц	-7887
▁абжьаратә	-7888
▁агәаԥхашәа	-7889
▁анагӡаратә	-7890
▁еилыскааит	-7891
▁ставрополь	-7892
▁агәымшәареи	-7893
▁адгьылтәыла	-7894
▁аминистрреи	-7895
▁амҩаԥгаразы	-7896
▁ахынраалареи	-7897
▁ашколхәыҷқәа	-7898
▁лышәшәарақәа	-7899
▁ижәдыруазааит	-7900
▁аиҿцәажәарақәа	-7901
уш	-7902
итә	-7903
ебиа	-7904
иада	-7905
ҵәыу	-7906
▁зиа	-7907
▁таи	-7908
зымчу	-7909
шьала	-7910
ҟәҟәа	-7911
▁амчи	-7912
▁иаби	-7913
▁иныр	-7914
▁ирзи	-7915
▁прит	-7916
▁ԥхьа	-7917
аигәоу	-7918
зылԥхо	-7919
ордина	-7920
▁аконт	-7921
▁амҵан	-7922
▁аниба	-7923
▁иахыр	-7924
▁мзазы	-7925
зуҩцәеи	-7926
лаҳәара	-7927
▁азыӡба	-7928
▁иаасҭа	-7929
▁тетрад	-7930
▁хәыҷык	-7931
▁ҳзаана	-7932
▁ԥшьҩык	-7933
▁шәҟәқәа	-7934
▁аусуразы	-7935
▁ачерқьес	-7936
▁еиԥылара	-7937
▁игәалаир	-7938
▁иуадаҩыз	-7939
▁салагеит	-7940
▁шьҭызхуа	-7941
▁ҳаамҭазы	-7942
▁аидгылара	-7943
▁аилкаареи	-7944
▁зҿлымҳара	-7945
▁издыруеит	-7946
▁инарҭбаау	-7947
▁рҿагылара	-7948
▁агәҽанҵара	-7949
▁ибзиабараҿ	-7950
▁ахӡырымгара	-7951
▁аԥсҭазаареи	-7952
▁аԥхьахәгара	-7953
▁иадамзаргьы	-7954
▁агәнаҳарақәа	-7955
▁астратегиатә	-7956
▁ицәаныррақәа	-7957
▁рцәаныррақәа	-7958
in	-7959
гым	-7960
ром	-7961
▁ом	-7962
▁ӡы	-7963
иԥшу	-7964
тәаз	-7965
▁аҿи	-7966
▁дха	-7967
▁кур	-7968
▁уал	-7969
лԥазы	-7970
парат	-7971
шьаны	-7972
ҵәира	-7973
▁амат	-7974
▁ануп	-7975
▁аӡым	-7976
▁дрых	-7977
▁дырҩ	-7978
▁зана	-7979
▁иибо	-7980
▁сыла	-7981
▁хьӡи	-7982
▁ҳаид	-7983
▁ԥшеи	-7984
рхәара	-7985
ҳәызба	-7986
ҷаԥшьа	-7987
▁аишәа	-7988
▁иҳәоз	-7989
▁ухатә	-7990
коллега	-7991
▁ахәԥса	-7992
▁иазкуп	-7993
▁иахьеи	-7994
▁иахәҭа	-7995
▁инхоит	-7996
▁ирзыҟа	-7997
▁ԥсахра	-7998
▁ԥыҭҩык	-7999
хәыҷқәеи	-8000
▁ахылҿиа	-8001
▁спорттә	-8002
▁џьаргьы	-8003
▁аихьӡара	-8004
▁ахынҳәра	-8005
▁ахәмарра	-8006
▁игәырӷьа	-8007
▁ицәырҵуа	-8008
▁рмаҵзура	-8009
▁рыхьӡқәа	-8010
▁ҳазхиоуп	-8011
▁ашьаҿақәа	-8012
▁зегьзымчу	-8013
▁иреиӷьӡоу	-8014
▁рыргылара	-8015
▁рыхьчареи	-8016
▁шықәсқәак	-8017
▁ҳизиашаны	-8018
▁алыршахеит	-8019
▁арсалиаԥҳа	-8020
▁иаанагаӡом	-8021
▁иаҳзаанаго	-8022
▁информациа	-8023
▁зехьынџьара	-8024
▁ишьақәгылоу	-8025
▁аԥсҭазааразы	-8026
▁еиӷьаҳтәуеит	-8027
▁игәаанагарала	-8028
18.	-8029
исс	-8030
фар	-8031
ӡоз	-8032
▁62	-8033
▁69	-8034
▁он	-8035
жаки	-8036
кьиа	-8037
ҳауп	-8038
▁бра	-8039
▁иҽи	-8040
▁нов	-8041
▁роб	-8042
▁соф	-8043
маӡам	-8044
ҳәҳәа	-8045
ӷәаза	-8046
▁абха	-8047
▁атәа	-8048
▁ачба	-8049
▁ашьр	-8050
▁ваал	-8051
▁егип	-8052
▁усуп	-8053
▁хымш	-8054
зеиԥшу	-8055
хәуеит	-8056
ӡаратә	-8057
▁агәам	-8058
▁акала	-8059
▁анарк	-8060
▁ашәба	-8061
▁аҳара	-8062
▁бжаки	-8063
▁иҳәан	-8064
▁сосна	-8065
▁хкқәа	-8066
▁шыҟам	-8067
▁ҳгәаҳ	-8068
гьангьа	-8069
ралитет	-8070
шәалара	-8071
ҭахузеи	-8072
▁аолимп	-8073
▁иазыҟа	-8074
▁рацәак	-8075
гәеиҭоит	-8076
цхраазеи	-8077
ыцҳауеит	-8078
▁асимвол	-8079
▁раԥҵара	-8080
▁ҳзыԥсам	-8081
▁ӡиӡариа	-8082
▁ԥырхага	-8083
цхрааларц	-8084
▁ашәҟәаҿы	-8085
▁ақәымчра	-8086
▁имҩаԥган	-8087
▁ҟанаҵоит	-8088
▁ҳиҳәалар	-8089
▁арӷәӷәоит	-8090
▁аԥшьаҩцәа	-8091
▁рызхәыцра	-8092
▁ҿырԥштәык	-8093
▁иҭышәынтәа	-8094
▁иаҳархәалар	-8095
▁акандидатцәа	-8096
▁амҩақәҵарақәа	-8097
бл	-8098
ех	-8099
▁ӷ	-8100
гба	-8101
жьа	-8102
мун	-8103
наа	-8104
ока	-8105
фик	-8106
гӡар	-8107
иҭон	-8108
мҵуа	-8109
ҳала	-8110
▁баш	-8111
▁дла	-8112
▁исп	-8113
▁лот	-8114
▁лыр	-8115
▁рал	-8116
инаго	-8117
усқәа	-8118
▁акап	-8119
▁аҭаԥ	-8120
▁дасу	-8121
▁зауа	-8122
▁иным	-8123
▁лакр	-8124
▁лаҟә	-8125
▁маӡа	-8126
▁ҳаҟа	-8127
иҵыхра	-8128
символ	-8129
ӷәӷәон	-8130
▁аврам	-8131
▁аиааи	-8132
▁апара	-8133
▁аҵкыс	-8134
▁иазоу	-8135
▁исгәа	-8136
▁иҳади	-8137
ографиа	-8138
▁аиуеит	-8139
▁анорма	-8140
▁аусзуҩ	-8141
▁аԥыхра	-8142
▁аԥҵоуп	-8143
▁далҵит	-8144
▁ижәытә	-8145
▁ишыҟаз	-8146
▁премиа	-8147
▁руаӡәы	-8148
гыларатә	-8149
зхәыцуаз	-8150
▁едемтәи	-8151
▁иагьыҟа	-8152
▁иашьҭоу	-8153
▁инықәыр	-8154
▁рдоктор	-8155
▁реиқәыр	-8156
▁усуратә	-8157
▁хәыҷқәа	-8158
емориалтә	-8159
▁анаплакы	-8160
▁зыҟаҵара	-8161
▁аамҭақәак	-8162
▁алаирхәит	-8163
▁афырхацәа	-8164
▁аҭҵааҩцәа	-8165
▁еиԥшҵәҟьа	-8166
▁зныкымкәа	-8167
▁ирдыруеит	-8168
▁реилагара	-8169
▁ацхыраареи	-8170
▁рырӷәӷәара	-8171
▁зыԥсҭазаара	-8172
▁ҳәынҭқаррак	-8173
▁ахыркәшамҭаз	-8174
▁рышьақәыргылара	-8175
имы	-8176
ный	-8177
сан	-8178
уре	-8179
ҩым	-8180
▁об	-8181
датә	-8182
мҭеи	-8183
оуит	-8184
рхәа	-8185
шьад	-8186
▁бар	-8187
▁вал	-8188
▁шри	-8189
сктәи	-8190
хьаԥш	-8191
шәага	-8192
▁апор	-8193
▁асин	-8194
▁афҩы	-8195
▁ефес	-8196
▁ишәу	-8197
▁неем	-8198
▁рком	-8199
▁тәыс	-8200
▁ҳауп	-8201
▁ԥшьа	-8202
анарԥш	-8203
дырҭәа	-8204
хомызт	-8205
ционер	-8206
цәыԥха	-8207
ынгыла	-8208
ԥшааит	-8209
▁ианын	-8210
▁исаия	-8211
▁реила	-8212
анааҭтә	-8213
ологцәа	-8214
▁агәамч	-8215
▁аҭыхра	-8216
▁пиотри	-8217
▁ҵаҵӷәы	-8218
▁ӡбарҭа	-8219
▁акәхоит	-8220
▁аҭыжьра	-8221
▁иаауеит	-8222
▁иаҭахуп	-8223
▁лашәриа	-8224
▁ҿырԥштә	-8225
ократиатә	-8226
▁арԥарцәа	-8227
▁аӡбаратә	-8228
▁иҟаиҵеит	-8229
▁агәшаҭара	-8230
▁еизарақәа	-8231
▁иҟаиҵазеи	-8232
▁ргәазҭаҵа	-8233
▁рҭоурыхтә	-8234
▁дидикылеит	-8235
▁ишԥашәылшо	-8236
▁азнеишьақәа	-8237
▁ахаҭарнакра	-8238
▁аҽацәыхьчара	-8239
▁изқәыргәыӷыз	-8240
фо	-8241
хыҭ	-8242
ӡан	-8243
▁кр	-8244
зҵаз	-8245
усти	-8246
шьон	-8247
▁ран	-8248
жәаны	-8249
кратә	-8250
ласси	-8251
хьӡыз	-8252
ԥсаны	-8253
▁акьы	-8254
▁атау	-8255
▁ашҭа	-8256
▁иӡаа	-8257
▁поет	-8258
датәра	-8259
▁ахгар	-8260
▁иалам	-8261
▁рхәыц	-8262
▁хәыта	-8263
ԥхьаӡон	-8264
▁амурҭа	-8265
▁ахьшьр	-8266
▁аҟәара	-8267
▁гәымба	-8268
▁дынхон	-8269
▁иашьак	-8270
▁иеихыр	-8271
▁ишаҳбо	-8272
▁хаданы	-8273
▁хацырк	-8274
▁шәҟәык	-8275
▁ҭамара	-8276
▁ҳусура	-8277
▁аиагара	-8278
▁дыҟаӡам	-8279
▁ицәажәо	-8280
▁иԥхьаӡа	-8281
▁иԥҳәыси	-8282
цәаҳахьча	-8283
▁ақәшаҳаҭ	-8284
▁даҽазнык	-8285
▁диижьҭеи	-8286
▁иазхиоуп	-8287
иқәыршәара	-8288
ланаршәоит	-8289
цәажәаразы	-8290
▁аҭамзаара	-8291
▁европатәи	-8292
▁атранспорт	-8293
▁ақалақьқәеи	-8294
▁еиликаауеит	-8295
▁аматериалқәа	-8296
▁мраҭашәаратәи	-8297
10	-8298
ден	-8299
нра	-8300
тан	-8301
шәи	-8302
ҿио	-8303
шәны	-8304
▁лыл	-8305
хаара	-8306
шарба	-8307
шьаша	-8308
шьҭны	-8309
ызмал	-8310
▁аҵыс	-8311
▁шьаҿ	-8312
▁шәыҽ	-8313
гомызт	-8314
мҵакәа	-8315
ҳаларц	-8316
▁агәын	-8317
▁аидеи	-8318
▁афина	-8319
▁афрон	-8320
▁иааҳа	-8321
ыԥҵәаха	-8322
▁адырҩа	-8323
▁дшыҟаз	-8324
▁ишԥана	-8325
▁павели	-8326
▁проект	-8327
▁анагара	-8328
▁анасыԥи	-8329
▁атәанча	-8330
▁иахәоит	-8331
▁шиакәыз	-8332
▁ҳаниҳәо	-8333
▁абжьыхра	-8334
▁атемақәа	-8335
▁аԥагьара	-8336
▁даналага	-8337
▁еицҿакны	-8338
▁зықьҩыла	-8339
▁иашьҭоуп	-8340
▁азылԥхара	-8341
▁акурорттә	-8342
▁арԥарцәеи	-8343
▁ахыҵхырҭа	-8344
▁иааирԥшыз	-8345
ҭаацәарақәа	-8346
▁азгәалҭеит	-8347
▁аиҳәшьцәеи	-8348
▁мҩаԥнагоит	-8349
▁аматериалтә	-8350
▁иапостолцәа	-8351
▁зылԥхарақәоу	-8352
▁шьамтәылатәи	-8353
▁азԥхьагәаҭаны	-8354
▁дарбанзаалакь	-8355
ас	-8356
зтә	-8357
кар	-8358
орк	-8359
бома	-8360
естр	-8361
лизм	-8362
рара	-8363
хома	-8364
хьтә	-8365
▁нин	-8366
лырша	-8367
неира	-8368
хозеи	-8369
хысыз	-8370
хьтәи	-8371
ҵалыҵ	-8372
ҵароу	-8373
ҵысра	-8374
ӡыӡаа	-8375
ԥхьар	-8376
▁акри	-8377
▁еица	-8378
▁музы	-8379
▁руан	-8380
▁шышә	-8381
▁шьаҟ	-8382
▁ҳауа	-8383
лымӡаа	-8384
уазгьы	-8385
чаԥара	-8386
ҩаӡара	-8387
ҵаҵәҟь	-8388
ҿыԥшла	-8389
▁алашә	-8390
▁ахәым	-8391
▁ашәуа	-8392
ижьуеит	-8393
▁азинтә	-8394
▁ақьала	-8395
▁иаԥҵоу	-8396
▁иоанни	-8397
▁убраҟа	-8398
▁қьырса	-8399
гәырӷьон	-8400
ԥааимбар	-8401
▁ахьеизо	-8402
▁ашәагаа	-8403
▁гәаҟрак	-8404
▁иудеиаа	-8405
▁черқьес	-8406
▁аексперт	-8407
▁галилеиа	-8408
▁еиҵагыло	-8409
▁иаҳәшьак	-8410
▁ихәыҷқәа	-8411
▁рмилаҭтә	-8412
▁хықәкыла	-8413
▁хәылԥазы	-8414
қәгәыӷуеит	-8415
▁ахәыцрақәа	-8416
▁еиҭалҳәеит	-8417
▁ирыҵанакуа	-8418
▁иҟазшьақәа	-8419
▁рыԥсадгьыл	-8420
▁аҳазылхратә	-8421
▁иԥшәмаԥҳәыс	-8422
▁уадаҩрақәоу	-8423
▁краснодартәи	-8424
▁аҳәаахьчаратә	-8425
07	-8426
▁m	-8427
бек	-8428
хьо	-8429
▁61	-8430
▁ло	-8431
▁уш	-8432
хьыз	-8433
▁105	-8434
▁ава	-8435
▁тер	-8436
залху	-8437
лагьы	-8438
раҳим	-8439
тортә	-8440
ҵаӡом	-8441
ԥшәма	-8442
▁ахав	-8443
▁аԥҳа	-8444
▁ибеи	-8445
▁саны	-8446
▁уԥсы	-8447
▁цаҳә	-8448
▁ҟаҵо	-8449
арҭатә	-8450
бахьиа	-8451
дулара	-8452
заратә	-8453
хьазар	-8454
хәашар	-8455
шьҭаны	-8456
ҩынтра	-8457
ҿыԥшуа	-8458
ԥхьарц	-8459
▁акыла	-8460
▁араса	-8461
▁дцоит	-8462
▁иҵара	-8463
▁филар	-8464
▁шәыгә	-8465
бзоуроу	-8466
енталтә	-8467
мыршҭын	-8468
намӡара	-8469
▁ахәҭак	-8470
▁египет	-8471
▁ииҳәоз	-8472
▁хьанҭа	-8473
▁шәҟәыҩ	-8474
▁аилыҵра	-8475
▁аобиект	-8476
▁аџьуатә	-8477
▁иаԥсоуп	-8478
▁ибраҳим	-8479
▁ирдыруа	-8480
▁ирыдҳәа	-8481
▁иҟазарц	-8482
▁иҟынтәи	-8483
цәырҵуеит	-8484
▁аицлабра	-8485
▁аҭоурыхи	-8486
▁еиҿкаауп	-8487
▁иақәшәаз	-8488
▁иҟәыӷара	-8489
▁унитартә	-8490
▁цәгьарак	-8491
▁ԥааимбар	-8492
шьҭашәарыц	-8493
▁иеилкаара	-8494
▁аибашьраҿы	-8495
▁аџьашьахәы	-8496
▁аҵараиурҭа	-8497
▁иаҵанакуаз	-8498
▁игәаԥхашәа	-8499
▁шьыҵәрақәа	-8500
▁ҳанрықәшәо	-8501
▁анааҳарԥшуа	-8502
▁аимабзиаратә	-8503
ад	-8504
вед	-8505
гог	-8506
еми	-8507
кыд	-8508
қәо	-8509
▁77	-8510
▁ге	-8511
гәду	-8512
жәуа	-8513
рҭәа	-8514
хашҭ	-8515
▁150	-8516
▁ззи	-8517
сҭааи	-8518
хааит	-8519
хеиба	-8520
хьчаҩ	-8521
хәала	-8522
▁адра	-8523
▁амҭа	-8524
▁асар	-8525
▁ашах	-8526
▁аҩра	-8527
▁аԥыз	-8528
▁еилу	-8529
▁изыл	-8530
обилтә	-8531
ҳәашьа	-8532
ԥсахыр	-8533
▁амцхә	-8534
▁асаби	-8535
▁ацәыӡ	-8536
▁ибзоу	-8537
▁пункт	-8538
▁уаҵәы	-8539
гаҩцәеи	-8540
ӡырҩцәа	-8541
▁аартны	-8542
▁ауразы	-8543
▁ахкқәа	-8544
▁есымчы	-8545
▁ирылар	-8546
▁ишаабо	-8547
▁ҳҟынтә	-8548
спектива	-8549
уазароуп	-8550
▁апериод	-8551
▁асинаго	-8552
▁доуҳатә	-8553
▁дҟалоит	-8554
▁иалихыз	-8555
▁иреиуоу	-8556
▁иқәгәыӷ	-8557
▁ааиаанӡа	-8558
▁ааныжьра	-8559
▁агәнаҳаи	-8560
▁ианашьоуп	-8561
▁имҩаԥгахо	-8562
▁иҟаҳҵалар	-8563
▁рҭаацәара	-8564
▁рҭахрақәа	-8565
▁факультет	-8566
▁аамышьҭахь	-8567
▁ассоциациа	-8568
▁еибашьраан	-8569
▁иадырхәоит	-8570
▁реидгылара	-8571
▁ҳаизааигәа	-8572
▁агәабзиареи	-8573
▁ахархәаразы	-8574
▁адинхаҵарақәа	-8575
▁асахьаркыратә	-8576
▁ауаҩытәыҩсатә	-8577
бж	-8578
даҭ	-8579
кли	-8580
лац	-8581
мас	-8582
оуа	-8583
пуа	-8584
цым	-8585
▁71	-8586
арҭо	-8587
ириа	-8588
мышҭ	-8589
ызма	-8590
қәаҳ	-8591
▁кны	-8592
▁под	-8593
итинг	-8594
иутер	-8595
тәӡам	-8596
уреат	-8597
хәарц	-8598
хәҭак	-8599
қәдыр	-8600
ԥҵәоу	-8601
▁абна	-8602
▁дали	-8603
▁иацә	-8604
▁иган	-8605
▁исыз	-8606
▁мура	-8607
▁полу	-8608
▁ԥлиа	-8609
▁ԥшӡа	-8610
зҵааит	-8611
паҵаҟа	-8612
хтәқәа	-8613
цхрааи	-8614
ҟьақәа	-8615
▁аҵиаа	-8616
▁бзиеи	-8617
▁вадим	-8618
▁гьежь	-8619
▁ихшыҩ	-8620
▁ишԥаа	-8621
▁маҷуп	-8622
▁ныҟәы	-8623
▁уаҩын	-8624
▁шьаҭа	-8625
гылашьа	-8626
машьына	-8627
ԥхьаӡоз	-8628
▁авидео	-8629
▁залқәа	-8630
▁зеиӷьа	-8631
▁иеиԥшу	-8632
▁нурбеи	-8633
▁авигеиа	-8634
▁аҿыԥшра	-8635
▁диҳәеит	-8636
▁знеишьа	-8637
▁ииҭахыз	-8638
▁рҳәатәы	-8639
▁убасала	-8640
зыӡырҩуан	-8641
▁аиҷаҳара	-8642
▁амшныҳәа	-8643
▁атуризми	-8644
▁гәарамиа	-8645
▁ирыбжьар	-8646
▁иҩызцәеи	-8647
▁рыцҳарас	-8648
▁аарԥшразы	-8649
▁ашамҭақәа	-8650
▁иааирԥшит	-8651
еинраалақәа	-8652
▁абаҩхатәра	-8653
▁еилаҳкааит	-8654
▁иаадырԥшыз	-8655
▁иаанагозар	-8656
▁филармониа	-8657
▁шымҩаԥысуа	-8658
▁џьашьахәыла	-8659
▁аԥсҭазааратә	-8660
▁шәыгәрахаҵара	-8661
▁апрофессионалтә	-8662
,5	-8663
▁▪	-8664
иоу	-8665
хыҩ	-8666
▁уч	-8667
бааи	-8668
елие	-8669
уард	-8670
ҭыша	-8671
ҵахо	-8672
▁120	-8673
▁кьа	-8674
гхара	-8675
дгала	-8676
жьара	-8677
зымҵо	-8678
халар	-8679
шьуан	-8680
▁аркр	-8681
▁аҭел	-8682
▁иӷар	-8683
▁рост	-8684
▁уахы	-8685
▁фара	-8686
▁ҳзеи	-8687
зыԥшын	-8688
рацәоу	-8689
ҭахыуп	-8690
▁еибар	-8691
▁еиӷьу	-8692
▁иугәа	-8693
▁ргеит	-8694
▁рҳәон	-8695
▁аметод	-8696
▁еилука	-8697
▁зеиԥшу	-8698
▁исымоу	-8699
▁лариса	-8700
▁молдав	-8701
▁никара	-8702
▁шьаҟры	-8703
▁шәеиба	-8704
▁ақәԥара	-8705
▁захьӡыз	-8706
▁ииҳәарц	-8707
▁имҩаԥыр	-8708
▁лҭаацәа	-8709
▁процесс	-8710
▁реиҳабы	-8711
▁рҿырԥшы	-8712
▁сҭаацәа	-8713
▁ҳҩызцәа	-8714
▁агәеилых	-8715
▁гьерзмаа	-8716
▁иахәҭоуп	-8717
▁иқәыԥшыз	-8718
▁рыгхақәа	-8719
▁ҳпублика	-8720
▁аиҭанеира	-8721
▁аиҭаҳәара	-8722
▁есыҽнытәи	-8723
▁аиҳабацәеи	-8724
▁аҵанакуеит	-8725
▁еилыркаарц	-8726
▁еиҿкаахоит	-8727
▁аизыҟазаашьа	-8728
▁иҳаилшәыркаа	-8729
гн	-8730
кс	-8731
ҭтә	-8732
▁64	-8733
▁85	-8734
▁ро	-8735
▁тв	-8736
▁ҭи	-8737
анаҵ	-8738
згаз	-8739
▁103	-8740
▁145	-8741
▁ако	-8742
▁амы	-8743
▁ацы	-8744
▁аԥҟ	-8745
▁гад	-8746
▁изл	-8747
▁рыҿ	-8748
▁ҟча	-8749
▁ҭаҳ	-8750
кәажә	-8751
уагьы	-8752
ԥшааз	-8753
▁аԥҽр	-8754
▁дшаҳ	-8755
▁кәыр	-8756
▁ҳаиз	-8757
▁ҳалш	-8758
▁ҳреи	-8759
лошьад	-8760
▁ааԥын	-8761
▁азура	-8762
▁дырба	-8763
▁еиҿыр	-8764
▁игеит	-8765
▁рҵакы	-8766
▁чачба	-8767
атралтә	-8768
лафахәы	-8769
цәырҵыз	-8770
цәыхара	-8771
қәыԥшыз	-8772
▁ианнеи	-8773
▁иахьры	-8774
▁иашала	-8775
▁изаана	-8776
▁цәгьоу	-8777
ӷәӷәареи	-8778
▁ашьхары	-8779
▁зыхьӡыз	-8780
▁ишазгәа	-8781
▁ишьаҭар	-8782
▁коӷониа	-8783
▁шәхәыҷы	-8784
▁акурсқәа	-8785
▁аԥхьареи	-8786
▁аԥшьгара	-8787
▁иажәабжь	-8788
▁традициа	-8789
▁христоси	-8790
еспубликеи	-8791
▁ахылаԥшҩы	-8792
▁аҽыԥсахра	-8793
▁мапкыҩцәа	-8794
▁ракәымкәа	-8795
▁шәрызхәыц	-8796
▁ҭҵаарақәа	-8797
▁агәыҭбаара	-8798
▁еиҳаракгьы	-8799
шәарыцарақәа	-8800
▁адныҳәалара	-8801
▁иԥсхҭынҵара	-8802
▁атеократиатә	-8803
▁ауадаҩрақәеи	-8804
▁уахәаԥшуазар	-8805
▁аԥсшьарамшқәа	-8806
▁еизааигәахара	-8807
▁агәаларшәагатә	-8808
▁аҭышәынтәалара	-8809
06	-8810
дыл	-8811
зав	-8812
ово	-8813
ӡон	-8814
ԥны	-8815
гылт	-8816
гәҭа	-8817
лект	-8818
лтәу	-8819
ԥаҿы	-8820
▁амо	-8821
▁атр	-8822
▁аху	-8823
▁бер	-8824
▁вол	-8825
▁зго	-8826
▁оль	-8827
▁рас	-8828
▁рԥы	-8829
дәықә	-8830
иааир	-8831
налтә	-8832
ынхоз	-8833
ҟынӡа	-8834
ԥсахы	-8835
▁азгә	-8836
▁ацит	-8837
▁аԥҟа	-8838
▁еима	-8839
▁иаау	-8840
▁маҭф	-8841
▁мира	-8842
▁рцәа	-8843
▁сықә	-8844
▁хәым	-8845
▁шьар	-8846
▁шәыш	-8847
мҩанга	-8848
рахара	-8849
харгьы	-8850
ҳәазеи	-8851
ҵомызт	-8852
▁еидыз	-8853
▁иддыр	-8854
▁ироуз	-8855
▁ирхыр	-8856
▁иуеит	-8857
▁наука	-8858
▁нелли	-8859
▁ықәыр	-8860
мыжькәа	-8861
олиуциа	-8862
ҵааратә	-8863
▁аидара	-8864
▁аламиа	-8865
▁амҽхак	-8866
▁бзиала	-8867
▁иаҳҳәо	-8868
▁лакрба	-8869
▁рнырра	-8870
нографиа	-8871
чымазара	-8872
▁агәырӷь	-8873
▁аҩсҭааи	-8874
▁аԥшьаҩы	-8875
▁дыруаӡә	-8876
▁ииашоуп	-8877
▁иҟазшьа	-8878
▁иҵаулоу	-8879
▁комитет	-8880
▁ныҟәара	-8881
▁рыхәҭак	-8882
▁агәылаҵа	-8883
▁аԥхьатәи	-8884
▁ирдыруан	-8885
▁ҟаҳҵалар	-8886
▁ҳабжьара	-8887
▁ахьчаҩцәа	-8888
▁игәазҭана	-8889
▁иҳацхраар	-8890
▁рҩыџьагьы	-8891
▁амшынеиқәа	-8892
▁аҳасабырба	-8893
▁гәдоуҭатәи	-8894
▁цацыԥхьаӡа	-8895
цәаныррақәеи	-8896
▁ицхыраарала	-8897
▁рассоциациа	-8898
▁иаҳнарҵаҵәҟь	-8899
▁асаламшәҟәқәа	-8900
не	-8901
▁v	-8902
шҭа	-8903
▁ӡа	-8904
лышә	-8905
ульт	-8906
қәна	-8907
ҳмыр	-8908
ԥыла	-8909
▁ази	-8910
▁ҳра	-8911
зыԥшы	-8912
иурҭа	-8913
кқәеи	-8914
тациа	-8915
хароу	-8916
џьныр	-8917
ҷҷара	-8918
▁абыс	-8919
▁дуны	-8920
▁ирза	-8921
▁ихыҵ	-8922
▁ссир	-8923
бызшәа	-8924
усҭцәа	-8925
шәозар	-8926
▁еилыл	-8927
▁иалар	-8928
▁иитәу	-8929
▁ирена	-8930
▁ирыду	-8931
▁ирыхь	-8932
▁нинев	-8933
▁рҽыры	-8934
▁ҩажәа	-8935
▁ҳахьы	-8936
емориал	-8937
рацәала	-8938
▁акапан	-8939
▁апункт	-8940
▁араӡны	-8941
▁ахадеи	-8942
▁венесу	-8943
▁даннеи	-8944
▁иакови	-8945
▁илымаз	-8946
▁раамҭа	-8947
▁рыҭира	-8948
ырхаҵара	-8949
ҭагалара	-8950
▁аарԥшла	-8951
▁адыгеиа	-8952
▁ажәлари	-8953
▁аректор	-8954
▁ахьынхо	-8955
▁иашақәа	-8956
▁иҟалаша	-8957
▁иҟашәҵа	-8958
▁иҟашәҵо	-8959
▁хәытаба	-8960
▁шәусура	-8961
цәыцәгьоу	-8962
▁алаҳәара	-8963
▁архитект	-8964
▁арҵаратә	-8965
▁аҵарҭыша	-8966
▁рдоуҳатә	-8967
▁рыҩнуҵҟа	-8968
▁шәрыԥхьа	-8969
▁ахыбрақәа	-8970
▁ишԥасылшо	-8971
▁адгьылбжьа	-8972
▁ахәышәтәыр	-8973
▁ахәыҷбаҳча	-8974
▁аиԥшәымацәа	-8975
▁иазхаҵаҩцәа	-8976
▁иуцхраауеит	-8977
▁адинхаҵаратә	-8978
▁арымарахьала	-8979
▁уаажәларратә	-8980
ги	-8981
▁•	-8982
лыл	-8983
ччо	-8984
шәк	-8985
қәԥ	-8986
▁57	-8987
▁67	-8988
▁86	-8989
▁97	-8990
аным	-8991
боуп	-8992
ович	-8993
шәыз	-8994
қыҭа	-8995
ҵәаз	-8996
▁ахш	-8997
▁лен	-8998
▁фым	-8999
▁қьы	-9000
ангьы	-9001
бгара	-9002
идара	-9003
лихыз	-9004
цәыры	-9005
шьапы	-9006
ҟәаны	-9007
ӡатәи	-9008
▁ахим	-9009
▁ахса	-9010
▁вооз	-9011
▁иҽыр	-9012
▁ықәи	-9013
антцәа	-9014
цәырыз	-9015
қәлара	-9016
ҟалоит	-9017
ҿыхара	-9018
▁абыкь	-9019
▁ацәым	-9020
▁дырра	-9021
▁кьышь	-9022
▁мышкы	-9023
ҳаракра	-9024
ҳәалоит	-9025
ҳәахьаз	-9026
ҿыԥшлар	-9027
▁ахыԥхь	-9028
▁аҟыбаҩ	-9029
▁гәырҩа	-9030
▁дышԥар	-9031
▁иаҭаны	-9032
▁рыҟәша	-9033
ҵахырхәо	-9034
▁аацҳара	-9035
▁аԥшасра	-9036
▁ишиашоу	-9037
▁полуиан	-9038
▁шьақәир	-9039
▁ҳанхоит	-9040
▁академиа	-9041
▁амҳаџьыр	-9042
▁ашьхақәа	-9043
▁балкариа	-9044
▁еизадоуп	-9045
▁иахылҿиа	-9046
▁иаҿагыло	-9047
▁иҟалазеи	-9048
▁лшарақәа	-9049
▁шәеизара	-9050
▁агәырҭынч	-9051
▁аиҿкаареи	-9052
▁анихыҵуаз	-9053
▁аредактор	-9054
▁ашьцылара	-9055
▁иԥхьаӡоит	-9056
▁азыӡырҩцәа	-9057
▁гәаанагара	-9058
▁уизыӡырҩла	-9059
▁ҳахәҭоузеи	-9060
▁ахәмаррақәа	-9061
▁ацәгьоурақәа	-9062
▁рылацәажәара	-9063
▁рыԥсҭазаараҿы	-9064
▁иҳаилнаркаауеит	-9065
ук	-9066
уҩ	-9067
ктә	-9068
ота	-9069
чча	-9070
ҿыр	-9071
ерба	-9072
имаа	-9073
лиеи	-9074
нагӡ	-9075
олиа	-9076
оурц	-9077
џьоу	-9078
ӷьыз	-9079
▁шхы	-9080
мақәа	-9081
ториа	-9082
туеит	-9083
хиеит	-9084
хәмар	-9085
ԥаҳго	-9086
▁дуаҩ	-9087
▁ирбо	-9088
▁иԥыр	-9089
▁напы	-9090
▁узҭо	-9091
▁шәна	-9092
▁џьан	-9093
хагыла	-9094
▁аконф	-9095
▁арбар	-9096
▁аҭакс	-9097
▁еилак	-9098
▁еицла	-9099
▁иахьӡ	-9100
▁иџьоу	-9101
▁ҳалал	-9102
ларҟәра	-9103
шьҭанеи	-9104
▁амедал	-9105
▁амзазы	-9106
▁анацәа	-9107
▁афронт	-9108
▁ахраҿа	-9109
▁ахҟьар	-9110
▁ахҳәаа	-9111
▁ашьара	-9112
▁аӷацәа	-9113
▁еилырг	-9114
▁идемон	-9115
▁иосифи	-9116
▁ирылшо	-9117
▁иудеиа	-9118
▁ихыҵра	-9119
▁маӡала	-9120
▁притчи	-9121
▁рҭахын	-9122
▁ҟаиҵон	-9123
уааԥсыра	-9124
▁алахьеи	-9125
▁аҟәышра	-9126
▁есааира	-9127
▁инапаҿы	-9128
▁ихаҭара	-9129
цәажәашьа	-9130
▁аиашареи	-9131
▁далахәын	-9132
▁дрызхәыц	-9133
▁иаанхеит	-9134
▁ҳажәақәа	-9135
▁аадырԥшит	-9136
▁аазырԥшыз	-9137
▁адырҩаҽны	-9138
▁иаирхәоит	-9139
▁ҟәыӷарала	-9140
▁ҳазхәыцып	-9141
▁ҳаџьымбеи	-9142
шьақәгылара	-9143
▁анаԥхгареи	-9144
▁араионқәеи	-9145
▁арыцҳарақәа	-9146
▁зҿлымҳарала	-9147
▁иазгәарҭоит	-9148
▁иацхраауеит	-9149
▁хыркәшахеит	-9150
▁ҳаназхәыцуа	-9151
▁аҭҵаарадырра	-9152
▁рықәыргылара	-9153
нд	-9154
ибы	-9155
кым	-9156
пас	-9157
чба	-9158
▁2.	-9159
▁63	-9160
▁68	-9161
▁xx	-9162
▁ҳҽ	-9163
емец	-9164
итаи	-9165
кттә	-9166
озит	-9167
ԥсыҽ	-9168
▁vii	-9169
▁аир	-9170
▁дәы	-9171
▁хац	-9172
▁ҳаҽ	-9173
▁ҳҿы	-9174
дгыло	-9175
енгиз	-9176
▁ааит	-9177
▁аруб	-9178
▁злар	-9179
▁зтәу	-9180
▁иацы	-9181
▁илоу	-9182
▁иԥха	-9183
▁теле	-9184
гәыбзы	-9185
дыԥхьа	-9186
лалара	-9187
ристтә	-9188
ӡамкәа	-9189
▁алаԥш	-9190
▁амлак	-9191
▁ахәша	-9192
▁ақьаа	-9193
▁иаары	-9194
▁игәам	-9195
▁илахь	-9196
▁инаҳа	-9197
▁итәуп	-9198
▁иузым	-9199
▁чачха	-9200
▁ҳашԥа	-9201
ыԥныҳәа	-9202
ҭагылоу	-9203
ҭаххоит	-9204
▁абхази	-9205
▁аразҟы	-9206
▁иалҵыз	-9207
▁игылаз	-9208
▁избоит	-9209
▁имаҷны	-9210
▁имаӡоу	-9211
▁иоуеит	-9212
▁ртәыла	-9213
▁аалырԥш	-9214
▁ажәҩана	-9215
▁аҽҳәара	-9216
▁материа	-9217
▁уажәтәи	-9218
▁ажәылара	-9219
▁гагратәи	-9220
▁иалалеит	-9221
▁нормақәа	-9222
▁реизгара	-9223
▁ҟанаҵеит	-9224
▁аарԥшраҿы	-9225
▁акылҵәара	-9226
▁аԥхьаҩцәа	-9227
▁молдавтәи	-9228
▁аиубилеитә	-9229
▁асексуалтә	-9230
▁самариатәи	-9231
▁инадҳәаланы	-9232
▁меигӡарахда	-9233
▁арбџьармчқәа	-9234
▁рымҩаԥгаразы	-9235
16	-9236
er	-9237
вы	-9238
огр	-9239
хҿы	-9240
ҩуа	-9241
ҳҭа	-9242
ерти	-9243
жәеи	-9244
кциа	-9245
рсҭа	-9246
тери	-9247
ҳабы	-9248
ҵатә	-9249
ԥхаз	-9250
▁125	-9251
▁дуи	-9252
▁лых	-9253
▁ҳиа	-9254
агара	-9255
анизм	-9256
галак	-9257
екциа	-9258
хыхра	-9259
ҭозар	-9260
▁аара	-9261
▁абду	-9262
▁аныс	-9263
▁ахир	-9264
▁аҽаз	-9265
▁гиви	-9266
▁дзеи	-9267
▁зиҭо	-9268
▁зхыз	-9269
▁иааг	-9270
▁итра	-9271
▁ицоз	-9272
▁ухьӡ	-9273
▁қарҭ	-9274
▁ԥсыҽ	-9275
дгьыли	-9276
зылбаа	-9277
мазарц	-9278
мҵақьа	-9279
рыцқьа	-9280
цәгьан	-9281
шарыла	-9282
қьареи	-9283
▁вифле	-9284
▁иахьи	-9285
▁ихада	-9286
▁ишәым	-9287
▁раион	-9288
гыларҭа	-9289
опортал	-9290
хәмарра	-9291
шәҳәала	-9292
▁ихынҳә	-9293
▁иҵегьы	-9294
зылԥхоит	-9295
цәажәарц	-9296
▁абацәеи	-9297
▁аппарат	-9298
▁гәырӷьа	-9299
▁иажәахә	-9300
▁ибзиоуп	-9301
▁франциа	-9302
▁академик	-9303
▁акомитет	-9304
▁анаукатә	-9305
▁аҳәсақәа	-9306
▁аӡәымзар	-9307
▁гәымшәар	-9308
▁изакәытә	-9309
▁иҟалозеи	-9310
▁ракзаара	-9311
▁рацәаҩны	-9312
▁шынаигӡо	-9313
▁макьаназы	-9314
▁нарыгӡоит	-9315
▁политикеи	-9316
▁рхаҭарнак	-9317
▁абиԥарақәа	-9318
▁азгәарҭоит	-9319
▁аибашьратә	-9320
▁анапхгареи	-9321
▁асасааирҭа	-9322
▁атеатралтә	-9323
▁иманшәалоу	-9324
▁ишәасҳәоит	-9325
▁ҳаԥсадгьыл	-9326
▁агәаҟрақәеи	-9327
▁аинфопортал	-9328
▁афарисеицәа	-9329
▁ирыдыркылаз	-9330
▁аушьҭымҭацәа	-9331
▁аҳаҭырқәҵара	-9332
▁дрылацәажәеит	-9333
▁изаамҭанытәиу	-9334
▁ишьақәыргылоу	-9335
▁агәаанагарақәа	-9336
▁приднестровтәи	-9337
етр	-9338
мго	-9339
осу	-9340
тие	-9341
▁3.	-9342
▁bh	-9343
▁ви	-9344
анаҭ	-9345
ость	-9346
▁600	-9347
▁асо	-9348
▁бзы	-9349
▁зыҽ	-9350
▁иос	-9351
▁лус	-9352
▁сав	-9353
газар	-9354
жьреи	-9355
наара	-9356
▁амик	-9357
▁анау	-9358
▁гәҭы	-9359
▁иҭан	-9360
▁оглы	-9361
▁ҟрым	-9362
▁ҳҽыр	-9363
гәаԥхо	-9364
иҭакра	-9365
лаанӡа	-9366
рыжьит	-9367
ҵатәуп	-9368
▁агәыӷ	-9369
▁ацәеи	-9370
▁аҵоуп	-9371
▁излаҳ	-9372
▁ихара	-9373
▁ихшаа	-9374
▁рҽазы	-9375
▁уимоу	-9376
▁уҽазы	-9377
▁хҭыск	-9378
▁ҳазла	-9379
▁ԥыхьа	-9380
фикациа	-9381
хынҳәит	-9382
▁абибли	-9383
▁ахадас	-9384
▁иаҭааз	-9385
▁иаԥхьа	-9386
▁инаӡаз	-9387
▁ишьҭра	-9388
▁лҳәоит	-9389
▁ростов	-9390
▁ҿырԥшу	-9391
лымкаауа	-9392
хәҭоузеи	-9393
▁адырреи	-9394
▁алалара	-9395
▁анаҳҳәо	-9396
▁уадаҩуп	-9397
▁уалԥшьа	-9398
▁уҭаацәа	-9399
▁акзаареи	-9400
▁аллаҳгьы	-9401
▁иахьыҟоу	-9402
▁иаҳәозеи	-9403
▁аныԥшуеит	-9404
▁ақәгылара	-9405
▁зеиӷьаҟам	-9406
▁џьопуаԥҳа	-9407
▁арыӷьарахь	-9408
▁есымчыбжьа	-9409
▁иазгәарҭеит	-9410
▁угәрахаҵара	-9411
▁афилологиатә	-9412
▁дҳацхраауеит	-9413
▁маҭәашьарқәа	-9414
ҳк	-9415
зор	-9416
ная	-9417
хыӡ	-9418
хәр	-9419
ыша	-9420
▁rs	-9421
▁ҳм	-9422
вара	-9423
гӡон	-9424
илир	-9425
пату	-9426
тина	-9427
цәаа	-9428
ҟало	-9429
ҟәры	-9430
ҿырҭ	-9431
▁рҭи	-9432
▁ҳшы	-9433
аркьа	-9434
струм	-9435
уразы	-9436
федра	-9437
шьҭар	-9438
ԥшьба	-9439
▁2010	-9440
▁ганк	-9441
▁досу	-9442
▁идуу	-9443
▁илшо	-9444
▁омар	-9445
▁џьум	-9446
мамкәа	-9447
хьынҵа	-9448
ҭаразы	-9449
▁адемо	-9450
▁акрыр	-9451
▁анықә	-9452
▁аҟьар	-9453
▁аҭахы	-9454
▁аҭаца	-9455
▁аԥҟар	-9456
▁гарри	-9457
▁ирана	-9458
▁крист	-9459
▁медал	-9460
▁навал	-9461
▁рханы	-9462
нахуеит	-9463
цхраала	-9464
▁аарԥшы	-9465
▁аерман	-9466
▁амҩала	-9467
▁аокруг	-9468
▁есымза	-9469
▁жәаҩык	-9470
▁зыҽӡаа	-9471
▁иаабац	-9472
▁икьаҿу	-9473
▁имазар	-9474
▁иразра	-9475
▁карате	-9476
▁ракәны	-9477
▁раҵкыс	-9478
▁рыхшыҩ	-9479
▁ҭаацәа	-9480
гәыӷуеит	-9481
дициақәа	-9482
фициалла	-9483
ԥхашьара	-9484
▁акаԥсар	-9485
▁анацәеи	-9486
▁аҵлақәа	-9487
▁бжьаниа	-9488
▁вифлеем	-9489
▁уразҵаа	-9490
▁ҭагалан	-9491
▁инеиуеит	-9492
еитралитет	-9493
уадаҩрақәа	-9494
▁иаҳҳәозар	-9495
▁ихшаазаҵә	-9496
▁аиҿкааразы	-9497
▁акомпиутер	-9498
▁идемонцәеи	-9499
▁рыхьчаразы	-9500
▁шықәсазтәи	-9501
▁агәалашәара	-9502
▁асахьаҭыхҩы	-9503
▁шьақәзырӷәӷәо	-9504
▁иаҳгәалаҳаршәап	-9505
бом	-9506
виа	-9507
гмы	-9508
тар	-9509
ход	-9510
▁59	-9511
▁bp	-9512
▁кы	-9513
▁оз	-9514
илов	-9515
иран	-9516
иҟәы	-9517
сура	-9518
сқәа	-9519
шьоз	-9520
шәҟә	-9521
шәҵо	-9522
ҟаны	-9523
ӷьуп	-9524
▁ашы	-9525
▁кап	-9526
▁рка	-9527
ариеи	-9528
цҳаит	-9529
▁2000	-9530
▁алаб	-9531
▁анри	-9532
▁аопп	-9533
▁ахор	-9534
▁егьа	-9535
▁урыс	-9536
зеиҭаҳ	-9537
ихшара	-9538
хәалар	-9539
цырцыр	-9540
ԥшаауа	-9541
▁аҟәеи	-9542
▁аҭаху	-9543
▁иагәы	-9544
▁рызҭо	-9545
▁шәзыр	-9546
▁ҳазбо	-9547
▁алагер	-9548
▁анемец	-9549
▁аԥҵәар	-9550
▁елисеи	-9551
▁ихатәы	-9552
▁иҟоума	-9553
▁иҭынха	-9554
▁раахыс	-9555
▁шиашоу	-9556
уеижьҭеи	-9557
▁акакәны	-9558
▁ахьыҟаз	-9559
▁аҩнуҵҟа	-9560
▁бызшәак	-9561
▁дырҩегь	-9562
▁иҟарҵоз	-9563
▁рԥылара	-9564
▁ԥсшьара	-9565
дыруамызт	-9566
▁агәырӷьа	-9567
▁аусдкыла	-9568
▁ахәыцшьа	-9569
▁ацәырҵра	-9570
▁аҿаҭахьа	-9571
▁инхаларц	-9572
банызаалак	-9573
▁агәнаҳара	-9574
▁аилыргара	-9575
▁аҭахрақәа	-9576
▁аԥстәқәеи	-9577
▁имариамыз	-9578
▁иқәгылара	-9579
▁иааирԥшуаз	-9580
▁реидкылара	-9581
▁рыларҵәара	-9582
▁алахәхаразы	-9583
▁апорнографиа	-9584
▁закәандарала	-9585
▁шьақәырӷәӷәа	-9586
▁аҵараиурҭақәа	-9587
▁ҳпубликациақәа	-9588
▁авидеонҵамҭақәа	-9589
ля	-9590
ср	-9591
наҳ	-9592
ҭаҩ	-9593
▁ԥи	-9594
гама	-9595
жәыр	-9596
ихыр	-9597
лашь	-9598
маԥа	-9599
наҵы	-9600
тәоу	-9601
ԥҽра	-9602
▁аӷә	-9603
▁бел	-9604
▁рзу	-9605
дырит	-9606
кәаны	-9607
лымҳа	-9608
мҭоуп	-9609
хазеи	-9610
ххара	-9611
цәшәа	-9612
шьбеи	-9613
ҳәырц	-9614
▁атур	-9615
▁дҭар	-9616
▁иеил	-9617
▁ихьч	-9618
▁наву	-9619
▁стор	-9620
▁авиде	-9621
▁адиск	-9622
▁амаӡа	-9623
▁бебиа	-9624
▁дырны	-9625
▁иахым	-9626
▁иибоз	-9627
▁ииҩыз	-9628
▁мчқәа	-9629
▁рҽала	-9630
▁усхкы	-9631
▁хьшәа	-9632
▁ҳазҭо	-9633
▁ҳамоу	-9634
▁ҳамҩа	-9635
▁ԥшьба	-9636
накылаз	-9637
шьақәир	-9638
шьыгатә	-9639
ӷәӷәарц	-9640
▁абжьаа	-9641
▁амҩатә	-9642
▁арадио	-9643
▁иламыс	-9644
▁ирыман	-9645
▁иҽӡааи	-9646
▁иԥсахы	-9647
▁раиура	-9648
▁рԥеиԥш	-9649
▁самсон	-9650
▁шамаха	-9651
зырҳареи	-9652
▁амҩаԥга	-9653
▁аҵасқәа	-9654
▁зыҽӡааз	-9655
▁иаҳзыҟа	-9656
▁идиҵеит	-9657
▁ишиҭаху	-9658
▁ишԥалшо	-9659
▁хабарда	-9660
▁хәарҭоу	-9661
▁ҩызцәас	-9662
▁ҳамҭоуп	-9663
▁ԥышәара	-9664
мадарақәа	-9665
ҳәалароуп	-9666
▁арубрика	-9667
▁арӷәӷәар	-9668
▁аԥҳәызба	-9669
▁диԥылеит	-9670
▁еилҳарго	-9671
▁иадырхәо	-9672
▁ирзеиԥшу	-9673
▁иҟашәҵар	-9674
▁рхадацәа	-9675
▁тҟәарчал	-9676
▁ҳахәҭоуп	-9677
▁ԥҟарақәа	-9678
ԥырхагахар	-9679
▁ахәҭаҷқәа	-9680
▁игәаҵанӡа	-9681
▁иқәгылеит	-9682
▁ҳрыцхраар	-9683
▁америкатәи	-9684
▁анапаҵыҩра	-9685
▁ахақәиҭреи	-9686
▁жәҩантәыла	-9687
▁иӷәӷәахоит	-9688
▁иԥааимбари	-9689
▁амашьынақәа	-9690
▁гәымшәарыла	-9691
▁хәышәтәырҭа	-9692
▁аилацәажәара	-9693
▁аҳәатәхаҵара	-9694
▁еиҿкаарақәеи	-9695
▁анаԥхгараҭара	-9696
▁аҭҵаарадырреи	-9697
быж	-9698
кон	-9699
кур	-9700
хур	-9701
чиа	-9702
шыр	-9703
ҵап	-9704
▁73	-9705
▁74	-9706
▁до	-9707
гага	-9708
кьоу	-9709
ыхәо	-9710
қьра	-9711
ҟәуа	-9712
▁ааҳ	-9713
▁зҽы	-9714
▁оби	-9715
▁рев	-9716
▁саз	-9717
атриа	-9718
ҭҵааҩ	-9719
ҵаҩра	-9720
▁ацик	-9721
▁ашар	-9722
▁гект	-9723
▁дави	-9724
▁дшаз	-9725
▁зцәа	-9726
▁идуӡ	-9727
▁маан	-9728
▁сани	-9729
▁ҳхаҳ	-9730
барҭеи	-9731
шәаԥшь	-9732
ҭахызи	-9733
▁ахәар	-9734
▁далыр	-9735
▁данры	-9736
▁дахьи	-9737
▁залшо	-9738
▁измаз	-9739
▁иосиа	-9740
▁иԥсҭа	-9741
▁леиԥш	-9742
▁путин	-9743
▁ҳхаҭа	-9744
бааԥсра	-9745
кәашара	-9746
кәаҳара	-9747
лымӡаах	-9748
мақарра	-9749
▁аидеиа	-9750
▁аусхкы	-9751
▁ашәуаа	-9752
▁ақьаад	-9753
▁бигәаа	-9754
▁иашахь	-9755
▁ииҭоит	-9756
▁какоба	-9757
▁нарҭаа	-9758
▁семион	-9759
▁уназго	-9760
▁ҟарҵон	-9761
▁ҭенгиз	-9762
▁ҳусқәа	-9763
елегациа	-9764
лиркааит	-9765
▁аихамҩа	-9766
▁атҟәара	-9767
▁еиқәдыр	-9768
▁зҵаароу	-9769
▁ичмазаҩ	-9770
▁мызқәак	-9771
▁мышқәак	-9772
▁шьаҟрыл	-9773
зыӡырҩлар	-9774
наҳарақәа	-9775
▁афактқәа	-9776
▁аӡиасқәа	-9777
▁иабантәа	-9778
▁рыҭаразы	-9779
▁хылаԥшра	-9780
▁ҳхәыцшьа	-9781
▁алахәхара	-9782
▁уазыӡырҩы	-9783
▁акатегориа	-9784
▁рыбзиабара	-9785
▁ҳабзиабара	-9786
▁аарыцҳауеит	-9787
▁агәышьҭыхра	-9788
▁аиҿцәажәара	-9789
▁аперспектива	-9790
▁административтә	-9791
лт	-9792
▁~	-9793
жим	-9794
урт	-9795
▁93	-9796
▁94	-9797
▁96	-9798
авит	-9799
ирха	-9800
кьаҭ	-9801
тәар	-9802
џьиа	-9803
ҟаҵа	-9804
ҭәба	-9805
ԥхон	-9806
▁аӷь	-9807
▁вер	-9808
▁ишу	-9809
▁рма	-9810
ликаа	-9811
ызгьы	-9812
ҟароу	-9813
ҟақәа	-9814
ҳалар	-9815
▁аатр	-9816
▁ажьы	-9817
▁азиз	-9818
▁ацын	-9819
▁ачыс	-9820
▁аҟар	-9821
▁ирод	-9822
▁уаан	-9823
▁ҳшыр	-9824
гаанӡа	-9825
гараны	-9826
илициа	-9827
истцәа	-9828
шьартә	-9829
ӷәӷәеи	-9830
▁акәша	-9831
▁аԥшра	-9832
▁дагьа	-9833
▁енвер	-9834
▁излеи	-9835
▁михеи	-9836
▁рыпро	-9837
арҭақәа	-9838
мызҭгьы	-9839
хынҳәуа	-9840
шаҳаҭым	-9841
қәымшәо	-9842
ӡәӡәара	-9843
▁адамра	-9844
▁ашьшьы	-9845
▁иуҳәар	-9846
▁рзеиԥш	-9847
дгалатәу	-9848
ԥсахуеит	-9849
▁аиҭакра	-9850
▁ахьыҟам	-9851
▁ахәылбы	-9852
▁аҭаразы	-9853
▁аӷьычра	-9854
▁бзазара	-9855
▁иаашәыр	-9856
▁мчрақәа	-9857
▁наӡааӡо	-9858
▁риҵатәи	-9859
▁адаҟьаҿы	-9860
▁чымазара	-9861
▁шрыхәҭоу	-9862
▁абызшәала	-9863
▁атәамбара	-9864
▁бызшәақәа	-9865
▁иадырхәон	-9866
▁иашаҵәҟьа	-9867
▁ирацәаҩны	-9868
▁ихаҭарнак	-9869
▁шәҭахызар	-9870
▁аиқәԥаразы	-9871
▁аиҩызаратә	-9872
▁арӷәӷәареи	-9873
▁гәрахаҵара	-9874
▁еилаҳкаарц	-9875
▁иаҳдырбоит	-9876
▁иџьашьахәу	-9877
▁мҩаԥыргеит	-9878
▁рышьҭаҵара	-9879
▁шәҽацәышәы	-9880
▁ахырхарҭала	-9881
▁аԥхьаԥшьаҩы	-9882
▁реиқәырхара	-9883
▁рҿырԥштәқәа	-9884
▁ҳҭагылазаашьа	-9885
▁аҭҵаарадыррақәа	-9886
▁ишәзеиӷьасшьоит	-9887
17	-9888
ib	-9889
▁o	-9890
бри	-9891
иго	-9892
ино	-9893
мед	-9894
аран	-9895
арда	-9896
езон	-9897
иҭеи	-9898
нҭыҵ	-9899
уцәа	-9900
цәыс	-9901
ҳхуа	-9902
ӷьыч	-9903
ԥсра	-9904
▁дад	-9905
▁рос	-9906
▁тур	-9907
▁ԥна	-9908
балар	-9909
гылап	-9910
скьын	-9911
струк	-9912
фымца	-9913
ххоит	-9914
хәаны	-9915
шьҭын	-9916
ҭазар	-9917
ҭаххо	-9918
▁алак	-9919
▁арԥш	-9920
▁ахыс	-9921
▁гәын	-9922
▁ӡбоу	-9923
хьарԥш	-9924
▁авока	-9925
▁агәка	-9926
▁аилыр	-9927
▁алеко	-9928
▁ахала	-9929
▁ахҵәа	-9930
▁ахәшә	-9931
▁бытие	-9932
▁иабду	-9933
▁иибаз	-9934
▁илаԥш	-9935
▁ироуа	-9936
▁ирцәы	-9937
▁ишану	-9938
▁мзызс	-9939
▁рылшо	-9940
▁шәаны	-9941
▁ҳәаны	-9942
ҳәахьан	-9943
ԥшаатәу	-9944
▁ажәала	-9945
▁акәхап	-9946
▁иаамҭа	-9947
▁иваҟәы	-9948
▁иҟаӡам	-9949
▁логәуа	-9950
▁рышкол	-9951
▁турнир	-9952
▁уазҵаа	-9953
▁усзуҩы	-9954
▁ҭыжәба	-9955
вагыланы	-9956
каауазеи	-9957
хылаԥшуа	-9958
қәҵаратә	-9959
▁азгәаҭа	-9960
▁амитинг	-9961
▁аныҟало	-9962
▁аԥсаатә	-9963
▁еиҭагоу	-9964
▁иабантә	-9965
▁ирызкыз	-9966
▁ишәылшо	-9967
▁рбызшәа	-9968
▁рыӡбеит	-9969
▁ыҟамызт	-9970
▁ҭыԥқәак	-9971
олитикатә	-9972
▁аҭакқәеи	-9973
▁еилыркаа	-9974
▁ирылшоит	-9975
▁иҽеимкәа	-9976
▁ражәақәа	-9977
▁рзинқәеи	-9978
▁рыԥшаҳәа	-9979
▁цәеижьла	-9980
қәныҟәалар	-9981
▁аиҩызареи	-9982
▁иақәшаҳаҭ	-9983
▁иаԥырхага	-9984
▁имҩаԥнаго	-9985
▁иԥсадгьыл	-9986
▁никарагуа	-9987
▁реимадара	-9988
▁аевангелие	-9989
▁аррамаҵура	-9990
▁библиотека	-9991
▁дықәгылеит	-9992
▁еилыркааит	-9993
▁ихылҵшьҭра	-9994
▁рзаанагоит	-9995
▁хәмаррақәа	-9996
▁ааннакылеит	-9997
▁аларҵәаразы	-9998
▁ахаҭабзиара	-9999
▁рыцхыраарала	-10000
▁уаԥстәылатәи	-10001
▁ҭакԥхықәрала	-10002
▁аҽазышәарақәа	-10003
▁ахыԥхьаӡарақәа	-10004
лер	-10005
орм	-10006
род	-10007
туа	-10008
цед	-10009
▁83	-10010
▁зз	-10011
▁кв	-10012
▁ух	-10013
▁фы	-10014
▁ҳу	-10015
гәыш	-10016
енти	-10017
знеи	-10018
ници	-10019
хнак	-10020
цқәа	-10021
ҳәеи	-10022
ԥшьы	-10023
▁127	-10024
▁аид	-10025
▁гра	-10026
▁еим	-10027
▁мал	-10028
▁тор	-10029
▁угә	-10030
▁чыс	-10031
▁шаз	-10032
▁ҿыр	-10033
дақәа	-10034
кразы	-10035
тәреи	-10036
қәхра	-10037
▁1919	-10038
▁1989	-10039
▁абан	-10040
▁адек	-10041
▁аныл	-10042
▁апла	-10043
▁ачеи	-10044
▁ақьы	-10045
▁иаҵа	-10046
▁насы	-10047
▁пред	-10048
▁шьап	-10049
▁шәиа	-10050
изгара	-10051
уардын	-10052
шьозар	-10053
шәарҭа	-10054
қәызҵо	-10055
▁аатит	-10056
▁ашьац	-10057
▁донец	-10058
▁есқьы	-10059
▁ешыра	-10060
▁иҳәаз	-10061
▁рбаҟа	-10062
▁форма	-10063
▁ҳшибо	-10064
кааразы	-10065
ӡарақәа	-10066
▁актиор	-10067
▁аразра	-10068
▁аҭаҭын	-10069
▁дрыцҳа	-10070
▁заанаҵ	-10071
▁иатәыз	-10072
▁ирыцҳа	-10073
▁иуҭаху	-10074
▁напыла	-10075
▁рацәан	-10076
▁реизга	-10077
▁цқьаны	-10078
▁шракәу	-10079
▁шьарда	-10080
▁ҟаиҵар	-10081
▁ауасиаҭ	-10082
▁аҟынгьы	-10083
▁дазхиан	-10084
▁жәлартә	-10085
▁иалагаз	-10086
▁игылоуп	-10087
▁интерес	-10088
▁ишәарҭа	-10089
▁рыламыс	-10090
▁хҭысқәа	-10091
зымдыруаз	-10092
хәыцрақәа	-10093
▁амобилтә	-10094
▁аҿарацәа	-10095
▁занашьоу	-10096
▁лабжьара	-10097
▁шҳахәҭоу	-10098
▁шәшьуеит	-10099
▁џьанаҭны	-10100
ҭаацәаратә	-10101
▁абжьаҵара	-10102
▁адгьылқәа	-10103
▁амҩадуқәа	-10104
▁арепатриа	-10105
▁аԥхьахәтә	-10106
▁еилаҳкаар	-10107
▁ирыдиҵеит	-10108
▁ргәырҽани	-10109
▁ҭаацәарак	-10110
▁амаҵураҭыԥ	-10111
▁апионерцәа	-10112
▁аструктура	-10113
▁ахәаԥшышьа	-10114
▁ацхыраагӡа	-10115
▁игәабзиара	-10116
▁ркультуреи	-10117
▁русумҭақәа	-10118
▁ахақәиҭтәра	-10119
▁ақьырсианра	-10120
▁еиднакылоит	-10121
▁иааидкыланы	-10122
▁исгәалашәоит	-10123
▁ишьақәгылоуп	-10124
▁шхымԥадатәиу	-10125
шьақәыргылареи	-10126
▁еилышәкаауеит	-10127
▁игәаԥхашәадоу	-10128
▁ишыҟазаалакгьы	-10129
08	-10130
4-	-10131
ry	-10132
ив	-10133
гыр	-10134
лет	-10135
тик	-10136
уло	-10137
хша	-10138
цаҩ	-10139
ҵәр	-10140
▁78	-10141
арҭә	-10142
мчра	-10143
удиа	-10144
урҵо	-10145
▁гог	-10146
▁зҿа	-10147
▁син	-10148
▁сур	-10149
▁хыҵ	-10150
▁ҟау	-10151
акыра	-10152
аршҩы	-10153
икцәа	-10154
хазҵо	-10155
ҟоума	-10156
ҭыԥан	-10157
ҵыкәа	-10158
▁ачар	-10159
▁аҟьа	-10160
▁аҭеи	-10161
▁вахт	-10162
▁изых	-10163
▁иорк	-10164
▁ихьа	-10165
▁лакә	-10166
▁нҵәа	-10167
▁шәаб	-10168
андарт	-10169
жьхоит	-10170
ниципа	-10171
хынҳәы	-10172
хәыцра	-10173
хәыцуа	-10174
▁аарон	-10175
▁абокс	-10176
▁ахьтә	-10177
▁ақәра	-10178
▁аҭира	-10179
▁зманы	-10180
▁иаҳза	-10181
▁ибаҟа	-10182
▁илбаа	-10183
▁иџьар	-10184
▁темур	-10185
мҭақәеи	-10186
уадаҩра	-10187
ҵарақәа	-10188
▁аиҭеит	-10189
▁ампыҵа	-10190
▁англиа	-10191
▁дамоуп	-10192
▁еилаки	-10193
▁илшеит	-10194
▁ирҭаху	-10195
▁наӡала	-10196
▁рықәыр	-10197
▁сторож	-10198
▁шҳамоу	-10199
▁џьапуа	-10200
▁ҩаӡара	-10201
▁азинмчы	-10202
▁акоммер	-10203
▁акорруп	-10204
▁аныҟала	-10205
▁ашьыцра	-10206
▁зыхҟьаз	-10207
▁иазалху	-10208
▁излаҳәо	-10209
▁иреиуаз	-10210
▁ихәарҭа	-10211
▁рыбжьар	-10212
▁рыҽӡаар	-10213
арԥшлатәу	-10214
▁абжьысра	-10215
▁адоуҳала	-10216
▁ашәаҳәаҩ	-10217
▁иисусгьы	-10218
▁иуасақәа	-10219
▁иусуратә	-10220
▁наукақәа	-10221
▁руалԥшьа	-10222
▁рыҿиареи	-10223
еографиатә	-10224
▁ақәыӡбара	-10225
▁еиқәыршәа	-10226
▁иаанагома	-10227
▁иуцхраауа	-10228
▁коллектив	-10229
▁сосналиев	-10230
▁иҽазишәоит	-10231
▁рфедерациа	-10232
▁шамахамзар	-10233
▁агәынамӡара	-10234
▁аиҭанеиразы	-10235
▁ирыбжьарҵаз	-10236
▁рнаԥхгаҩцәа	-10237
▁агәырӷьаратә	-10238
▁изаамҭанытәу	-10239
▁раԥхьаӡакәны	-10240
▁реизыҟазаашьа	-10241
ош	-10242
см	-10243
дры	-10244
соу	-10245
ҭом	-10246
ҿеи	-10247
ԥшр	-10248
▁95	-10249
▁уд	-10250
▁эк	-10251
жәбо	-10252
изит	-10253
ские	-10254
ҵаҿы	-10255
▁бӷа	-10256
▁имц	-10257
▁иҩа	-10258
▁лав	-10259
▁ниу	-10260
▁сыш	-10261
▁усу	-10262
▁уқә	-10263
алара	-10264
еиԥшу	-10265
ерцәа	-10266
зыман	-10267
иаԥҳа	-10268
имыжь	-10269
иҿкаа	-10270
мӡара	-10271
олькл	-10272
хкқәа	-10273
ҳалак	-10274
▁арев	-10275
▁ахыб	-10276
▁ахәҭ	-10277
▁иаса	-10278
▁иком	-10279
▁ицон	-10280
▁осиа	-10281
зеиҭеи	-10282
иагара	-10283
мызгьы	-10284
хәымга	-10285
қәыӡба	-10286
▁агәыл	-10287
▁азгьы	-10288
▁алзыр	-10289
▁аруаҩ	-10290
▁ауҭра	-10291
▁аџьам	-10292
▁аџьба	-10293
▁аԥсыԥ	-10294
▁иарба	-10295
▁ироль	-10296
▁ишибо	-10297
▁риҭон	-10298
▁усгьы	-10299
▁хаҵак	-10300
▁ҳәоуп	-10301
лаҳкааз	-10302
тәымкәа	-10303
хыркәша	-10304
циақәеи	-10305
▁ацәаҳә	-10306
▁аҭауад	-10307
▁даҟәыҵ	-10308
▁зҳарҵо	-10309
▁иалхра	-10310
▁ианакә	-10311
▁инеиуа	-10312
▁ишҳәаз	-10313
иргылеит	-10314
усҭцәада	-10315
ԥсахлара	-10316
▁арҿиара	-10317
▁аҭахӡам	-10318
▁вахтанг	-10319
▁далгеит	-10320
▁иаԥырха	-10321
▁иҟарҵар	-10322
▁лабҿаба	-10323
▁ҳаизара	-10324
ӷьаишьеит	-10325
▁ачемпион	-10326
▁усзуҩцәа	-10327
▁чачхалиа	-10328
▁ҳдоуҳатә	-10329
▁ԥыхьатәи	-10330
▁актиорцәа	-10331
▁аҳаирплан	-10332
▁аҵыхәанӡа	-10333
▁шыҟаҵатәу	-10334
▁ааникылеит	-10335
▁иганахьала	-10336
▁иузааигәоу	-10337
▁агәырҭынчра	-10338
▁еиқәыршәоуп	-10339
▁игәалашәоит	-10340
▁иаартыҵәҟьаны	-10341
13	-10342
ыӷ	-10343
ҷу	-10344
зза	-10345
уал	-10346
хак	-10347
џьи	-10348
ҽыӷ	-10349
▁бе	-10350
▁ку	-10351
▁ҟә	-10352
анал	-10353
казы	-10354
нала	-10355
ореи	-10356
сттә	-10357
тәла	-10358
члиа	-10359
қьан	-10360
ҵәах	-10361
ӡахы	-10362
▁амҷ	-10363
▁дих	-10364
▁ирҽ	-10365
▁сза	-10366
▁қап	-10367
андаз	-10368
дырҵо	-10369
жьуам	-10370
ибоит	-10371
кульп	-10372
хазар	-10373
чҳауа	-10374
ҭцәоу	-10375
ҽаныз	-10376
▁ацха	-10377
▁аҵеи	-10378
▁аҿыр	-10379
▁иери	-10380
▁имам	-10381
▁ицеи	-10382
▁наур	-10383
ергети	-10384
зыразу	-10385
ҵахьаз	-10386
▁амина	-10387
▁ахьар	-10388
▁бӷьыц	-10389
▁иныҟә	-10390
▁иоиль	-10391
▁иузаа	-10392
▁иузеи	-10393
▁рзура	-10394
▁сааҭк	-10395
▁сасра	-10396
▁сыԥсы	-10397
▁шәықә	-10398
еишьеит	-10399
ӷәӷәала	-10400
ӷәӷәаны	-10401
▁акомпл	-10402
▁астенд	-10403
▁аҭынха	-10404
▁аҭыҵра	-10405
▁аҳәынҭ	-10406
▁дышреи	-10407
▁италиа	-10408
▁хынраа	-10409
▁шьҭаҵа	-10410
▁ҭанаҵы	-10411
анкылара	-10412
ҟаҵаратә	-10413
▁акласси	-10414
▁аҭахума	-10415
▁аӡырҩра	-10416
▁захәҭоу	-10417
▁изинқәа	-10418
▁руаӡәык	-10419
▁узаазго	-10420
▁шәазҵаа	-10421
ҭынхацәеи	-10422
▁амилициа	-10423
▁амцҳәара	-10424
▁асценаҿы	-10425
▁бжьаратә	-10426
▁иабжьгаҩ	-10427
▁иациҵоит	-10428
▁ирылшома	-10429
▁иҵабыргу	-10430
▁кобахьиа	-10431
▁рыҭҵаара	-10432
▁хеидкыла	-10433
▁абжьааԥны	-10434
▁ахадарахь	-10435
▁еизҳауеит	-10436
▁ишыҟоугьы	-10437
▁иҩызахара	-10438
▁аекологиеи	-10439
▁ахәаԥшразы	-10440
▁вавилонтәи	-10441
▁традициала	-10442
▁аделегатцәа	-10443
▁аекспозициа	-10444
▁аԥхьагылара	-10445
▁ааҳарԥшуазар	-10446
▁агәрахаҵареи	-10447
▁азинхьчаратә	-10448
▁қырҭтәылатәи	-10449
▁ишәыцхраауеит	-10450
▁иорганизациаҿы	-10451
▁игәымбылџьбароу	-10452
▁илахьеиқәҵагоуп	-10453
ro	-10454
ԥо	-10455
▁p	-10456
лоп	-10457
теи	-10458
ылу	-10459
▁84	-10460
▁ле	-10461
илат	-10462
иқәа	-10463
ланд	-10464
олик	-10465
стер	-10466
ҭбаа	-10467
▁пат	-10468
▁уро	-10469
▁шәҽ	-10470
ижьуа	-10471
иԥшым	-10472
кылан	-10473
скаиа	-10474
фавит	-10475
шьарц	-10476
шәмыр	-10477
ҿыцра	-10478
ԥхьоз	-10479
▁2002	-10480
▁амех	-10481
▁гәыӷ	-10482
▁дыжә	-10483
▁иама	-10484
▁рзым	-10485
▁таиф	-10486
▁хаҳә	-10487
▁ҳаур	-10488
аԥсара	-10489
заҵәык	-10490
кәарҳә	-10491
ҭәашьа	-10492
▁акарт	-10493
▁алиас	-10494
▁алиса	-10495
▁аԥшеи	-10496
▁гәыла	-10497
▁еилыз	-10498
▁иназы	-10499
▁инхон	-10500
▁калмы	-10501
▁сҽазы	-10502
▁уаҩны	-10503
▁феида	-10504
▁шьҭар	-10505
▁ҳасан	-10506
еллиген	-10507
кәымпыл	-10508
лкаатәу	-10509
цәырҵыр	-10510
▁аагоуп	-10511
▁ацҵара	-10512
▁аӡахәа	-10513
▁ишьоит	-10514
▁иқәдыр	-10515
гәаладыр	-10516
кьаҭмпыл	-10517
хьчаларц	-10518
цәажәала	-10519
▁авраами	-10520
▁апремиа	-10521
▁ақәгара	-10522
▁еиҿкааз	-10523
▁зхыҵуаз	-10524
▁иацәхьа	-10525
▁иаҳәара	-10526
▁игәнаҳа	-10527
▁рмазара	-10528
▁техника	-10529
▁черкесс	-10530
▁ҳцәеижь	-10531
гәырӷьеит	-10532
цәажәареи	-10533
▁алыршара	-10534
▁аҵәыуара	-10535
▁данԥслак	-10536
▁иархәала	-10537
▁иҳәахьан	-10538
▁адыргақәа	-10539
▁аҽаԥсахит	-10540
▁аӡымҩанга	-10541
▁иқьырсиан	-10542
▁проектқәа	-10543
▁рконгресс	-10544
▁аамҭалатәи	-10545
▁ажурналқәа	-10546
▁азыҟарҵоит	-10547
▁аизырҳареи	-10548
▁аргыларазы	-10549
▁аусзуҩцәеи	-10550
▁ахәылбыҽха	-10551
▁ашәахтәқәа	-10552
▁ахахәылхреи	-10553
▁инықәырԥшны	-10554
▁наунагӡатәи	-10555
▁рминистрреи	-10556
▁ҳагәнаҳақәа	-10557
▁аконгрессқәа	-10558
▁дазааҭгылеит	-10559
пр	-10560
ско	-10561
тла	-10562
гома	-10563
жьуп	-10564
иреи	-10565
итәы	-10566
лшар	-10567
маҷу	-10568
неиз	-10569
цызт	-10570
цәик	-10571
ҵало	-10572
ҽхәо	-10573
ԥары	-10574
▁the	-10575
▁быз	-10576
▁ека	-10577
▁екз	-10578
▁иур	-10579
▁мон	-10580
ауеит	-10581
гедиа	-10582
зыҟам	-10583
овича	-10584
сырԥш	-10585
фильм	-10586
қәкра	-10587
▁2004	-10588
▁амҿы	-10589
▁анын	-10590
▁аркь	-10591
▁аӷар	-10592
▁леир	-10593
▁рылҵ	-10594
▁хьыӡ	-10595
▁шәыс	-10596
анӡааи	-10597
далқәа	-10598
цедура	-10599
ҳараку	-10600
ԥшаарц	-10601
▁азуны	-10602
▁зхатә	-10603
▁иаҿын	-10604
▁имҩах	-10605
▁иухоу	-10606
▁ихазы	-10607
▁ишаны	-10608
▁ишына	-10609
▁ишықә	-10610
▁иҳауз	-10611
▁иҳәоу	-10612
▁назар	-10613
▁ҩызас	-10614
хәаларц	-10615
ԥхьатәи	-10616
▁абылра	-10617
▁агәала	-10618
▁акагьы	-10619
▁амаӡам	-10620
▁амҳәыр	-10621
▁аҩнтәи	-10622
▁гогәуа	-10623
▁далхын	-10624
▁зныкыр	-10625
▁ихацыр	-10626
▁иԥшӡоу	-10627
▁ларгьы	-10628
▁медвед	-10629
▁нхамҩа	-10630
▁ԥхақәа	-10631
хаҵаратә	-10632
ционертә	-10633
қәыԥсара	-10634
▁амҩаԥыс	-10635
▁анџьныр	-10636
▁ахыҭҳәа	-10637
▁аԥшӡара	-10638
▁иааџьоу	-10639
▁муҳадин	-10640
зеиҭаҳҳәо	-10641
▁аарԥшреи	-10642
▁даанхеит	-10643
▁иқәгылоу	-10644
▁мацарала	-10645
▁абжьыҭира	-10646
▁ацыԥҵәаха	-10647
▁иакәымкәа	-10648
▁иаҳархәар	-10649
▁ринститут	-10650
▁техникатә	-10651
▁ҭаҭарсҭан	-10652
▁афотосахьа	-10653
▁ирықәшәоит	-10654
▁ихәыцрақәа	-10655
▁мҩаԥнагеит	-10656
▁урыстәылан	-10657
▁аинтересқәа	-10658
▁акурортқәеи	-10659
▁еицырдыруаз	-10660
▁ранашьахеит	-10661
▁агәаҳәарақәа	-10662
▁ареспубликеи	-10663
▁лыгәрахаҵара	-10664
▁еилаҳкаауазеи	-10665
▁ҭҵаарадыррақәа	-10666
06-	-10667
жет	-10668
охә	-10669
рын	-10670
уҵо	-10671
цен	-10672
цыц	-10673
чаа	-10674
шев	-10675
ҷар	-10676
▁92	-10677
▁рс	-10678
арак	-10679
дтәа	-10680
дыру	-10681
жәпа	-10682
ишәа	-10683
кату	-10684
мкуа	-10685
сист	-10686
ство	-10687
царц	-10688
ццак	-10689
ыцца	-10690
ҟьоу	-10691
▁jyq	-10692
▁абн	-10693
▁диз	-10694
▁каз	-10695
▁лыз	-10696
▁рыӡ	-10697
▁шен	-10698
▁ҭра	-10699
▁ҭыз	-10700
▁ҳад	-10701
▁ҳца	-10702
иасра	-10703
лтәым	-10704
паган	-10705
уалра	-10706
хьчаз	-10707
ҟәымҭ	-10708
▁амод	-10709
▁апри	-10710
▁арез	-10711
▁ауар	-10712
▁ашыц	-10713
▁аԥеи	-10714
▁наль	-10715
▁рауф	-10716
▁рзыр	-10717
▁тонн	-10718
▁шәза	-10719
урԥшыр	-10720
цәыӡыр	-10721
ҟарҵаз	-10722
ҵарала	-10723
▁алмас	-10724
▁аџьма	-10725
▁ақәиҭ	-10726
▁аҟаза	-10727
▁журна	-10728
▁иагьи	-10729
▁иоурц	-10730
▁иҳәар	-10731
▁мызкы	-10732
▁рашәа	-10733
▁роума	-10734
▁уахык	-10735
▁шерва	-10736
▁шьыжь	-10737
▁ҳаныр	-10738
муналтә	-10739
тистика	-10740
шьҭыхны	-10741
ԥсаанӡа	-10742
ԥхьаӡаз	-10743
▁амикро	-10744
▁анҭала	-10745
▁архәҭа	-10746
▁аџьыка	-10747
▁давиди	-10748
▁иаҳзыр	-10749
▁леиӡом	-10750
▁хазына	-10751
▁хьиуит	-10752
зыԥшузеи	-10753
итациатә	-10754
культура	-10755
ҟазаратә	-10756
▁агаразы	-10757
▁адунеии	-10758
▁ашьхаҿы	-10759
▁еиқәҳар	-10760
▁зықәшәо	-10761
▁иаҭаауа	-10762
▁имазара	-10763
▁школқәа	-10764
▁қьырала	-10765
▁ҳаиҭарц	-10766
еиԥшымзеи	-10767
зыӡырҩуаз	-10768
ҭаацәареи	-10769
▁акапантә	-10770
▁аныҟаҳҵо	-10771
▁афымцамч	-10772
▁еиқәаҵәа	-10773
▁ииҭахызи	-10774
▁ишԥаулшо	-10775
▁иԥсабара	-10776
▁рымамызт	-10777
▁ҳхәыҷқәа	-10778
еллигенциа	-10779
зыҳәарақәа	-10780
▁адоуҳақәа	-10781
▁алашьцара	-10782
▁еибыҳәаны	-10783
▁иазырхоуп	-10784
▁игәҭакқәа	-10785
▁ирымоузеи	-10786
▁ицхырааҩу	-10787
▁акоррупциа	-10788
▁аҷыдарақәа	-10789
▁аԥҳәысеиба	-10790
▁гәахәарала	-10791
▁изаҭахузеи	-10792
▁маҵзурақәа	-10793
▁аспециалист	-10794
▁аҽыҵәахырҭа	-10795
▁реихшьаалақәа	-10796
аҿы	-10797
сыс	-10798
усс	-10799
фиа	-10800
хаҩ	-10801
ҵбы	-10802
▁91	-10803
берт	-10804
диум	-10805
мшьа	-10806
ныри	-10807
опро	-10808
шиӡе	-10809
шьам	-10810
шьҩы	-10811
қьаҭ	-10812
ҭало	-10813
ҵыср	-10814
ӷьыр	-10815
▁110	-10816
▁агх	-10817
▁рԥа	-10818
▁фин	-10819
▁ҳаҳ	-10820
▁ҳҭа	-10821
▁ӡыр	-10822
▁ԥыз	-10823
гылеи	-10824
пҟара	-10825
ҟаара	-10826
ҭазҵо	-10827
ԥхьыт	-10828
▁1941	-10829
▁дума	-10830
▁дҵас	-10831
▁егры	-10832
▁игон	-10833
▁ипро	-10834
▁иҭыр	-10835
▁лыла	-10836
▁млрд	-10837
▁уҟаз	-10838
▁ҳнеи	-10839
бараны	-10840
зарыла	-10841
иааиуа	-10842
инград	-10843
мамызт	-10844
наҵеит	-10845
ныруеи	-10846
хантәа	-10847
хурсҭа	-10848
ҵаалар	-10849
ҵлақәа	-10850
ԥхьаны	-10851
▁аԥхар	-10852
▁еицәа	-10853
▁жәытә	-10854
▁зинтә	-10855
▁саида	-10856
▁унапы	-10857
▁ҳгоит	-10858
гылозар	-10859
ҭаауеит	-10860
ҭаххеит	-10861
ҳарԥшыр	-10862
ҳәалара	-10863
▁алазыр	-10864
▁ахәаҷа	-10865
▁ахәмар	-10866
▁аҽыбӷа	-10867
▁гектар	-10868
▁дашьҭа	-10869
▁жәлари	-10870
▁иашьҭа	-10871
▁ииасыз	-10872
▁имаҭәа	-10873
▁иракли	-10874
▁иҳамҭа	-10875
▁маҭәар	-10876
▁ыҟазар	-10877
дырхәырц	-10878
рыцқьара	-10879
хыраареи	-10880
қәыӡбоит	-10881
▁еиқәнар	-10882
▁ишԥаныр	-10883
▁иҳаилир	-10884
▁шыҟаиҵо	-10885
▁ҳалагар	-10886
▁аиҭагара	-10887
▁аныхабаа	-10888
▁ахәбатәи	-10889
▁аԥхынтәи	-10890
▁дазхиоуп	-10891
▁здызкыло	-10892
▁зрыхәҭоу	-10893
▁ибжьаӡыз	-10894
▁ихаҭагьы	-10895
▁ицхраауа	-10896
▁иҽанӡааи	-10897
▁наигӡоит	-10898
▁зеиԥшрахо	-10899
▁ихадоузеи	-10900
▁лҿырԥштәы	-10901
▁рнапхгара	-10902
▁русзуҩцәа	-10903
▁темурович	-10904
▁тәылақәак	-10905
▁ҵараиурҭа	-10906
▁абекәынреи	-10907
▁адырраҭара	-10908
▁азгәарҭеит	-10909
▁аиаҳәшьцәа	-10910
▁атехникатә	-10911
▁иаднакылаз	-10912
▁черқьессиа	-10913
▁шьҭнахуеит	-10914
▁ҟазшьақәоу	-10915
▁ԥсхҭынҵара	-10916
▁аилазаараҿы	-10917
▁акомандақәа	-10918
▁ҿырԥштәқәак	-10919
▁агәымбылџьбар	-10920
▁ишьақәиргылаз	-10921
▁ауаажәларратәи	-10922
ing	-10923
еда	-10924
лаҩ	-10925
лит	-10926
ные	-10927
уар	-10928
қар	-10929
ԥшқ	-10930
▁89	-10931
▁ҷк	-10932
анаа	-10933
ание	-10934
гина	-10935
евая	-10936
иров	-10937
рқәа	-10938
хәша	-10939
цышә	-10940
шьҭу	-10941
ҿтәи	-10942
▁xvi	-10943
▁аск	-10944
▁аҩӡ	-10945
▁дка	-10946
▁рду	-10947
▁там	-10948
▁уца	-10949
▁ҳҟа	-10950
гӡарц	-10951
ныруа	-10952
ондон	-10953
ҟаԥшь	-10954
ҟьоит	-10955
ҩуеит	-10956
ҭыԥҳа	-10957
▁1994	-10958
▁2007	-10959
▁агаӡ	-10960
▁азыз	-10961
▁акал	-10962
▁аори	-10963
▁асиа	-10964
▁атри	-10965
▁аԥсҭ	-10966
▁бзыԥ	-10967
▁зхьы	-10968
▁изын	-10969
▁софа	-10970
▁умҩа	-10971
гәаҟра	-10972
ҟарҵоз	-10973
ҵаауан	-10974
▁агәҭа	-10975
▁аконц	-10976
▁акылы	-10977
▁аныры	-10978
▁арахә	-10979
▁аҳаса	-10980
▁аԥшьы	-10981
▁диана	-10982
▁дхәыц	-10983
▁еибыр	-10984
▁еилар	-10985
▁ефрем	-10986
▁иазыз	-10987
▁иамеи	-10988
▁иаҳзы	-10989
▁ирина	-10990
▁ихәым	-10991
▁ишақә	-10992
▁лыхьӡ	-10993
▁пилат	-10994
▁шыҟаз	-10995
▁ҳаҩны	-10996
гырхара	-10997
зышьҭыз	-10998
иқәҵара	-10999
ҵазкуаз	-11000
▁анагӡа	-11001
▁арҭоит	-11002
▁аԥацәа	-11003
▁аԥжәар	-11004
▁иауриа	-11005
▁ирылеи	-11006
▁рыцхра	-11007
▁султан	-11008
▁фараон	-11009
▁филист	-11010
▁шакәыз	-11011
скьагара	-11012
▁агәҭаны	-11013
▁адәахьы	-11014
▁ахьымӡӷ	-11015
▁аҟәыҵра	-11016
▁аҵаратә	-11017
▁гәыԥқәа	-11018
▁иарбоуп	-11019
▁иаҳҭаху	-11020
▁имамызт	-11021
▁исҭахуп	-11022
▁хыркәшо	-11023
қәымшәара	-11024
▁абиблиеи	-11025
▁аиааиреи	-11026
▁аԥарақәа	-11027
▁иаҳауеит	-11028
▁иҟаиҵоит	-11029
▁раԥхьаҟа	-11030
▁шәҭаацәа	-11031
▁аенергети	-11032
▁ашаҳаҭцәа	-11033
▁венесуела	-11034
▁даныхынҳә	-11035
▁еибашьуаз	-11036
▁заанаҵтәи	-11037
▁шервашиӡе	-11038
гәалашәозар	-11039
гәырӷьаларц	-11040
▁бжьаратәла	-11041
▁иабантәиаа	-11042
▁ихәаԥшышьа	-11043
▁миллионҩык	-11044
▁пицундатәи	-11045
▁ргәабзиара	-11046
▁рынагӡареи	-11047
▁ҳазылхратә	-11048
▁ажәытәӡатәи	-11049
▁хшыҩзышьҭра	-11050
▁шрыдгалатәу	-11051
▁иааҳарԥшуеит	-11052
▁ашәарҭадаратә	-11053
▁ставропольтәи	-11054
▁агәрыцҳашьареи	-11055
▁рҭаацәалазаара	-11056
ҩо	-11057
осф	-11058
реҭ	-11059
шыз	-11060
ырк	-11061
▁9.	-11062
▁ыр	-11063
втор	-11064
иҵон	-11065
мҭан	-11066
уоуп	-11067
фатә	-11068
шарц	-11069
▁аац	-11070
▁ами	-11071
▁аси	-11072
▁иим	-11073
▁лҽа	-11074
▁уша	-11075
▁хаа	-11076
▁ҟьа	-11077
бозеи	-11078
колог	-11079
лцара	-11080
хианы	-11081
цакра	-11082
▁абжа	-11083
▁аршә	-11084
▁астр	-11085
▁ацры	-11086
▁гәра	-11087
▁имыр	-11088
▁ихәа	-11089
▁комп	-11090
▁ҟаза	-11091
▁ҩымш	-11092
арҭеит	-11093
барҭоу	-11094
гресси	-11095
гызмал	-11096
дахара	-11097
хазгьы	-11098
қәшәон	-11099
ҳҳәоит	-11100
ҵаратә	-11101
▁аетно	-11102
▁ажәра	-11103
▁арҵәы	-11104
▁ахьӡи	-11105
▁зегьи	-11106
▁идгал	-11107
▁ирзыр	-11108
▁ишьра	-11109
▁класс	-11110
▁олимп	-11111
▁опера	-11112
дикылаз	-11113
клаԥшра	-11114
лабаара	-11115
цәажәап	-11116
шанхара	-11117
▁амҩаҿы	-11118
▁аныҟоу	-11119
▁аорӷан	-11120
▁асемин	-11121
▁ахаԥыц	-11122
▁ацаҟьа	-11123
▁еизеит	-11124
▁иалоуп	-11125
▁иҟнытә	-11126
▁нхарҭа	-11127
▁шьҭиба	-11128
▁ҳаԥхьа	-11129
▁ҳхатәы	-11130
блемақәа	-11131
хеибакра	-11132
цхраалар	-11133
▁алфавит	-11134
▁апоезиа	-11135
▁арҽеира	-11136
▁атуризм	-11137
▁дыҟазар	-11138
▁дҭалоит	-11139
▁иаирхәо	-11140
▁иапониа	-11141
▁ионафан	-11142
▁иҭахӡам	-11143
▁машьына	-11144
▁моисеии	-11145
▁нагозеи	-11146
▁ниневиа	-11147
▁рҟазшьа	-11148
▁шкәакәа	-11149
▁ҟаҵазар	-11150
▁ҳҭаацәа	-11151
▁актуалра	-11152
▁амиссион	-11153
▁асасцәеи	-11154
▁аҵарақәа	-11155
▁гәыҩбара	-11156
▁дыррақәа	-11157
▁дыҟамызт	-11158
▁инарыгӡо	-11159
▁интернат	-11160
▁медведев	-11161
▁нҵәаанӡа	-11162
▁ргәаҭара	-11163
▁ринтерес	-11164
▁рықәгара	-11165
▁хынҩажәа	-11166
▁центрқәа	-11167
▁абриаҟара	-11168
▁агәашәқәа	-11169
▁анормақәа	-11170
▁ацәқәырԥа	-11171
▁аҷкәынцәа	-11172
▁аԥснынтәи	-11173
▁даҽаџьара	-11174
▁иубаратәы	-11175
▁рыҟазаара	-11176
▁рыӡбаразы	-11177
ординациатә	-11178
ҿлымҳарақәа	-11179
▁аибашьраан	-11180
▁атәылақәеи	-11181
▁ԥшьышықәса	-11182
▁абиблиотека	-11183
▁зхыԥхьаӡара	-11184
▁имҩаԥыслоит	-11185
▁ҭҟәарчалтәи	-11186
▁дарбанызаалак	-11187
▁ҭагылазаашьак	-11188
▁агәазыҳәарақәа	-11189
ох	-11190
▁d	-11191
зма	-11192
тин	-11193
фра	-11194
ҭба	-11195
ҷыр	-11196
ԥра	-11197
▁99	-11198
абил	-11199
дура	-11200
игӡа	-11201
лдыр	-11202
мгьы	-11203
цәны	-11204
черк	-11205
шьак	-11206
▁агь	-11207
▁анх	-11208
▁аӡр	-11209
▁дҩа	-11210
▁иас	-11211
▁нис	-11212
▁џьы	-11213
▁ҳши	-11214
дуцәа	-11215
ласра	-11216
тәала	-11217
ушкин	-11218
шәыжь	-11219
ырҭын	-11220
ҵатәы	-11221
ԥашьа	-11222
▁2001	-11223
▁агри	-11224
▁агро	-11225
▁агьы	-11226
▁адыд	-11227
▁азҭо	-11228
▁аршр	-11229
▁асуб	-11230
▁аԥха	-11231
▁брит	-11232
▁иаԥу	-11233
▁иҭры	-11234
▁роль	-11235
▁уаны	-11236
▁шшәы	-11237
▁ӡыла	-11238
арыхра	-11239
чҳареи	-11240
ынхало	-11241
ҭынчым	-11242
ҳалоит	-11243
▁аради	-11244
▁архар	-11245
▁атәар	-11246
▁ахшәа	-11247
▁ашара	-11248
▁аҵатә	-11249
▁аӷьыч	-11250
▁еилеи	-11251
▁жәохә	-11252
▁лыԥсы	-11253
▁рзааи	-11254
▁рышҟа	-11255
▁сыҟан	-11256
▁хацыр	-11257
▁ҟаҵан	-11258
гахьеит	-11259
гәаҟуаз	-11260
цәажәан	-11261
ҭеиҭыԥш	-11262
ҳәазаны	-11263
▁афинал	-11264
▁ахҵәар	-11265
▁ақәыԥш	-11266
▁аԥынҵа	-11267
▁деилыр	-11268
▁иуԥыло	-11269
▁иҭахыз	-11270
▁иҭынчу	-11271
лаҳкаауа	-11272
ҭабзиара	-11273
ҭҵааратә	-11274
▁агәҭакы	-11275
▁асаркьа	-11276
▁ашәҭқәа	-11277
▁аҳкәажә	-11278
▁диҳәоит	-11279
▁знапаҿы	-11280
▁иаартыз	-11281
▁иалҵшәа	-11282
▁иаҳнаҭо	-11283
▁ибааԥсу	-11284
▁ирзеиҭа	-11285
▁маршьан	-11286
▁рыҟнытә	-11287
▁сашьцәа	-11288
гәалашәыр	-11289
шәарыцара	-11290
▁анаркоти	-11291
▁ахыччара	-11292
▁ачымазаҩ	-11293
▁ашәаразы	-11294
▁аԥҵаразы	-11295
▁зегьирха	-11296
▁иаҳдыруа	-11297
▁ирзеиҭар	-11298
▁ихынҳәыз	-11299
▁иҳамазар	-11300
▁рықәҵара	-11301
▁хаҭарнак	-11302
▁ҳанаԥхьо	-11303
коллегацәа	-11304
▁алагаанӡа	-11305
▁анагӡареи	-11306
▁аҩыџьагьы	-11307
▁дшырзыҟоу	-11308
▁еиликаарц	-11309
▁еиқәшаҳаҭ	-11310
▁иааигәаны	-11311
▁иааԥхьара	-11312
▁иақәшәоит	-11313
▁иҭахрақәа	-11314
▁мҩаԥысуан	-11315
▁нарцәытәи	-11316
▁ргәаҵанӡа	-11317
▁цхыраагӡа	-11318
▁анцәахәқәа	-11319
▁ателехәаԥш	-11320
▁ахәышәтәра	-11321
▁зыԥсадгьыл	-11322
▁аизырҳаразы	-11323
▁анапхгаҩцәа	-11324
▁атехнологиа	-11325
▁хылаԥшыҩцәа	-11326
▁арепатриациа	-11327
▁икандидатура	-11328
▁ажәабжьҳәареи	-11329
▁ацәыргақәҵатә	-11330
▁ргәаанагарала	-11331
ti	-11332
рш	-11333
его	-11334
жәо	-11335
зба	-11336
тол	-11337
шом	-11338
▁ту	-11339
арим	-11340
гени	-11341
гьын	-11342
дмыр	-11343
иҭоз	-11344
троп	-11345
хәыс	-11346
цало	-11347
цион	-11348
чқәа	-11349
шьас	-11350
ӷьны	-11351
▁102	-11352
▁139	-11353
▁400	-11354
▁ахр	-11355
▁дел	-11356
▁иау	-11357
▁кры	-11358
▁лыц	-11359
▁сте	-11360
▁удм	-11361
▁хаҿ	-11362
арыла	-11363
енциа	-11364
жәеит	-11365
зырхо	-11366
нагар	-11367
хәыра	-11368
▁абыз	-11369
▁аҿаԥ	-11370
▁евра	-11371
▁згым	-11372
▁ирна	-11373
▁лоуп	-11374
▁лцәа	-11375
▁мала	-11376
▁рмоу	-11377
▁убыс	-11378
▁унар	-11379
▁ҳаиа	-11380
арцкиа	-11381
дырхәо	-11382
ентцәа	-11383
тәышьа	-11384
шарала	-11385
ҟрақәа	-11386
ҳәшьеи	-11387
ԥшаала	-11388
▁аԥсыҽ	-11389
▁башня	-11390
▁гәҽан	-11391
▁дәықә	-11392
▁еилоу	-11393
▁ешԥҳа	-11394
▁зымуа	-11395
▁мзызк	-11396
▁нисан	-11397
▁рпоет	-11398
▁сахьы	-11399
▁уилиа	-11400
зышәара	-11401
лкаауам	-11402
хцәажәа	-11403
хәаԥштә	-11404
ҟәымшәы	-11405
▁аказак	-11406
▁ахаҵар	-11407
▁далхуп	-11408
▁дызмоу	-11409
▁иалкаа	-11410
▁иашоуп	-11411
▁изыҟоу	-11412
▁ипресс	-11413
▁сҽазыс	-11414
▁ҭраԥшь	-11415
▁ҳзырбо	-11416
қәҵахоит	-11417
▁авидеор	-11418
▁автоном	-11419
▁алахәҩы	-11420
▁анаҭоит	-11421
▁ашахмат	-11422
▁еиԥшӡам	-11423
▁иерихон	-11424
▁иусқәеи	-11425
▁иԥшаара	-11426
▁рзеиҭеи	-11427
нагӡаратә	-11428
ниципалтә	-11429
▁агәыӷреи	-11430
▁аеҵәақәа	-11431
▁акәырбан	-11432
▁алауреат	-11433
▁анапынҵа	-11434
▁архәашар	-11435
▁арҵаразы	-11436
▁арҽхәара	-11437
▁ақәаршҩы	-11438
▁аҟәшақәа	-11439
▁аҭааҩцәа	-11440
▁иаурхәар	-11441
▁рыуацәеи	-11442
▁шԥамҩаԥи	-11443
▁ҟаҳҵозар	-11444
▁ҳазыԥшуп	-11445
▁ҳтәылаҿы	-11446
гәалашәара	-11447
▁атрадициа	-11448
▁делегациа	-11449
▁игәаҳәара	-11450
▁иеговагьы	-11451
▁ирҿиаратә	-11452
▁итрадициа	-11453
гәырӷьалоит	-11454
▁сторожевая	-11455
▁агәаҭарақәа	-11456
▁архитектура	-11457
▁асахьаҭыхыҩ	-11458
▁ацәгьауразы	-11459
▁дахцәажәеит	-11460
▁иԥсҭазаареи	-11461
▁апатуқәҵареи	-11462
▁изеиҭеиҳәеит	-11463
▁ачымазарақәеи	-11464
▁рхаҭарнакцәеи	-11465
▁рҽырцәыхьчара	-11466
▁азакәанԥҵаратә	-11467
▁атәылауаҩшәҟәы	-11468
15	-11469
an	-11470
en	-11471
us	-11472
лог	-11473
лыс	-11474
▁4.	-11475
▁мц	-11476
▁ҭо	-11477
азар	-11478
ечен	-11479
кака	-11480
кәуа	-11481
лҳар	-11482
лҵуа	-11483
онаа	-11484
тизм	-11485
ххаа	-11486
ҭәоу	-11487
▁118	-11488
▁апл	-11489
▁аҩи	-11490
▁аҳи	-11491
▁гор	-11492
▁инҭ	-11493
▁рҳа	-11494
▁сԥа	-11495
▁тәа	-11496
▁1995	-11497
▁афым	-11498
▁аҩар	-11499
▁дрыд	-11500
▁дуун	-11501
▁итәы	-11502
▁ишҟа	-11503
▁кака	-11504
▁курс	-11505
▁реид	-11506
▁свет	-11507
▁узеи	-11508
▁хьча	-11509
▁чама	-11510
гахьан	-11511
гахьоу	-11512
ирԥшит	-11513
наӡала	-11514
наӡара	-11515
тәхоит	-11516
цәаара	-11517
ҵакыра	-11518
ҵараны	-11519
▁аекск	-11520
▁акара	-11521
▁арест	-11522
▁аҳәоу	-11523
▁бзиан	-11524
▁даҿуп	-11525
▁дырзы	-11526
▁иаман	-11527
▁ианаа	-11528
▁илшоз	-11529
▁иҭәуп	-11530
▁мшқәа	-11531
▁раҳәо	-11532
▁рцәыӡ	-11533
▁шәҽыр	-11534
дыркыло	-11535
харақәа	-11536
шьаразы	-11537
ҳәарыла	-11538
▁абӷьыц	-11539
▁азыҳәа	-11540
▁азҟаза	-11541
▁асаара	-11542
▁аҭаҵар	-11543
▁дахьыр	-11544
▁зыҩуаз	-11545
▁иаԥҵан	-11546
▁лаҟәуп	-11547
▁раарԥш	-11548
▁роберт	-11549
▁хәыхәы	-11550
▁цәаҳәа	-11551
▁шьыжьы	-11552
▁шәнапы	-11553
▁џьумка	-11554
▁џьынџь	-11555
▁ҳаҟәыҵ	-11556
▁ԥачлиа	-11557
рацәажәо	-11558
ҭоурыхтә	-11559
▁аиҿкааҩ	-11560
▁акылсра	-11561
▁аниҳәоз	-11562
▁афырҭын	-11563
▁ациклон	-11564
▁ацәыӡра	-11565
▁ақыҭаҿы	-11566
▁дразҵаа	-11567
▁иашьҭан	-11568
▁иманшәа	-11569
▁иҟаиҵар	-11570
▁нагӡаны	-11571
▁рызцәыр	-11572
бзиабареи	-11573
зыҟаҵареи	-11574
лацәажәоз	-11575
шықәсақәа	-11576
▁аикәарҳә	-11577
▁ахҵәацәа	-11578
▁аҳаскьын	-11579
▁аԥсылман	-11580
▁дшазыҟоу	-11581
▁иаҳзыԥшу	-11582
▁рҳәаақәа	-11583
▁уҭахызар	-11584
▁шамҭақәа	-11585
▁шьақәҳар	-11586
▁џьынџьал	-11587
▁ҳахьчоит	-11588
▁адгьылахь	-11589
▁асинагога	-11590
▁ацәаакыра	-11591
▁ашьауӷатә	-11592
▁багаҭелиа	-11593
▁еидызкыло	-11594
▁иубарҭоуп	-11595
▁рыхәаԥшра	-11596
▁цәгьашақә	-11597
▁шааирԥшуа	-11598
▁ҳҭынхацәа	-11599
▁атәымтәыла	-11600
▁еилкаахеит	-11601
▁иваҟәылара	-11602
▁ирзааигәоу	-11603
▁ицәырҵуеит	-11604
▁рыбжьаҵара	-11605
▁шәеиҩызара	-11606
▁қырҭтәылеи	-11607
▁ҳақәиргәыӷ	-11608
▁ҳрыхәаԥшып	-11609
▁акоммуналтә	-11610
▁ргәазҭеиҵон	-11611
▁рнапхгаҩцәа	-11612
▁аибашьрақәеи	-11613
▁ахеиқәырхара	-11614
▁сеигәырӷьоит	-11615
▁ҳхымҩаԥгашьа	-11616
▁аиашахаҵаратә	-11617
▁иҭышәынтәалоу	-11618
шьақәыргыларазы	-11619
▁агәҭынчымрақәа	-11620
ины	-11621
ред	-11622
ҳаб	-11623
ӡор	-11624
▁8.	-11625
бауа	-11626
етта	-11627
инеи	-11628
мала	-11629
оран	-11630
тлар	-11631
хага	-11632
хуеи	-11633
шрут	-11634
шьха	-11635
шәом	-11636
ҭаша	-11637
ԥсеи	-11638
▁109	-11639
▁апп	-11640
▁гол	-11641
▁иҳә	-11642
▁реп	-11643
алант	-11644
бартә	-11645
мазеи	-11646
ность	-11647
рыцқь	-11648
цәызы	-11649
шәшәа	-11650
ылшоз	-11651
ҟьеит	-11652
▁1991	-11653
▁азеи	-11654
▁аида	-11655
▁арҵа	-11656
▁аҭан	-11657
▁гоов	-11658
▁длоу	-11659
▁зцыз	-11660
▁зҭак	-11661
▁икәа	-11662
▁ныҟә	-11663
▁саби	-11664
▁уаҵә	-11665
▁цыра	-11666
▁џьор	-11667
▁ҟаим	-11668
зыршәо	-11669
изакра	-11670
илыхра	-11671
мыжьын	-11672
ныҟәаз	-11673
строль	-11674
хиоума	-11675
хәхара	-11676
ҟараны	-11677
ҭаларц	-11678
ҭалоит	-11679
ҵахьоу	-11680
ӷарыла	-11681
ԥшратә	-11682
▁алаку	-11683
▁анӡор	-11684
▁ахбыџ	-11685
▁гәыԥк	-11686
▁еилых	-11687
▁еицаҳ	-11688
▁зегьз	-11689
▁иазеи	-11690
▁игара	-11691
▁ихьаа	-11692
▁ишьон	-11693
▁иҳәаа	-11694
▁мираб	-11695
▁ргара	-11696
▁рыбла	-11697
▁рықәы	-11698
▁ҭобыл	-11699
адыруеи	-11700
ыргареи	-11701
ҭарҵоит	-11702
▁аныҟәа	-11703
▁араунд	-11704
▁ақьабз	-11705
▁гәнаҳа	-11706
▁евгени	-11707
▁занааҭ	-11708
▁иажәеи	-11709
▁иазнеи	-11710
▁ианӡам	-11711
▁лондон	-11712
▁руларц	-11713
▁рхәыҷы	-11714
▁шәахьы	-11715
▁ҟаҵаны	-11716
▁ҟаҵоуп	-11717
галароуп	-11718
грациатә	-11719
заанагаз	-11720
ԥырхагам	-11721
▁адиплом	-11722
▁амлакра	-11723
▁ацәаҳәа	-11724
▁даауеит	-11725
▁дарбану	-11726
▁дашьҭан	-11727
▁дырбара	-11728
▁зызҭана	-11729
▁зымҽхак	-11730
▁иазхиоу	-11731
▁иҟалома	-11732
▁назарет	-11733
▁рнаҭоит	-11734
▁шахәҭоу	-11735
▁шыҟалаз	-11736
▁қьиақәа	-11737
▁ҟасҵоит	-11738
▁ҳазҵаар	-11739
хынҳәразы	-11740
шәалароуп	-11741
▁аԥыжәара	-11742
▁аԥынгыла	-11743
▁иаирхәон	-11744
▁иасимвол	-11745
▁ииасуеит	-11746
▁ирыхәаԥш	-11747
▁ишԥаилшо	-11748
▁иҟазаара	-11749
▁иҳалшома	-11750
▁мырҵыкәа	-11751
▁рымамкәа	-11752
▁рҭаацәеи	-11753
▁уадаҩрак	-11754
▁хырԥашьа	-11755
▁ҟазарыла	-11756
▁ҳнаргоит	-11757
▁абазақәеи	-11758
▁азиашареи	-11759
▁анышәаԥшь	-11760
▁донецктәи	-11761
▁дыԥсаанӡа	-11762
▁иаҿырԥшны	-11763
▁ишәҭахума	-11764
▁иҟаиҵозеи	-11765
▁официалла	-11766
▁рзыӡырҩра	-11767
▁рҿырԥштәы	-11768
▁ҟәыӷарыла	-11769
▁аадырԥшуан	-11770
▁абзиарақәа	-11771
▁акәашаратә	-11772
▁еилаҳкаауа	-11773
▁кьышьмариа	-11774
▁филистимаа	-11775
▁шәеибабала	-11776
▁даҽазныкгьы	-11777
▁иазгәеиҭоит	-11778
▁ишеилаҳкааз	-11779
▁цәқәырԥақәа	-11780
▁акалҭбааԥсра	-11781
▁анеитралитет	-11782
▁ҳалацәажәоит	-11783
▁ажәеинраалаҿы	-11784
▁ашьауӷақәҵара	-11785
▁урыстәылантәи	-11786
▁иажәеинраалақәа	-11787
ве	-11788
ҵу	-11789
уит	-11790
унт	-11791
уть	-11792
хыл	-11793
▁дә	-11794
▁ты	-11795
анна	-11796
анта	-11797
иҵар	-11798
кцәа	-11799
панс	-11800
рыԥс	-11801
хәон	-11802
ҟәны	-11803
ҳҭар	-11804
ԥхоз	-11805
▁12.	-11806
▁130	-11807
▁ашр	-11808
▁дол	-11809
▁имы	-11810
▁иҩу	-11811
▁как	-11812
илкаа	-11813
лазар	-11814
қәаби	-11815
ҭакра	-11816
ҭалар	-11817
ӷәара	-11818
ԥхьыр	-11819
▁2006	-11820
▁ажьа	-11821
▁арит	-11822
▁ачаи	-11823
▁ачын	-11824
▁аҵыр	-11825
▁дахы	-11826
▁дшеи	-11827
▁ишра	-11828
▁иқәу	-11829
▁лықә	-11830
▁рныр	-11831
▁сыҟа	-11832
▁шала	-11833
▁ҭбаа	-11834
▁ҳашы	-11835
▁ҳрыз	-11836
баларц	-11837
зиашоу	-11838
ццакра	-11839
қәаҳҵо	-11840
ҳарыла	-11841
ҳәатәы	-11842
ҽҳәаша	-11843
ҿырԥшы	-11844
ӷәӷәоз	-11845
▁амцтә	-11846
▁ахәра	-11847
▁аҭаны	-11848
▁аҳәба	-11849
▁днеит	-11850
▁жәаҩа	-11851
▁иахәо	-11852
▁иаԥшь	-11853
▁илшом	-11854
▁кьаҿк	-11855
▁метод	-11856
▁уаҩуп	-11857
▁шенка	-11858
▁ҳаҿуп	-11859
илагара	-11860
ҭыхақәа	-11861
ҵзуҩцәа	-11862
ӷьӷьара	-11863
▁архиар	-11864
▁аԥареи	-11865
▁диеиԥш	-11866
▁заамҭа	-11867
▁иаазыр	-11868
▁идырым	-11869
▁ииасит	-11870
▁инхало	-11871
▁ихьшәа	-11872
▁ишәгәа	-11873
▁портал	-11874
▁рполит	-11875
▁рышьҭа	-11876
▁уаҩԥсы	-11877
▁шәхатә	-11878
▁қьарим	-11879
▁қәԥара	-11880
▁ҟаҳҵар	-11881
▁ҳгәаҿы	-11882
▁ӷәӷәеи	-11883
▁ԥхасҭа	-11884
мҩаԥгара	-11885
ныҟәалар	-11886
▁ааигеит	-11887
▁аметоди	-11888
▁даналга	-11889
▁еибакны	-11890
▁иеиԥшуп	-11891
▁имҩахыҵ	-11892
▁ишиҳәаз	-11893
▁иҟамызт	-11894
▁иҭижьыз	-11895
▁рҟазара	-11896
▁хәмарра	-11897
▁ӷәӷәоуп	-11898
дыруазарц	-11899
шьҭахьтәи	-11900
▁ахьчацәа	-11901
▁британиа	-11902
▁ииашамыз	-11903
▁ицхырааҩ	-11904
▁иҳабжьоу	-11905
▁мацароуп	-11906
▁рыԥсахра	-11907
▁шьцылара	-11908
▁ааҳарԥшыр	-11909
▁еилыргоуп	-11910
▁километра	-11911
▁ранашьоуп	-11912
▁рартистка	-11913
зааигәахоит	-11914
▁аолимпиатә	-11915
▁ишԥаадырԥш	-11916
▁рыцҳашьара	-11917
▁рыԥхьаӡоит	-11918
▁ҳаиҿыԥшлар	-11919
▁амемориалтә	-11920
▁ахәыҷқәагьы	-11921
▁ахәышәтәырҭа	-11922
▁ацәеилабаара	-11923
▁аҵакырадгьыл	-11924
▁черқьессктәи	-11925
▁ҳрыцхраауеит	-11926
бин	-11927
ном	-11928
сих	-11929
чуа	-11930
▁де	-11931
▁ел	-11932
▁еп	-11933
ibra	-11934
вист	-11935
елод	-11936
жәга	-11937
кәас	-11938
лала	-11939
шьыц	-11940
қьын	-11941
▁700	-11942
▁арм	-11943
▁диц	-11944
▁инт	-11945
▁лҿы	-11946
▁ныр	-11947
▁шар	-11948
▁шын	-11949
гӡоуп	-11950
хырԥа	-11951
цаара	-11952
шьҭых	-11953
ҵыҵра	-11954
ԥшшәа	-11955
▁1990	-11956
▁2003	-11957
▁алам	-11958
▁алит	-11959
▁арҿи	-11960
▁аԥшы	-11961
▁васи	-11962
▁еизи	-11963
▁ззин	-11964
▁ирну	-11965
▁иҭаҳ	-11966
▁иҭна	-11967
▁мика	-11968
▁удыр	-11969
▁ҭаны	-11970
▁ҳаса	-11971
ibrary	-11972
ариант	-11973
дуцәеи	-11974
тивқәа	-11975
фектив	-11976
хиазар	-11977
циклон	-11978
цыркра	-11979
цәымӷу	-11980
ҩызоуп	-11981
ҳәаӡом	-11982
ҵалара	-11983
ԥшьоуп	-11984
▁ажьар	-11985
▁ассир	-11986
▁атран	-11987
▁атәра	-11988
▁ашана	-11989
▁есҽны	-11990
▁иаԥну	-11991
▁идҳар	-11992
▁ицәыӡ	-11993
▁кьара	-11994
▁лыҩны	-11995
▁ольга	-11996
▁рбоит	-11997
▁рзыҟа	-11998
▁шәоуп	-11999
▁шәыма	-12000
гәаҭара	-12001
ныҟәеит	-12002
ныҳәало	-12003
ҟәымҭхо	-12004
ҳәаӡеит	-12005
ҵәҟьоуп	-12006
ҷаблара	-12007
▁абыржә	-12008
▁австра	-12009
▁амульт	-12010
▁анаҳбо	-12011
▁аршшар	-12012
▁арҽхәа	-12013
▁астиль	-12014
▁ачарыц	-12015
▁биԥара	-12016
▁еилдыр	-12017
▁иаагаз	-12018
▁иаарты	-12019
▁иаатит	-12020
▁имшира	-12021
▁имҩаду	-12022
▁инасыԥ	-12023
▁ршаҳаҭ	-12024
▁рықәра	-12025
▁удмурт	-12026
▁шынаӡо	-12027
▁шьыбжь	-12028
▁шәарах	-12029
▁ҷыҭана	-12030
тәарақәа	-12031
хырҭақәа	-12032
шәалареи	-12033
қәгәыӷла	-12034
ԥхьаӡоуп	-12035
▁library	-12036
▁амамкәа	-12037
▁амҵәышә	-12038
▁астолтә	-12039
▁екатери	-12040
▁иалагар	-12041
▁идирҵон	-12042
▁ишьҭоуп	-12043
▁иҟоузеи	-12044
▁рымазар	-12045
▁сылшоит	-12046
▁хәыхәыт	-12047
▁ҳагәқәа	-12048
ҵахырхәоз	-12049
▁абазақәа	-12050
▁авторцәа	-12051
▁алашареи	-12052
▁амчрақәа	-12053
▁анышәынҭ	-12054
▁аҟазареи	-12055
▁аҵасқәеи	-12056
▁гәеиҭеит	-12057
▁игәазҭаз	-12058
▁ирыладыр	-12059
▁москваҟа	-12060
▁раахәара	-12061
▁урызхәыц	-12062
рацәалатәи	-12063
республика	-12064
▁ажәахәқәа	-12065
▁анаукақәа	-12066
▁арҵаҩратә	-12067
▁зыбзоуроу	-12068
▁иаҳнарҵар	-12069
▁ибзоурала	-12070
▁ишәылшоит	-12071
▁нанагӡоит	-12072
▁ранашьара	-12073
▁рзанааҭтә	-12074
▁структура	-12075
▁шәахьынхо	-12076
▁амаҭәашьар	-12077
▁амҩаԥгареи	-12078
▁аусумҭақәа	-12079
▁ақәҵарақәа	-12080
▁дҳацхраарц	-12081
▁арӷәӷәаразы	-12082
▁еиԥыларақәа	-12083
▁ипринципқәа	-12084
▁ҳамазаауеит	-12085
▁аиқәыршәареи	-12086
▁аорганизациа	-12087
▁ихыркәшахеит	-12088
▁категориақәа	-12089
▁мраҭашәарантәи	-12090
▁ԥааимбаражәақәа	-12091
кк	-12092
уг	-12093
▁я	-12094
блы	-12095
гәи	-12096
лои	-12097
мбо	-12098
пра	-12099
ста	-12100
цид	-12101
ҩаҳ	-12102
ҳҭо	-12103
ҵҳа	-12104
ҿиҭ	-12105
▁82	-12106
ецба	-12107
згоз	-12108
зшәа	-12109
илеҭ	-12110
ирҭа	-12111
кьаҿ	-12112
маҳа	-12113
ософ	-12114
рԥса	-12115
хауа	-12116
ххьа	-12117
хқәа	-12118
ҳхыр	-12119
ҵома	-12120
ԥаны	-12121
▁11.	-12122
▁190	-12123
▁202	-12124
▁аум	-12125
▁беи	-12126
▁наз	-12127
▁умч	-12128
▁уҟа	-12129
▁уԥс	-12130
▁что	-12131
гааит	-12132
зҳауа	-12133
нахыр	-12134
ратәи	-12135
шәыла	-12136
ымызт	-12137
ҳәага	-12138
ҽхана	-12139
▁агәр	-12140
▁аетн	-12141
▁акан	-12142
▁амла	-12143
▁амша	-12144
▁ауас	-12145
▁аӡиа	-12146
▁зыгә	-12147
▁идыз	-12148
▁иуба	-12149
▁иҩыз	-12150
▁маҷу	-12151
▁мина	-12152
▁ныҳә	-12153
▁уҽыр	-12154
▁хымз	-12155
▁шәар	-12156
▁шәра	-12157
▁қыҭа	-12158
▁ҟәыш	-12159
▁ԥача	-12160
▁ԥыҭк	-12161
балоит	-12162
зеиҭар	-12163
куазар	-12164
мазгьы	-12165
мкаара	-12166
сҭаара	-12167
хнакиа	-12168
шароуп	-12169
шәаӡом	-12170
шәыгӡа	-12171
ҳкуеит	-12172
ҿыԥшны	-12173
ӷәӷәаз	-12174
ԥжәара	-12175
ԥшӡара	-12176
▁аизга	-12177
▁амхра	-12178
▁арҩар	-12179
▁афизи	-12180
▁ашьҭы	-12181
▁ақәын	-12182
▁аҳаԥы	-12183
▁библи	-12184
▁дахыс	-12185
▁ерман	-12186
▁иацыр	-12187
▁ирҭаз	-12188
▁китаи	-12189
▁кәтол	-12190
▁муҳам	-12191
▁ревек	-12192
▁рхьаа	-12193
▁рыҭан	-12194
аныжьра	-12195
иҿкаара	-12196
шаҭареи	-12197
шьҭратә	-12198
шәҟәаҿы	-12199
ҿагылар	-12200
▁алымҳа	-12201
▁ацәгар	-12202
▁аҽыкәа	-12203
▁даанӡа	-12204
▁дуқәеи	-12205
▁зыхьчо	-12206
▁иахьтә	-12207
▁ирҭынч	-12208
▁ишԥақә	-12209
▁иҟалом	-12210
▁иҭыҵуа	-12211
▁иӡбара	-12212
▁рыҭаны	-12213
▁уиҩыза	-12214
▁хаҭара	-12215
▁ҳагәра	-12216
емоциатә	-12217
цырцырра	-12218
цәырызго	-12219
ҟаҵаҩцәа	-12220
ҿагылеит	-12221
▁адоуҳаи	-12222
▁адәныҟа	-12223
▁азыӡырҩ	-12224
▁ахшаара	-12225
▁ашықәса	-12226
▁бӷажәба	-12227
▁даҳбоит	-12228
▁иалаӡыз	-12229
▁идирҵоз	-12230
▁ицәымӷу	-12231
▁иҟоугьы	-12232
▁иҭынчра	-12233
▁иӷәӷәаз	-12234
▁рырҭоит	-12235
▁сҩызцәа	-12236
▁уҟазара	-12237
▁ҟаиҵарц	-12238
▁ҳҿаԥхьа	-12239
мкаарақәа	-12240
▁агәышьҭы	-12241
▁алхыҩцәа	-12242
▁ареформа	-12243
▁ахәшәқәа	-12244
▁гәыҳалал	-12245
▁зусҭцәоу	-12246
▁иабантәи	-12247
▁иалагала	-12248
▁ианаамҭа	-12249
▁иарҳәоит	-12250
▁иаԥсоума	-12251
▁ииубилеи	-12252
▁калмыков	-12253
▁наигӡеит	-12254
▁абаагәара	-12255
▁акәӡамызт	-12256
▁апионертә	-12257
▁аԥсышәала	-12258
▁иацҵахоит	-12259
▁аацҳарақәа	-12260
▁амаҵурауаҩ	-12261
▁анаплакқәа	-12262
▁антициклон	-12263
▁аԥшьгаратә	-12264
▁дхынҳәуеит	-12265
▁еибашьраҿы	-12266
▁зегьирхаку	-12267
▁иажәамаана	-12268
▁изыӡырҩуаз	-12269
▁ҳазхәыцлар	-12270
▁амультфильм	-12271
▁анапылампыл	-12272
▁ақәыргылара	-12273
▁закәанԥҵара	-12274
▁зхаҭабзиара	-12275
▁очамчыратәи	-12276
▁ҵыхәаԥҵәара	-12277
▁агәаԥхашәатә	-12278
▁археологиатә	-12279
▁дышҳацхраауа	-12280
▁ишԥеилкаатәу	-12281
▁ҳәынҭқарратә	-12282
▁ааҳарԥшлароуп	-12283
▁атерриториаҿы	-12284
▁иааҳакәыршаны	-12285
▁шәҽазышәшәала	-12286
▁ишьақәырӷәӷәоу	-12287
▁рџьынџьтәылатәи	-12288
жж	-12289
ув	-12290
хҽ	-12291
иуз	-12292
иҟә	-12293
каи	-12294
кәр	-12295
пат	-12296
стә	-12297
тап	-12298
фат	-12299
▁зҽ	-12300
ания	-12301
атус	-12302
гаха	-12303
кова	-12304
кьра	-12305
лаҳа	-12306
лнар	-12307
мент	-12308
наҿы	-12309
омба	-12310
рахә	-12311
фиеи	-12312
ҭага	-12313
ӷәра	-12314
ӷәыр	-12315
▁13.	-12316
▁16.	-12317
▁186	-12318
▁ачр	-12319
▁гер	-12320
▁ижь	-12321
▁шаи	-12322
▁шыс	-12323
итети	-12324
лакьы	-12325
лдара	-12326
маҷра	-12327
мҭара	-12328
сҭарц	-12329
хьуаз	-12330
цааны	-12331
шьцыл	-12332
шәҭра	-12333
ҳҵеит	-12334
ԥхьан	-12335
▁1999	-12336
▁2009	-12337
▁абло	-12338
▁аусу	-12339
▁аҵаа	-12340
▁аԥср	-12341
▁вели	-12342
▁дшым	-12343
▁илир	-12344
▁ицыр	-12345
▁маҭә	-12346
▁рҵас	-12347
▁сышә	-12348
▁уани	-12349
▁ҿыци	-12350
даразы	-12351
дҵақәа	-12352
зымдыр	-12353
ихуеит	-12354
неиуаз	-12355
талион	-12356
ццакны	-12357
ҟьазар	-12358
ҟәыҵуа	-12359
ҵахара	-12360
ҵаҵара	-12361
▁аефир	-12362
▁алнар	-12363
▁алоуп	-12364
▁арели	-12365
▁афакт	-12366
▁аҵәыр	-12367
▁аԥсым	-12368
▁аԥсын	-12369
▁баҳча	-12370
▁визит	-12371
▁дагьы	-12372
▁зурҵо	-12373
▁иаԥыр	-12374
▁илаҟә	-12375
▁имаҷу	-12376
▁иумбо	-12377
▁мшәан	-12378
▁рнаҩс	-12379
▁социа	-12380
▁схатә	-12381
▁ҳхала	-12382
гәаҟуан	-12383
иршәеит	-12384
мазареи	-12385
паганда	-12386
цәгьаны	-12387
ҵалатәу	-12388
ҷаҳареи	-12389
▁атерро	-12390
▁библей	-12391
▁гәыӷра	-12392
▁данааи	-12393
▁змаӡам	-12394
▁иазкын	-12395
▁илыԥха	-12396
▁иордан	-12397
▁исылшо	-12398
▁иҳәарц	-12399
▁рыгәҭа	-12400
▁символ	-12401
▁уилиам	-12402
▁шаҟаҩы	-12403
▁шхадоу	-12404
▁шәхәыц	-12405
▁џьорџь	-12406
▁ҭобыль	-12407
зҵаауеит	-12408
идкылара	-12409
илаԥсара	-12410
маншәала	-12411
мҩаԥаҳго	-12412
ҿагыланы	-12413
ӡәӡәаара	-12414
ԥырхагоу	-12415
▁агәцара	-12416
▁азыҳәан	-12417
▁аусқәеи	-12418
▁аушьҭра	-12419
▁ахарҭәа	-12420
▁аҳаиртә	-12421
▁евразиа	-12422
▁иазгәаҭ	-12423
▁иакәӡам	-12424
▁ианыҟаз	-12425
▁инымҵәа	-12426
▁иреиԥшу	-12427
▁ириҭеит	-12428
▁ирҿиара	-12429
▁ихыҵуан	-12430
▁ишхадоу	-12431
▁кәакәас	-12432
▁лакерба	-12433
▁рышәҟәы	-12434
▁сыжәлар	-12435
▁шәоуеит	-12436
зааигәоуп	-12437
▁акәашара	-12438
▁ақәызҵаз	-12439
▁аҟаҵареи	-12440
▁гәҭакыла	-12441
▁еизараҿы	-12442
▁ианашьан	-12443
▁инҭкааны	-12444
▁ирызхәыц	-12445
▁кристина	-12446
▁ныҟәызго	-12447
хацыԥхьаӡа	-12448
қәгәыӷыртә	-12449
▁акредиттә	-12450
▁акәызҭгьы	-12451
▁анхыркәша	-12452
▁аредакциа	-12453
▁ахлымӡаах	-12454
▁гәаԥхашәа	-12455
▁имҩаԥырго	-12456
▁реиҷаҳара	-12457
▁ҵабыргқәа	-12458
цәыцәгьазар	-12459
▁абуклетқәа	-12460
▁амшхәаԥштә	-12461
▁далацәажәо	-12462
▁данқәыԥшыз	-12463
▁дрыцхраарц	-12464
▁еиқәыршәоу	-12465
▁сыуаажәлар	-12466
▁хацыркхеит	-12467
▁аброшиураҿы	-12468
▁автомашьына	-12469
▁аоперативтә	-12470
▁иорданиатәи	-12471
▁адгьылҵакыра	-12472
▁акоммерциатә	-12473
▁аусеилыргара	-12474
▁ауснагӡаратә	-12475
▁ажәалагалақәа	-12476
▁ашьақәгылареи	-12477
▁зқьышықәсатәи	-12478
▁иҭагылазаашьа	-12479
▁аҽазыҟаҵарақәа	-12480
▁иабантәаадыруеи	-12481
es	-12482
фт	-12483
дил	-12484
чеи	-12485
чик	-12486
шап	-12487
ҭуа	-12488
ҷҷа	-12489
ҽит	-12490
▁6.	-12491
гақә	-12492
итар	-12493
нары	-12494
наӡа	-12495
олон	-12496
ркьа	-12497
шҭыр	-12498
ҿкаа	-12499
▁10.	-12500
▁108	-12501
▁17.	-12502
▁аер	-12503
▁алх	-12504
▁аоф	-12505
▁аҷа	-12506
▁дба	-12507
▁дев	-12508
▁жәҩ	-12509
▁зау	-12510
▁зку	-12511
▁лом	-12512
▁сиб	-12513
▁тел	-12514
▁усы	-12515
▁чры	-12516
анӡаа	-12517
артак	-12518
гьама	-12519
зиаша	-12520
нахуа	-12521
ников	-12522
шьыга	-12523
ԥшуеи	-12524
▁алан	-12525
▁атит	-12526
▁ацыр	-12527
▁аԥшр	-12528
▁злеи	-12529
▁илыр	-12530
▁иҵхо	-12531
▁наԥх	-12532
▁раби	-12533
▁рала	-12534
▁реил	-12535
▁рыҟа	-12536
▁санд	-12537
▁шәоу	-12538
▁шәҿы	-12539
▁ҭакс	-12540
▁ҳаши	-12541
▁ҳҽеи	-12542
▁ҵыԥх	-12543
иҭаҵра	-12544
муника	-12545
наҳара	-12546
остиум	-12547
хҟьара	-12548
хәаахә	-12549
ҭандил	-12550
▁алшоз	-12551
▁арҟәы	-12552
▁аччиа	-12553
▁аҭакр	-12554
▁голиа	-12555
▁зхала	-12556
▁зҿлым	-12557
▁иашоу	-12558
▁игоит	-12559
▁ишрыз	-12560
▁иԥсах	-12561
▁мирон	-12562
▁рзгьы	-12563
▁шәреи	-12564
▁шәсыр	-12565
▁ҳашыг	-12566
▁ҳбоит	-12567
аркуеит	-12568
кылалар	-12569
лышьбеи	-12570
мыхәаԥш	-12571
рықәшәо	-12572
хьчалар	-12573
ҳәароуп	-12574
▁акылыр	-12575
▁ахаара	-12576
▁ахныҟә	-12577
▁ашьҭра	-12578
▁ақәхра	-12579
▁аԥштәы	-12580
▁быҭәба	-12581
▁галаад	-12582
▁зырҿио	-12583
▁зыхҟьо	-12584
▁идшәыр	-12585
▁исалам	-12586
▁иформа	-12587
▁иӡбоит	-12588
▁максим	-12589
▁нарцәи	-12590
▁сталин	-12591
▁умшәан	-12592
▁ҳабжьа	-12593
▁ҳшынхо	-12594
организа	-12595
ԥхьаӡеит	-12596
▁аиҳарак	-12597
▁аусурҭа	-12598
▁аформат	-12599
▁ашәареи	-12600
▁аԥышәеи	-12601
▁иганахь	-12602
▁изанааҭ	-12603
▁инагӡоу	-12604
▁малахиа	-12605
▁микаель	-12606
▁рыдгьыл	-12607
▁станциа	-12608
▁уаҵәтәи	-12609
▁урыԥхьа	-12610
▁шәыдышә	-12611
▁ҳаӷацәа	-12612
▁ҳусқәеи	-12613
гәырӷьала	-12614
шьҭазаара	-12615
▁авҭандил	-12616
▁агәыԥқәа	-12617
▁акафедра	-12618
▁анҭыҵгьы	-12619
▁апатриот	-12620
▁арманшәа	-12621
▁арӡынԥҳа	-12622
▁аҵәылхра	-12623
▁дыззыԥшу	-12624
▁еиҭагоуп	-12625
▁еиҭамҵуа	-12626
▁иаалырԥш	-12627
▁имаҵзуҩы	-12628
▁иҵаҩцәеи	-12629
▁иԥхьаӡоу	-12630
▁шыҟаиҵаз	-12631
▁шәымазар	-12632
▁ҟамҵакәа	-12633
▁ҳарӷәӷәа	-12634
цәыргақәҵа	-12635
▁аарԥшышьа	-12636
▁австралиа	-12637
▁аимадареи	-12638
▁аҳәарақәа	-12639
▁гәаҭаратә	-12640
▁екатерина	-12641
▁иахәҭакны	-12642
▁иахәҭакуп	-12643
▁изыӡырҩуа	-12644
▁ирҳаракра	-12645
▁ишәылшома	-12646
▁ргәаладыр	-12647
▁шәылшозеи	-12648
зааигәахара	-12649
нҩажәижәаба	-12650
▁абыжьбатәи	-12651
▁арегионқәа	-12652
▁ауахәамаҿы	-12653
▁иалахәхоит	-12654
▁гәырӷьарала	-12655
▁исыԥхьаӡоит	-12656
▁ҭаацәарақәа	-12657
▁ҭырқәтәылеи	-12658
▁адокументқәа	-12659
▁аршаҳаҭгақәа	-12660
▁астудентцәеи	-12661
▁ақәҿиарақәеи	-12662
▁ихыркәшахоит	-12663
▁адипломатиатә	-12664
▁игәалаиршәоит	-12665
▁шьақәыргылоуп	-12666
▁ҳааҟәымҵӡакәа	-12667
▁аԥааимбаражәаҿы	-12668
ca	-12669
иҵ	-12670
ух	-12671
гур	-12672
орф	-12673
убо	-12674
хум	-12675
хыџ	-12676
цоу	-12677
ять	-12678
џыр	-12679
қьи	-12680
ҳра	-12681
ӡит	-12682
▁87	-12683
▁98	-12684
гауа	-12685
гәыҭ	-12686
жәоу	-12687
кого	-12688
оним	-12689
хьӡа	-12690
цәра	-12691
ҵәра	-12692
ҽара	-12693
▁амс	-12694
▁был	-12695
▁дны	-12696
▁дых	-12697
▁зҭа	-12698
▁мол	-12699
▁нтә	-12700
▁рек	-12701
▁сод	-12702
анхаз	-12703
аԥшра	-12704
бжазы	-12705
газеи	-12706
гашьа	-12707
зырҳа	-12708
ихырц	-12709
кьара	-12710
лшеит	-12711
цалак	-12712
ԥшлар	-12713
▁2005	-12714
▁агер	-12715
▁аест	-12716
▁ариа	-12717
▁арԥх	-12718
▁иаҭа	-12719
▁иоса	-12720
▁ишыл	-12721
▁иӡыр	-12722
▁крыз	-12723
▁моав	-12724
▁раав	-12725
▁рзаа	-12726
▁шԥар	-12727
▁ԥыза	-12728
дирҵоз	-12729
дырырц	-12730
ерадио	-12731
ибакра	-12732
лаԥшра	-12733
ырҭатә	-12734
қәиҭуп	-12735
қәырҵо	-12736
ԥшымра	-12737
▁агеит	-12738
▁аиҭар	-12739
▁амҩан	-12740
▁аплен	-12741
▁арҳәр	-12742
▁ахҩар	-12743
▁ацәаԥ	-12744
▁аԥырх	-12745
▁вален	-12746
▁варна	-12747
▁данаа	-12748
▁даниа	-12749
▁даҟьа	-12750
▁имоҭа	-12751
▁ирбон	-12752
▁иусуф	-12753
▁ихашҭ	-12754
▁иқәир	-12755
▁лроль	-12756
▁муҳар	-12757
▁рааӡа	-12758
▁рымоу	-12759
▁рыԥҳа	-12760
▁уҳәан	-12761
▁хәҩык	-12762
▁шьоук	-12763
▁ҳауит	-12764
▁ҵабал	-12765
мариара	-12766
ргылара	-12767
сменцәа	-12768
шаҳаҭра	-12769
қәшәарц	-12770
қәыршәа	-12771
▁азҿлым	-12772
▁аиндаҭ	-12773
▁аиусти	-12774
▁амцабз	-12775
▁ахьааи	-12776
▁аҭыԥтә	-12777
▁гәырам	-12778
▁зҭахыз	-12779
▁иаԥҵаз	-12780
▁ибеиоу	-12781
▁иеговы	-12782
▁изҭаху	-12783
▁ишьҭоу	-12784
▁кәыдры	-12785
▁ныҟәыр	-12786
▁чрыгба	-12787
▁ԥҟарак	-12788
ланхарҭа	-12789
хьшәашәа	-12790
цырдыруа	-12791
ҷкәынцәа	-12792
▁адышшыл	-12793
▁анаукеи	-12794
▁аџьанаҭ	-12795
▁еизганы	-12796
▁зхылҵыз	-12797
▁зыхәҭоу	-12798
▁иааӡара	-12799
▁иахәҭам	-12800
▁иуацәеи	-12801
▁ицәгьаз	-12802
▁иҭыжьыз	-12803
▁ргылара	-12804
▁рыхәԥса	-12805
▁ҳаибоит	-12806
▁ҳарҭоит	-12807
ныҟәаларц	-12808
▁аалыҵқәа	-12809
▁акритика	-12810
▁амазаара	-12811
▁аплошьад	-12812
▁археолог	-12813
▁ацәымӷра	-12814
▁аҭаацәеи	-12815
▁дазыԥшуп	-12816
▁еиҳахеит	-12817
▁еиҿкааны	-12818
▁еиҿкаахо	-12819
▁иаҳшьоит	-12820
▁изызхәыц	-12821
▁ицәымӷуп	-12822
▁ицәырҵит	-12823
▁ишәыдышә	-12824
▁иԥхьаӡан	-12825
▁ҟашәҵала	-12826
зыӡырҩларц	-12827
▁адокумент	-12828
▁алахәылаҩ	-12829
▁ашәаҳәара	-12830
▁аԥшаҳәаҿы	-12831
▁григориев	-12832
▁ицхраазеи	-12833
▁иҟаҵәҟьоу	-12834
▁иҩымҭақәа	-12835
▁напхгаҩыс	-12836
▁ростовтәи	-12837
▁хылаԥшҩыс	-12838
▁автобусқәа	-12839
▁агәнаҳақәа	-12840
▁анагӡараҿы	-12841
▁дыруаӡәкын	-12842
▁ихшаазаҵәу	-12843
абилитациатә	-12844
▁аиқәырхареи	-12845
▁зыҟаҵарақәа	-12846
▁ишәыцхраауа	-12847
▁аусдкылаҩцәа	-12848
▁иԥааимбарцәа	-12849
▁ҳорганизациа	-12850
▁апрограммақәа	-12851
▁ақьырсианцәеи	-12852
▁закәанеидкыла	-12853
▁ҳажәаԥҟарақәа	-12854
▁ҳзықәиргәыӷыз	-12855
▁агәымбылџьбара	-12856
▁шьақәырӷәӷәоуп	-12857
▁иазхаҵаҩцәаханы	-12858
ври	-12859
дуи	-12860
ега	-12861
ень	-12862
есь	-12863
ной	-12864
пар	-12865
пеи	-12866
ршә	-12867
фҩы	-12868
хха	-12869
цон	-12870
цәо	-12871
ҩтә	-12872
ԥыс	-12873
▁5.	-12874
бжак	-12875
вари	-12876
ерна	-12877
лҵон	-12878
окси	-12879
сгьы	-12880
сҳәа	-12881
қәыӡ	-12882
ҵәоз	-12883
▁115	-12884
▁187	-12885
▁ааҟ	-12886
▁гам	-12887
▁оуп	-12888
▁сал	-12889
▁сед	-12890
▁сир	-12891
▁сна	-12892
▁сша	-12893
▁уҭа	-12894
башьа	-12895
диҵаз	-12896
ератә	-12897
игоит	-12898
наӡам	-12899
уроуп	-12900
хысра	-12901
цлара	-12902
ыроуп	-12903
ыхәба	-12904
ҵәыра	-12905
▁ааим	-12906
▁азны	-12907
▁аиӷь	-12908
▁атом	-12909
▁ацуп	-12910
▁дазы	-12911
▁иашә	-12912
▁иубо	-12913
▁иҽиз	-12914
▁мери	-12915
▁мҩак	-12916
▁нарҭ	-12917
▁нбан	-12918
▁рово	-12919
▁унеи	-12920
▁шәыҩ	-12921
▁ҳааи	-12922
▁ҳакә	-12923
гахара	-12924
гәамҭа	-12925
гәаҭеи	-12926
дышшыл	-12927
ерсона	-12928
зылԥха	-12929
зымари	-12930
иааирц	-12931
ишьҭит	-12932
ныҟәар	-12933
спореи	-12934
хамышҭ	-12935
хақәеи	-12936
хәқәеи	-12937
циклоп	-12938
шьҭуан	-12939
қәиҭра	-12940
қәыӡбо	-12941
ҵҟьара	-12942
ҿабатә	-12943
▁анкьа	-12944
▁апарт	-12945
▁аштаб	-12946
▁вопро	-12947
▁ездра	-12948
▁зҳәоз	-12949
▁иалшо	-12950
▁ианаҳ	-12951
▁иезав	-12952
▁излаи	-12953
▁ируаа	-12954
▁иунар	-12955
▁ишреи	-12956
▁иҟаҵа	-12957
▁мааҭи	-12958
▁минад	-12959
▁нанба	-12960
▁науру	-12961
▁раара	-12962
▁рзуны	-12963
▁схаҭа	-12964
▁цқьоу	-12965
▁цәырҵ	-12966
▁қапба	-12967
▁қьабз	-12968
▁ҳзаар	-12969
▁ҳәауа	-12970
▁ӡбара	-12971
зырҟәуа	-12972
зыҳәара	-12973
зыԥшӡам	-12974
уссиатә	-12975
хьоугьы	-12976
цәахара	-12977
шарбага	-12978
шьҭыбжь	-12979
▁абацәа	-12980
▁абҵара	-12981
▁агьырҭ	-12982
▁анҵәар	-12983
▁ашҭаҿы	-12984
▁гыцԥҳа	-12985
▁зҽазыз	-12986
▁иакәым	-12987
▁иашаны	-12988
▁иаҳҭар	-12989
▁ишдыру	-12990
▁мгакәа	-12991
▁медеиа	-12992
▁мҩаԥаа	-12993
▁пушкин	-12994
▁рыҳәса	-12995
▁цқьара	-12996
териалтә	-12997
шьарақәа	-12998
қәгылара	-12999
▁аарҩара	-13000
▁аизгара	-13001
▁амашәыр	-13002
▁арҵареи	-13003
▁аскульп	-13004
▁ацәикит	-13005
▁аҭаххар	-13006
▁аԥызҵаз	-13007
▁гәҭыхас	-13008
▁еиҳабыс	-13009
▁иалшоит	-13010
▁иаԥҵоуп	-13011
▁иосафат	-13012
▁ирҭахуп	-13013
▁ирҳәеит	-13014
▁иҟаҳҵаз	-13015
▁камкьиа	-13016
▁конкурс	-13017
▁кәырбан	-13018
▁раҳәара	-13019
мақаррала	-13020
▁абаҟақәа	-13021
▁акрыфара	-13022
▁алкаақәа	-13023
▁аҭеиҭыԥш	-13024
▁даанхоит	-13025
▁данынхоз	-13026
▁еиӷьтәла	-13027
▁иаарԥшуп	-13028
▁иакәхеит	-13029
▁иарҳәеит	-13030
▁иреиҳауп	-13031
▁ихарҭәаа	-13032
▁иҟалозар	-13033
▁иҳаиҭеит	-13034
▁ранажьра	-13035
▁чамагәуа	-13036
▁шәашьҭаз	-13037
▁қәыԥшцәа	-13038
▁агастроль	-13039
▁аиуристтә	-13040
▁акомпозит	-13041
▁астандарт	-13042
▁ацәахыхра	-13043
▁ашьхарахь	-13044
▁иазгәашәҭ	-13045
▁иаирхәеит	-13046
▁инапаҵаҟа	-13047
▁ирыцхраар	-13048
▁иҟарҵозеи	-13049
▁асанитартә	-13050
▁аҟәымшәышә	-13051
▁иусумҭақәа	-13052
▁иқьырсиану	-13053
▁шәазхәыцла	-13054
▁еилыркаауан	-13055
▁рыҿцәажәара	-13056
▁усбарҭақәеи	-13057
▁амаалықьцәеи	-13058
▁аполитикатәи	-13059
▁ахьымҩаԥысуа	-13060
▁ргәазҭанаҵоит	-13061
▁изеиԥшразаалак	-13062
▁шәыԥсҭазаараҿы	-13063
ге	-13064
еш	-13065
цт	-13066
юд	-13067
ҩр	-13068
бап	-13069
бер	-13070
иды	-13071
лим	-13072
маҭ	-13073
нҵа	-13074
таа	-13075
тим	-13076
ыда	-13077
ҩҩы	-13078
ҿам	-13079
▁7.	-13080
▁ia	-13081
▁ет	-13082
бӷьы	-13083
гьоу	-13084
лхны	-13085
опиа	-13086
рыжь	-13087
стан	-13088
уала	-13089
хзар	-13090
хәоз	-13091
қәԥа	-13092
ҟәыл	-13093
ҭахо	-13094
ҵәаа	-13095
ԥхеи	-13096
ԥхны	-13097
▁113	-13098
▁15.	-13099
▁250	-13100
▁алҵ	-13101
▁дса	-13102
▁еиб	-13103
▁зол	-13104
▁кир	-13105
▁мур	-13106
▁сақ	-13107
▁слу	-13108
▁ума	-13109
▁хор	-13110
▁шан	-13111
▁ҽеи	-13112
▁ԥым	-13113
мгара	-13114
мҵара	-13115
одекс	-13116
театр	-13117
тәоуп	-13118
тәырц	-13119
харам	-13120
ыхәра	-13121
қәара	-13122
ҩцәас	-13123
ҩылаа	-13124
ҳгеит	-13125
ҳәатә	-13126
ӷьӷьа	-13127
ԥареи	-13128
ԥшьра	-13129
▁1978	-13130
▁абык	-13131
▁акәт	-13132
▁ампы	-13133
▁дгәы	-13134
▁заҵә	-13135
▁иаԥс	-13136
▁игәи	-13137
▁иеиз	-13138
▁исыр	-13139
▁иԥыл	-13140
▁сшәы	-13141
▁сҭам	-13142
▁чырк	-13143
▁ҳдиа	-13144
арҭаны	-13145
гаӡеит	-13146
гьареи	-13147
гәарҭо	-13148
енџьыр	-13149
листтә	-13150
лымкаа	-13151
хыҵхыр	-13152
ырҭынч	-13153
ҟароуп	-13154
ҭаҵара	-13155
ҿсахьа	-13156
әмацәа	-13157
▁абӷьы	-13158
▁аполк	-13159
▁ацәыб	-13160
▁ашхәа	-13161
▁ашьар	-13162
▁гаври	-13163
▁даҽак	-13164
▁дибон	-13165
▁згоит	-13166
▁ианҭа	-13167
▁иацыл	-13168
▁иишаз	-13169
▁илҳәо	-13170
▁иналы	-13171
▁ирфан	-13172
▁иуҳәо	-13173
▁лыԥҳа	-13174
▁рылеи	-13175
▁рҭиит	-13176
▁текст	-13177
▁улаԥш	-13178
▁ҭелла	-13179
артуеит	-13180
гәакьоу	-13181
шәарала	-13182
ҳәахоит	-13183
▁аиашам	-13184
▁амиран	-13185
▁аочерк	-13186
▁арҵага	-13187
▁асолда	-13188
▁ацаԥха	-13189
▁аԥсшьа	-13190
▁дҳарак	-13191
▁иазнар	-13192
▁иуацәа	-13193
▁иқьиоу	-13194
▁кьараз	-13195
▁угартә	-13196
▁хәылбы	-13197
▁хәҭала	-13198
▁шԥалшо	-13199
гәалалыр	-13200
лыркаауа	-13201
хәымгара	-13202
ҭҵааҩцәа	-13203
▁абырлаш	-13204
▁акәӡами	-13205
▁анапыла	-13206
▁анымҩаԥ	-13207
▁ашьаҭар	-13208
▁аҵарҩит	-13209
▁аԥшыхәы	-13210
▁дҭахеит	-13211
▁жәҩантә	-13212
▁иааҳгар	-13213
▁иаҳаҭыр	-13214
▁ирылшоз	-13215
▁ихархәа	-13216
▁ихаҵара	-13217
▁ишаҳбаз	-13218
▁ишәхьоу	-13219
▁ишԥашәы	-13220
▁иҭаххар	-13221
▁какалиа	-13222
▁лҿырԥшы	-13223
▁муҳарби	-13224
▁насыԥла	-13225
▁ревекка	-13226
▁рнапаҿы	-13227
▁рџьабаа	-13228
▁рҭыжьра	-13229
▁рҵаҩцәа	-13230
▁рҿыԥшра	-13231
▁сҭамԥыл	-13232
▁уиҳәала	-13233
▁хыхьтәи	-13234
▁царгәыш	-13235
▁шыбжьаз	-13236
▁шәгәышә	-13237
▁ӡаԥшьба	-13238
ганахьала	-13239
кәанымкәа	-13240
▁ааԥынтәи	-13241
▁агьангьа	-13242
▁ажәакала	-13243
▁алашәцәа	-13244
▁аҿиаразы	-13245
▁дашьҭоуп	-13246
▁дақәиҭуп	-13247
▁диқәгәыӷ	-13248
▁иаанханы	-13249
▁изышьҭаз	-13250
▁иҟалаӡом	-13251
▁минадора	-13252
▁мысратәи	-13253
▁рдыруеит	-13254
▁хҭысқәоу	-13255
▁шымҩаԥыс	-13256
хылаԥшуеит	-13257
▁аиустициа	-13258
▁арбагақәа	-13259
▁архәҭақәа	-13260
▁ауасақәеи	-13261
▁аҭагалара	-13262
▁аԥҳәысгьы	-13263
▁дақәшаҳаҭ	-13264
▁иааигәара	-13265
▁илабжьара	-13266
▁иҟазаргьы	-13267
▁ленинград	-13268
▁мҩаԥыргон	-13269
▁рыздыруам	-13270
▁станислав	-13271
мҵақьақьара	-13272
▁аиԥшәмацәа	-13273
▁аоппозициа	-13274
▁апрезидиум	-13275
▁аҭҵаарақәа	-13276
▁еилышәкаар	-13277
▁рыҳәарақәа	-13278
▁аекологиатә	-13279
▁аргыларақәа	-13280
▁еицырзеиԥшу	-13281
▁иугәаларшәа	-13282
▁рырӷәӷәареи	-13283
▁шаарԥшлатәу	-13284
▁адискуссиатә	-13285
▁изакәанымкәа	-13286
▁итрадициатәу	-13287
▁петербургтәи	-13288
▁иааҟәымҵӡакәа	-13289
▁имҵахырхәаразы	-13290
▁апубликациақәеи	-13291
ԥр	-13292
зна	-13293
иам	-13294
рыр	-13295
уга	-13296
ӡуа	-13297
ашьа	-13298
вили	-13299
енат	-13300
инаи	-13301
кӡом	-13302
мида	-13303
мика	-13304
хшаз	-13305
ӡырц	-13306
▁18.	-13307
▁ааз	-13308
▁аки	-13309
▁арҩ	-13310
▁ван	-13311
▁дам	-13312
▁иҵы	-13313
▁мзы	-13314
▁ном	-13315
▁сек	-13316
▁сҟа	-13317
▁том	-13318
▁ҵәа	-13319
карра	-13320
кестр	-13321
кқәоу	-13322
лахкы	-13323
нымхо	-13324
ошьҭа	-13325
хиара	-13326
храҿа	-13327
цҳәаҩ	-13328
шароу	-13329
қәҵаҩ	-13330
ҭакыз	-13331
ҭыхҩы	-13332
ҭыԥши	-13333
ҷабра	-13334
ҷхара	-13335
▁1945	-13336
▁азна	-13337
▁афаш	-13338
▁ахаа	-13339
▁ахцә	-13340
▁ашәи	-13341
▁беиа	-13342
▁даба	-13343
▁дшәа	-13344
▁жәба	-13345
▁исеи	-13346
▁иҳам	-13347
▁иҵар	-13348
▁наго	-13349
▁оҭар	-13350
▁ҳаиц	-13351
▁ԥсоу	-13352
алырԥш	-13353
арҭбаа	-13354
быжкра	-13355
гылахо	-13356
дантәи	-13357
едагог	-13358
зыжьыз	-13359
кьыԥхь	-13360
спорти	-13361
хьуеит	-13362
қәынхо	-13363
ҟаратә	-13364
ҿагыло	-13365
ҿыцтәи	-13366
ӡырҩыз	-13367
▁ахьҭа	-13368
▁аџьеи	-13369
▁ақәны	-13370
▁аҵыхә	-13371
▁дрықә	-13372
▁дышиа	-13373
▁илԥха	-13374
▁имцны	-13375
▁инҭыр	-13376
▁ирҭоу	-13377
▁иҭаны	-13378
▁иҭбаа	-13379
▁иԥшаа	-13380
▁маӡал	-13381
▁метра	-13382
▁наӡоу	-13383
▁рыӡба	-13384
▁сарра	-13385
▁сашьа	-13386
▁содом	-13387
▁сухум	-13388
▁уҩыза	-13389
▁фырха	-13390
▁шриҭо	-13391
бааӡара	-13392
баӷәаза	-13393
жәжәара	-13394
иааитәу	-13395
кааратә	-13396
лагатәу	-13397
ланыҟәа	-13398
пансери	-13399
шәаларц	-13400
қәымшәа	-13401
▁абиуџь	-13402
▁аиҭоит	-13403
▁актқәа	-13404
▁арҭеит	-13405
▁афицар	-13406
▁ашәшьы	-13407
▁аҟәаҟа	-13408
▁аҩнаҭа	-13409
▁аԥҵаҩы	-13410
▁злымшо	-13411
▁иазкәу	-13412
▁иахьым	-13413
▁ииасуа	-13414
▁иорден	-13415
▁исыдыс	-13416
▁иҩнаҭа	-13417
▁иӡааху	-13418
▁нагоит	-13419
▁пионер	-13420
▁риҭарц	-13421
▁ровоам	-13422
▁рыплан	-13423
▁хьаҵра	-13424
▁ҭалоит	-13425
▁ҳамҭак	-13426
зылԥхеит	-13427
зыркаауа	-13428
зыԥшымыз	-13429
леижьҭеи	-13430
цәырнаго	-13431
ҭалҳәеит	-13432
▁аинвест	-13433
▁алагеит	-13434
▁амчратә	-13435
▁анхацәа	-13436
▁аҿаҳәар	-13437
▁гәҭакыс	-13438
▁иааганы	-13439
▁иаҭахым	-13440
▁имацара	-13441
▁рыхкқәа	-13442
▁рҭаххар	-13443
▁цәгьоуп	-13444
▁шәымоуп	-13445
▁ҳзаазго	-13446
▁ҳҳәозар	-13447
▁ҵабыргу	-13448
зааҭгылап	-13449
ҳазыӷьара	-13450
▁амсылман	-13451
▁амхурсҭа	-13452
▁анырҵәар	-13453
▁арепатри	-13454
▁аусуҩцәа	-13455
▁ахаҭыԥан	-13456
▁ақалақьи	-13457
▁ақырҭқәа	-13458
▁ақьалаҿы	-13459
▁еилкааны	-13460
▁зырӷәӷәо	-13461
▁иазхаҵаҩ	-13462
▁иашарыла	-13463
▁иаҳзеиҭа	-13464
▁игәазҭеи	-13465
▁излаарыц	-13466
▁иуадаҩуп	-13467
▁иҭаххеит	-13468
▁иԥхьаӡон	-13469
▁ракәхоит	-13470
▁хәарҭара	-13471
▁ҳазхысыз	-13472
лҵшьҭрақәа	-13473
қәшәарақәа	-13474
▁аанызкыло	-13475
▁адгылареи	-13476
▁аизгақәеи	-13477
▁аиқәшәара	-13478
▁алаларазы	-13479
▁амеханизм	-13480
▁валентина	-13481
▁еилыркаар	-13482
▁економика	-13483
▁зырҵабырг	-13484
▁иқәгәыӷра	-13485
▁иҽанӡааих	-13486
▁лакербаиа	-13487
▁ркандидат	-13488
▁рныҟәгара	-13489
▁рышьақәыр	-13490
▁церемониа	-13491
▁шьцыларас	-13492
▁шьҭарҵеит	-13493
▁ҭагылазаа	-13494
▁аеволиуциа	-13495
▁аҵабыргқәа	-13496
▁аҽазышәара	-13497
▁изусҭцәада	-13498
▁авидеоролик	-13499
▁аекономикеи	-13500
▁аманшәалара	-13501
▁гәаҳәарақәа	-13502
▁принципқәоу	-13503
▁рхархәарала	-13504
▁рымҩаԥгареи	-13505
▁телехәаԥшра	-13506
▁афарисеицәеи	-13507
▁ареспубликаҿы	-13508
▁дырзааҭгылеит	-13509
▁рышьақәгылара	-13510
▁сгәаанагарала	-13511
▁ареспубликақәа	-13512
▁аҭагылазаашьеи	-13513
нг	-13514
зҵо	-13515
сҩы	-13516
тов	-13517
цаа	-13518
цәу	-13519
чыр	-13520
▁88	-13521
▁iv	-13522
▁зл	-13523
▁че	-13524
▁шв	-13525
аӡаҩ	-13526
клин	-13527
лымӡ	-13528
отуа	-13529
раил	-13530
риса	-13531
ский	-13532
цәам	-13533
част	-13534
ҟьаҩ	-13535
ҩоуп	-13536
ҭааз	-13537
ҳажь	-13538
ҳана	-13539
ӡӷаб	-13540
▁106	-13541
▁133	-13542
▁ажр	-13543
▁ант	-13544
▁ашш	-13545
▁иаҩ	-13546
▁раԥ	-13547
▁руб	-13548
▁сев	-13549
▁сид	-13550
▁сых	-13551
▁ҭаҭ	-13552
▁ӷба	-13553
аанӡа	-13554
амент	-13555
амҭеи	-13556
бжьеи	-13557
гәлиа	-13558
дырбо	-13559
зышьҭ	-13560
хьгьы	-13561
цызуа	-13562
шозар	-13563
қьача	-13564
ҳҭоит	-13565
ҵарра	-13566
ҵартә	-13567
▁1980	-13568
▁аҳар	-13569
▁ддәы	-13570
▁иалх	-13571
▁иаԥы	-13572
▁пара	-13573
▁рхеи	-13574
▁тати	-13575
▁ҷлоу	-13576
ариера	-13577
жәпара	-13578
заарго	-13579
заарын	-13580
ижьырц	-13581
напқәа	-13582
скьара	-13583
цаҩцәа	-13584
циҵеит	-13585
шьҭуаз	-13586
ҳархәо	-13587
ҳәалак	-13588
ҵәаара	-13589
▁автот	-13590
▁апрез	-13591
▁арати	-13592
▁ацәик	-13593
▁аҭгар	-13594
▁аҵыср	-13595
▁аӡӡаа	-13596
▁дазха	-13597
▁данил	-13598
▁излоу	-13599
▁инеиз	-13600
▁ирбаз	-13601
▁ириҭо	-13602
▁иуана	-13603
▁ихаҿы	-13604
▁иқыҭа	-13605
▁иҭаку	-13606
▁нодар	-13607
▁рфонд	-13608
▁рҵоит	-13609
▁шроуа	-13610
▁шулшо	-13611
▁шәрыз	-13612
▁ҳаиԥш	-13613
▁ҳахьа	-13614
▁ҳашьа	-13615
▁ԥсыла	-13616
ибыҭара	-13617
ингвист	-13618
кылозар	-13619
храқәеи	-13620
шьапқәа	-13621
шәалоит	-13622
қьаратә	-13623
ҽырбара	-13624
ӷьарыла	-13625
▁аарони	-13626
▁авесса	-13627
▁акиноф	-13628
▁арххар	-13629
▁ахахьы	-13630
▁голиаф	-13631
▁гызмал	-13632
▁дгьыли	-13633
▁еибашь	-13634
▁илшара	-13635
▁инеиҵы	-13636
▁ирмари	-13637
▁коринф	-13638
▁лашара	-13639
▁минуҭк	-13640
▁наплак	-13641
▁шакәым	-13642
балароуп	-13643
лашьцара	-13644
шьақәнар	-13645
шьҭаныҟә	-13646
ҭәеишьаз	-13647
ҵанакуаз	-13648
ԥшааратә	-13649
▁абанктә	-13650
▁альберт	-13651
▁амцнцәа	-13652
▁арабтәи	-13653
▁аусумҭа	-13654
▁афбатәи	-13655
▁ахьааир	-13656
▁ақәратә	-13657
▁аҩыраҿы	-13658
▁аҳрақәа	-13659
▁дҟаларц	-13660
▁изеиҭеи	-13661
▁ироуеит	-13662
▁иубарҭа	-13663
▁миссион	-13664
▁нарыгӡа	-13665
▁раагара	-13666
▁раҳҭоит	-13667
▁ршәарҭа	-13668
▁рыхәҭан	-13669
▁шәыҽӡаа	-13670
▁ҭеиҵеит	-13671
▁ҷыҭанаа	-13672
▁ԥачалиа	-13673
урԥшуазар	-13674
▁аицҵалыҵ	-13675
▁аныҳәамш	-13676
▁арыӷьара	-13677
▁асабшазы	-13678
▁ауалԥшьа	-13679
▁ахәрақәа	-13680
▁ацентртә	-13681
▁иаҳгәала	-13682
▁ирзеиҭеи	-13683
▁ирыхәҭоу	-13684
▁иқәгылаз	-13685
▁иҟалааит	-13686
▁ркоманда	-13687
▁рыдулара	-13688
▁светлана	-13689
▁фышықәса	-13690
▁цәгьаура	-13691
▁шәаабеит	-13692
▁ҳиқәгәыӷ	-13693
▁ҵыхәаԥҵә	-13694
▁аметодқәа	-13695
▁анеиликаа	-13696
▁еиҿшәырԥш	-13697
▁иалҵшәаны	-13698
▁изааигәоу	-13699
▁ишаҳнарбо	-13700
▁иҳаракӡоу	-13701
▁мҩаԥигоит	-13702
▁рполитика	-13703
▁черқьесиа	-13704
▁ҳгәаҳҽаны	-13705
▁анапаҵаҩра	-13706
▁апаспорттә	-13707
▁ахылаԥшреи	-13708
▁зҵаарақәак	-13709
▁ишԥаанарԥш	-13710
▁иҟазаауеит	-13711
▁қьалышьбеи	-13712
▁ҳгәабзиара	-13713
пансеризациа	-13714
▁ахылаԥшратә	-13715
▁ацәгьарақәа	-13716
▁ақәыргәыӷра	-13717
▁аԥшыхәыҩцәа	-13718
▁иаашәырԥшуа	-13719
▁ирыдҳәалоуп	-13720
▁ирҿиамҭақәа	-13721
▁ринтересқәа	-13722
▁шәрыцхраала	-13723
▁ҳреспублика	-13724
▁агәнаҳаҟаҵаҩ	-13725
▁адышшыларатә	-13726
▁акрызҵазкуаз	-13727
▁амуниципалтә	-13728
▁иерусалимтәи	-13729
▁информациатә	-13730
▁иџьашьатәӡам	-13731
▁дааҟәымҵӡакәа	-13732
▁аҩынҩажәижәаба	-13733
▁ргәаанагарақәа	-13734
al	-13735
уы	-13736
хш	-13737
џы	-13738
▁ю	-13739
ата	-13740
иҩы	-13741
мил	-13742
руж	-13743
рҭо	-13744
хов	-13745
цит	-13746
цәр	-13747
ҩды	-13748
еиза	-13749
ишьа	-13750
кәын	-13751
мҭра	-13752
ныла	-13753
тель	-13754
терф	-13755
шәҭа	-13756
қәан	-13757
▁104	-13758
▁135	-13759
▁14.	-13760
▁800	-13761
▁иҟә	-13762
▁уҿы	-13763
▁фил	-13764
▁шеб	-13765
18.11	-13766
емпли	-13767
кылоу	-13768
ликәа	-13769
лозар	-13770
лҭоит	-13771
нагоу	-13772
хәреи	-13773
ҿақәа	-13774
▁авер	-13775
▁азар	-13776
▁аква	-13777
▁аназ	-13778
▁анцә	-13779
▁аоке	-13780
▁апан	-13781
▁ицны	-13782
▁ишар	-13783
▁иҵон	-13784
▁улшо	-13785
▁усла	-13786
▁шәим	-13787
едициа	-13788
ератор	-13789
зааирт	-13790
уҩцәеи	-13791
харатә	-13792
хьчеит	-13793
хьымӡӷ	-13794
▁азааи	-13795
▁акрал	-13796
▁анроу	-13797
▁афран	-13798
▁аҿықә	-13799
▁аԥҵан	-13800
▁динам	-13801
▁диуан	-13802
▁еиԥшу	-13803
▁зызку	-13804
▁ианым	-13805
▁иаҭах	-13806
▁иеила	-13807
▁изкыз	-13808
▁инхаз	-13809
▁лхатә	-13810
▁хадеи	-13811
дгыланы	-13812
заашьеи	-13813
ликаауа	-13814
нашьҭра	-13815
система	-13816
цәақәак	-13817
қәҭәара	-13818
ҳдыруеи	-13819
ԥхьакра	-13820
▁адәаҿы	-13821
▁алкого	-13822
▁амчреи	-13823
▁аниаҳа	-13824
▁ауаҭах	-13825
▁аулоит	-13826
▁афатәи	-13827
▁ацәымӷ	-13828
▁аҩганк	-13829
▁аҵәаӷә	-13830
▁васили	-13831
▁дирҵон	-13832
▁дыԥсыр	-13833
▁иагьеи	-13834
▁иазкыу	-13835
▁ииашаз	-13836
▁имҩала	-13837
▁ирхылҵ	-13838
▁иҟынӡа	-13839
▁лакәын	-13840
▁рызгьы	-13841
▁шәышԥа	-13842
▁ҭахеит	-13843
▁ҳаманы	-13844
гылараны	-13845
▁аахәара	-13846
▁абыржәы	-13847
▁адәыӷба	-13848
▁алзыршо	-13849
▁анҳамоу	-13850
▁ахсаала	-13851
▁ашәҭшьы	-13852
▁аҳәынҭқ	-13853
▁аӷбақәа	-13854
▁баҟақәа	-13855
▁далихит	-13856
▁даниель	-13857
▁дынхоит	-13858
▁дышԥары	-13859
▁еизарак	-13860
▁еилазго	-13861
▁еиликаа	-13862
▁иарбану	-13863
▁иақәшәа	-13864
▁иеиҳәаз	-13865
▁имаҵуҩы	-13866
▁маҭәарк	-13867
▁рашьцәа	-13868
▁рлагала	-13869
▁рцәеижь	-13870
▁рымаӡам	-13871
▁рыуацәа	-13872
▁рыхәҭоу	-13873
▁рыҭареи	-13874
▁шенкауа	-13875
▁шымҩаԥи	-13876
▁шьахәла	-13877
▁ҳамчқәа	-13878
▁ҳҽазыҟа	-13879
▁ҵаҵӷәыс	-13880
структура	-13881
▁акәымзар	-13882
▁анцәагьы	-13883
▁аныҳәара	-13884
▁аоригина	-13885
▁апедагог	-13886
▁астадион	-13887
▁ахыбраҿы	-13888
▁бзиаӡаны	-13889
▁дақәгәыӷ	-13890
▁зеиԥшраз	-13891
▁иазыԥшуп	-13892
▁иалҵшәоу	-13893
▁инанагӡо	-13894
▁ичмазаҩу	-13895
▁иҟашәҵаз	-13896
▁иҟәымшәы	-13897
▁иҭахызар	-13898
▁ранашьан	-13899
▁ргәырҽан	-13900
▁русуратә	-13901
▁рыԥхьара	-13902
▁хархәага	-13903
▁ҳаԥхьоит	-13904
▁ҿырҳәала	-13905
▁акомплекс	-13906
▁атрагедиа	-13907
▁аусԥҟақәа	-13908
▁ашьхарыуа	-13909
▁ашьшьыҳәа	-13910
▁дааныжьны	-13911
▁дшәырҵала	-13912
▁есқьынгьы	-13913
▁иацәыхара	-13914
▁имҩаԥигаз	-13915
▁инаԥхгара	-13916
▁инымҵәаӡо	-13917
▁иҳахәҭоуп	-13918
▁рааныжьра	-13919
▁ажәларқәеи	-13920
▁алабҿабатә	-13921
▁анаԥхгаҩыс	-13922
▁апроцедура	-13923
▁ахьаҳдыруа	-13924
▁ашьҭахьтәи	-13925
▁библейские	-13926
▁иалагаанӡа	-13927
▁иаҭәашьара	-13928
▁интересқәа	-13929
▁ишьҭанеира	-13930
▁ишԥаҳнарбо	-13931
▁иҭаацәареи	-13932
▁рызныҟәара	-13933
▁рылҵшәақәа	-13934
▁рыҟаҵаразы	-13935
▁ҳазҭагылоу	-13936
▁апаспортқәа	-13937
▁гәырӷьарыла	-13938
▁зҿлымҳарыла	-13939
▁қәмақаррала	-13940
▁ҭагылазаара	-13941
▁аманшәалареи	-13942
▁дрыцхраауеит	-13943
▁патуқәҵарала	-13944
▁реилазаараҿы	-13945
▁ҳазхәыцуазар	-13946
▁ҳаԥсҭазаареи	-13947
▁аицәажәарақәа	-13948
▁ҳҳәынҭқаррақәа	-13949
▁иабантәиҳдыруеи	-13950
ad	-13951
еқ	-13952
биа	-13953
кла	-13954
спо	-13955
тиа	-13956
хив	-13957
хыш	-13958
шид	-13959
қыҭ	-13960
ҟеи	-13961
ҷаа	-13962
▁81	-13963
▁lv	-13964
▁пу	-13965
антә	-13966
анхо	-13967
бгоу	-13968
гәба	-13969
екси	-13970
кылт	-13971
льтә	-13972
нттә	-13973
онна	-13974
онтә	-13975
сыхә	-13976
тәуа	-13977
хема	-13978
хьит	-13979
хәан	-13980
хәеи	-13981
цҳәа	-13982
қәас	-13983
ҳатә	-13984
ԥшӡа	-13985
▁116	-13986
▁138	-13987
▁аем	-13988
▁анҵ	-13989
▁ахҵ	-13990
▁бюд	-13991
▁изу	-13992
▁лин	-13993
▁мыс	-13994
▁сиа	-13995
▁сҭа	-13996
▁шлы	-13997
▁қәы	-13998
есурс	-13999
инқәа	-14000
кырҭа	-14001
овест	-14002
реиба	-14003
сратә	-14004
сырҭа	-14005
тәыҩс	-14006
циона	-14007
шыбаҩ	-14008
ыцқьа	-14009
ҭалаз	-14010
ҳаҵҳа	-14011
▁1988	-14012
▁xvii	-14013
▁агәҭ	-14014
▁алег	-14015
▁арда	-14016
▁арек	-14017
▁асср	-14018
▁аҭәа	-14019
▁бзан	-14020
▁жәаа	-14021
▁зыла	-14022
▁изҳа	-14023
▁исыл	-14024
▁иуаз	-14025
▁лаба	-14026
▁роур	-14027
▁шауа	-14028
▁шәҟа	-14029
▁ҳаир	-14030
▁ҳера	-14031
гӡакәа	-14032
еинраа	-14033
ессиан	-14034
иԥхьыт	-14035
ласҭан	-14036
лаҟәра	-14037
цқьала	-14038
шахеит	-14039
шьаҩуп	-14040
шьҭырц	-14041
ыхәҭоу	-14042
ԥсақәа	-14043
▁абааш	-14044
▁абдул	-14045
▁аиҿак	-14046
▁акаба	-14047
▁акәац	-14048
▁амҷба	-14049
▁анзор	-14050
▁апсих	-14051
▁арԥсы	-14052
▁гогиа	-14053
▁дицны	-14054
▁еизир	-14055
▁иацыз	-14056
▁ирылҵ	-14057
▁ихҭыс	-14058
▁иҭәыз	-14059
▁лхаҭа	-14060
▁реиба	-14061
▁репос	-14062
▁росси	-14063
▁сажәа	-14064
▁сцоит	-14065
▁убжьы	-14066
▁фильм	-14067
▁чкала	-14068
▁шәыԥс	-14069
▁ҭыԥны	-14070
ентациа	-14071
лхрақәа	-14072
ныҳәала	-14073
нҭыҵтәи	-14074
рҭынчуа	-14075
спекциа	-14076
фымцамч	-14077
цәаакра	-14078
ҟаҵарҭа	-14079
▁агәаҵә	-14080
▁азауад	-14081
▁акаҳуа	-14082
▁амчқәа	-14083
▁аныхам	-14084
▁бгаԥса	-14085
▁даҽаӡә	-14086
▁дрыцны	-14087
▁зҭахым	-14088
▁иаҳзаа	-14089
▁ирҭоит	-14090
▁ирҳәоз	-14091
▁исраил	-14092
▁ицәшәо	-14093
▁кьылба	-14094
▁мҩаԥыл	-14095
▁ралага	-14096
▁статиа	-14097
▁стефан	-14098
▁хьрыԥс	-14099
▁шәагаа	-14100
▁ҳаҭара	-14101
▁ҽҳәара	-14102
ргьежьра	-14103
хырхәара	-14104
ҿцәажәоз	-14105
▁агәамса	-14106
▁акорнет	-14107
▁аномина	-14108
▁аусзуҩы	-14109
▁ахьӡқәа	-14110
▁аҭаԥҟар	-14111
▁аҭырқәа	-14112
▁гәалсра	-14113
▁ихацырк	-14114
▁ихьчоит	-14115
▁раӷацәа	-14116
▁рцәыӡит	-14117
▁рынагӡа	-14118
▁рыҩнқәа	-14119
▁рыҽрыла	-14120
▁сазхәыц	-14121
▁шьҭибах	-14122
▁шәыҟоуп	-14123
▁ҳалшома	-14124
варгыланы	-14125
маԥагьара	-14126
хьазаргьы	-14127
▁азныказы	-14128
▁азымхара	-14129
▁акраамҭа	-14130
▁амҩаԥгаҩ	-14131
▁ахимиатә	-14132
▁бзиахоит	-14133
▁иааиуеит	-14134
▁ианиҵеит	-14135
▁игәамԥхо	-14136
▁ижәытәӡа	-14137
▁имарианы	-14138
▁ирыӡбеит	-14139
▁рыԥсыбаҩ	-14140
▁ҟазшьоуп	-14141
▁ҭоурыхтә	-14142
▁ҳалагеит	-14143
▁ҳахьынхо	-14144
лаҳаршәоит	-14145
наскьагара	-14146
қәиргәыӷуа	-14147
қәымгәыӷуа	-14148
▁аҳаракыра	-14149
▁аԥсшьареи	-14150
▁аԥхьараҿы	-14151
▁диазҵааит	-14152
▁еиҩызареи	-14153
▁иажәақәеи	-14154
▁иазгәаҭан	-14155
▁ижәытәӡоу	-14156
▁ицхраауан	-14157
▁обиектқәа	-14158
▁рыдгалара	-14159
▁шәыҽӡаашә	-14160
▁ҭаҭласҭан	-14161
▁ҳанхаларц	-14162
▁ҳхаҳмыршҭ	-14163
▁ӷәӷәахоит	-14164
▁адемонцәеи	-14165
▁аизарақәеи	-14166
▁ахьынӡаҭаз	-14167
▁аҵарашықәс	-14168
▁згәабзиара	-14169
▁иааҳарԥшыр	-14170
▁иаҳнарҵоит	-14171
▁ицхраауеит	-14172
▁реилыргара	-14173
▁џьынџьолиа	-14174
▁афырхаҵареи	-14175
▁иашьашәалоу	-14176
▁удмуртиатәи	-14177
▁ҳҭаацәараҿы	-14178
▁анаркотикқәа	-14179
▁дрыхцәажәеит	-14180
▁изакәанԥҟара	-14181
▁илгәалашәоит	-14182
▁иҳаилиркааит	-14183
▁наԥхгараҭара	-14184
▁ҳҽацәаҳахьча	-14185
▁афотосахьақәа	-14186
▁ирзеиҭеиҳәеит	-14187
▁ҭышәынтәалоуп	-14188
▁аинвестициақәа	-14189
▁игәымбылџьбара	-14190
▁алахьеиқәҵаратә	-14191
if	-14192
рч	-14193
▁k	-14194
буд	-14195
зис	-14196
лис	-14197
осм	-14198
тыз	-14199
тәх	-14200
уро	-14201
ҭит	-14202
▁бу	-14203
бина	-14204
грам	-14205
иԥыр	-14206
мина	-14207
нтин	-14208
ринц	-14209
рсра	-14210
суан	-14211
хшьа	-14212
хәоу	-14213
хәык	-14214
џьан	-14215
ҭада	-14216
ҷара	-14217
▁111	-14218
▁126	-14219
▁189	-14220
▁абж	-14221
▁аде	-14222
▁арс	-14223
▁ахи	-14224
▁баҩ	-14225
▁икы	-14226
▁мел	-14227
▁тәы	-14228
▁хна	-14229
▁шәз	-14230
▁ҭыҵ	-14231
▁ҳаҩ	-14232
андеи	-14233
андид	-14234
анџьа	-14235
аркра	-14236
вести	-14237
гьаны	-14238
гәаӷь	-14239
елиеи	-14240
зымго	-14241
изара	-14242
иҟәыҭ	-14243
шәома	-14244
ыргар	-14245
ҩаԥыр	-14246
ҭатәи	-14247
ҳәома	-14248
ҵаарц	-14249
ҿыхра	-14250
ԥырра	-14251
▁абот	-14252
▁авиа	-14253
▁аиде	-14254
▁анеф	-14255
▁ахьу	-14256
▁аҽыҩ	-14257
▁аҿкы	-14258
▁бога	-14259
▁дхын	-14260
▁етап	-14261
▁зҵаз	-14262
▁иаӡә	-14263
▁илан	-14264
▁имцу	-14265
▁ишын	-14266
▁луан	-14267
▁савл	-14268
▁стра	-14269
▁сыԥс	-14270
▁уреи	-14271
▁шәца	-14272
▁шәша	-14273
▁ыҟоу	-14274
▁ҳшьа	-14275
▁ҳшәы	-14276
▁ӡӷаб	-14277
▁ԥара	-14278
галаны	-14279
еканал	-14280
еллект	-14281
ирхеит	-14282
иҳәеит	-14283
хәозар	-14284
цәгьар	-14285
ҭирала	-14286
ҳәааит	-14287
ӡацызт	-14288
ӡыӡара	-14289
ԥхасҭа	-14290
▁абаҩр	-14291
▁агәыӡ	-14292
▁акәыз	-14293
▁алҳар	-14294
▁апрак	-14295
▁ахҭыԥ	-14296
▁аҩхаа	-14297
▁газеҭ	-14298
▁еиӷьы	-14299
▁иаага	-14300
▁ианиз	-14301
▁иеиба	-14302
▁ирлас	-14303
▁иԥхас	-14304
▁лабжь	-14305
▁лашьа	-14306
▁рзаҳа	-14307
▁силеи	-14308
▁хырҩа	-14309
▁цхыра	-14310
▁цырак	-14311
▁цәаҩа	-14312
▁чечен	-14313
▁шебзы	-14314
▁шимаз	-14315
▁шәрыц	-14316
▁шәҭыԥ	-14317
▁ҭыжьы	-14318
▁ҳариа	-14319
▁ҳашба	-14320
▁ҳнаӡа	-14321
гылазар	-14322
даҳкыло	-14323
онатқәа	-14324
ссаџьыр	-14325
хынҳәны	-14326
цәажәаз	-14327
шәымҵан	-14328
ҵанаҳәо	-14329
ҷаҳауаз	-14330
▁аниуаз	-14331
▁аниҳәа	-14332
▁анырба	-14333
▁арбара	-14334
▁арԥхар	-14335
▁ашоура	-14336
▁аҿаҵар	-14337
▁аԥырак	-14338
▁бзанҵы	-14339
▁дибоит	-14340
▁динамо	-14341
▁еиԥшны	-14342
▁жәҩани	-14343
▁зыбжьы	-14344
▁зылшоз	-14345
▁иазхиа	-14346
▁ирылоу	-14347
▁ирыхьӡ	-14348
▁ирҳәон	-14349
▁ирҵара	-14350
▁ихраҿа	-14351
▁ишьҭит	-14352
▁иқәӡаа	-14353
▁иҭадыр	-14354
▁иԥсыҽу	-14355
▁ргьама	-14356
▁рублей	-14357
▁рутерф	-14358
▁узҳәом	-14359
▁усуреи	-14360
▁учения	-14361
▁ханаан	-14362
▁шәҩыла	-14363
▁ҳҭахын	-14364
гылахьоу	-14365
дҳәалара	-14366
илахәара	-14367
ларшәара	-14368
натәуеит	-14369
ныҟәозар	-14370
рааԥсара	-14371
шәҟәқәеи	-14372
қәиҭтәра	-14373
қәшәазар	-14374
ӡбарақәа	-14375
▁адәқьан	-14376
▁азинқәа	-14377
▁азхаӡом	-14378
▁аиҿырԥш	-14379
▁амармал	-14380
▁ахдырра	-14381
▁аҭыԥаҿы	-14382
▁аӡбаҩыс	-14383
▁аӡынтәи	-14384
▁аԥсҳара	-14385
▁бибилов	-14386
▁бџьарла	-14387
▁еизшәыр	-14388
▁ирзыԥшу	-14389
▁иршьоит	-14390
▁иуаххьа	-14391
▁иулшома	-14392
▁иқьиара	-14393
▁иҟаҵара	-14394
▁иԥылара	-14395
▁рнапқәа	-14396
▁рыларҵә	-14397
▁рымшала	-14398
▁шыҟамло	-14399
▁шьапыла	-14400
▁шьҭыхны	-14401
▁ԥшӡақәа	-14402
еинраалак	-14403
хылҵшьҭра	-14404
цәажәалар	-14405
қәшаҳаҭым	-14406
ӷьеишьеит	-14407
▁адраматә	-14408
▁анааилак	-14409
▁арӡынбеи	-14410
▁ауҭраҭых	-14411
▁афранцыз	-14412
▁ахаҳәқәа	-14413
▁ақәылара	-14414
▁аԥенџьыр	-14415
▁аԥҟаԥҵәа	-14416
▁еиӷьхоит	-14417
▁зҽацәызы	-14418
▁иаҟәыҵит	-14419
▁изымӡырҩ	-14420
▁икьыԥхьу	-14421
▁иуԥылоит	-14422
▁ицәгьоуп	-14423
▁иԥырхага	-14424
▁кырӡагьы	-14425
▁маҵзуреи	-14426
▁налаҵаны	-14427
▁цахнакиа	-14428
▁џьансыхә	-14429
▁ҳалагоит	-14430
лкаауамызт	-14431
▁акьыԥхьра	-14432
▁алагалоуп	-14433
▁афильмқәа	-14434
▁гәакьақәа	-14435
▁дааишьҭит	-14436
▁еилышәкаа	-14437
▁иазааигәа	-14438
▁иазырханы	-14439
▁иазыԥҵәоу	-14440
▁иаҳирбеит	-14441
▁ханаантәи	-14442
▁хылҵшьҭра	-14443
▁хынраалар	-14444
▁шықәсатәи	-14445
зыманшәалоу	-14446
ҵахырхәареи	-14447
▁абзазаратә	-14448
▁абиуџьеттә	-14449
▁арзаҳалқәа	-14450
▁ахаҭарақәа	-14451
▁ацәҳәыраҿы	-14452
▁даныхәыҷыз	-14453
▁имҩақәҵара	-14454
▁ишԥаныруеи	-14455
▁публикациа	-14456
▁рҽаладырхә	-14457
▁аланарҵәеит	-14458
▁аԥсҭазаашьа	-14459
▁дыззымдыруа	-14460
▁иашәырхәала	-14461
▁иҭаацәараҿы	-14462
▁шәҽазышәшәа	-14463
▁шԥамҩаԥигеи	-14464
▁адгьылбжьаха	-14465
▁аилатәарақәа	-14466
▁аиҿкаарақәеи	-14467
▁атрадициақәа	-14468
▁дызлацәажәоз	-14469
▁аҳәынҭқарраҿы	-14470
▁дақәшаҳаҭхеит	-14471
▁интеллигенциа	-14472
▁ашәҭшьыҵәрақәа	-14473
09	-14474
si	-14475
лх	-14476
11-	-14477
ага	-14478
нов	-14479
рхь	-14480
цых	-14481
чар	-14482
▁79	-14483
▁ем	-14484
▁рт	-14485
▁сш	-14486
бжьо	-14487
бора	-14488
есиа	-14489
лҵны	-14490
усин	-14491
фани	-14492
хьыӡ	-14493
цәан	-14494
ыргы	-14495
ҟәаԥ	-14496
ҩыра	-14497
ҭран	-14498
ҳҵар	-14499
ҵыра	-14500
▁абр	-14501
▁аӡб	-14502
▁гаг	-14503
▁дзи	-14504
▁заб	-14505
▁зам	-14506
▁иав	-14507
▁мих	-14508
▁оон	-14509
▁рҽы	-14510
▁ҳәы	-14511
▁ҵас	-14512
арина	-14513
баала	-14514
дагьы	-14515
дырам	-14516
еихыр	-14517
итель	-14518
кылом	-14519
уаҩык	-14520
хыҵуа	-14521
чаара	-14522
шанхо	-14523
шьаҟа	-14524
шьқәа	-14525
шәауа	-14526
шәхла	-14527
шәҵар	-14528
ҟҟара	-14529
ԥагьа	-14530
ԥханы	-14531
▁абла	-14532
▁афот	-14533
▁аӡар	-14534
▁аԥар	-14535
▁еиҿи	-14536
▁емма	-14537
▁здыр	-14538
▁зона	-14539
▁иалу	-14540
▁ираа	-14541
▁онла	-14542
▁рхьы	-14543
▁рыду	-14544
▁сери	-14545
▁сыгә	-14546
▁уҩны	-14547
▁факт	-14548
▁хьыр	-14549
▁шыры	-14550
▁џьыр	-14551
▁ҳрыц	-14552
арҳәра	-14553
гәдууп	-14554
изҳара	-14555
ирхәоз	-14556
ицакра	-14557
ларшәо	-14558
мшәара	-14559
шәырҵо	-14560
ынхара	-14561
ыргарц	-14562
қәҵага	-14563
ҭқарра	-14564
ҵәахуа	-14565
ҽхәара	-14566
ԥхашьа	-14567
▁аадыр	-14568
▁аазго	-14569
▁абунт	-14570
▁абхаз	-14571
▁абылр	-14572
▁азқьы	-14573
▁анбан	-14574
▁аннеи	-14575
▁ануар	-14576
▁ауреи	-14577
▁аҟәыш	-14578
▁аҽыхә	-14579
▁аӡыхь	-14580
▁даниз	-14581
▁даҿын	-14582
▁докум	-14583
▁еиҿаҳ	-14584
▁зхымҵ	-14585
▁иалаҳ	-14586
▁изнеи	-14587
▁иқәыз	-14588
▁мураҭ	-14589
▁очамч	-14590
▁рашид	-14591
▁сҳәан	-14592
▁ҭалаз	-14593
▁ҳагба	-14594
▁ҳәаак	-14595
графиеи	-14596
дгалара	-14597
дициатә	-14598
енгелиа	-14599
иҭагара	-14600
куамызт	-14601
мзароуп	-14602
раалара	-14603
хәаратә	-14604
шьахоит	-14605
ҿлымҳау	-14606
ԥхьаӡоу	-14607
▁абжьар	-14608
▁аиуреи	-14609
▁аколле	-14610
▁аргама	-14611
▁асезон	-14612
▁атитул	-14613
▁ачгара	-14614
▁ақәымч	-14615
▁аҳазал	-14616
▁велико	-14617
▁гәцара	-14618
▁доллар	-14619
▁дыбзиа	-14620
▁еиздыр	-14621
▁зхатәы	-14622
▁иаанам	-14623
▁иахьҳа	-14624
▁иаҩыза	-14625
▁имҩаҿы	-14626
▁иҟазҵо	-14627
▁иҭакыз	-14628
▁лҵшәас	-14629
▁музыка	-14630
▁рыцура	-14631
▁шәымаз	-14632
▁шәҟәуп	-14633
▁џьарак	-14634
▁қьиара	-14635
▁ҟарҵар	-14636
▁ӡбаҩыс	-14637
▁ԥарала	-14638
гатәқәеи	-14639
чаԥалара	-14640
шьақәдыр	-14641
▁аанкыла	-14642
▁актриса	-14643
▁алагерь	-14644
▁анқәаби	-14645
▁ахирург	-14646
▁ашколтә	-14647
▁далагар	-14648
▁еиҳәеит	-14649
▁зхьыԥшу	-14650
▁ирацәан	-14651
▁ирызкуп	-14652
▁ихылҵыз	-14653
▁рзыԥшуп	-14654
▁рышьҭра	-14655
▁рҭаареи	-14656
▁татиана	-14657
▁шшәылшо	-14658
▁ҳаракыз	-14659
гәыбзыӷра	-14660
наҳашьҭит	-14661
▁ажәақәеи	-14662
▁азышьҭны	-14663
▁аилагара	-14664
▁амаршрут	-14665
▁анцәахәы	-14666
▁ацәҳәыра	-14667
▁иазызкуа	-14668
▁иахьанӡа	-14669
▁иацклаԥш	-14670
▁иашарала	-14671
▁иреиӷьыз	-14672
▁ирыбжьаз	-14673
▁ихымԥада	-14674
▁ицәырҵыз	-14675
▁ишабалак	-14676
▁иҟарҵоит	-14677
[...]
