<unk>	0
<s>	0
</s>	0
▁п	-0
▁с	-1
▁в	-2
▁,	-3
▁и	-4
▁н	-5
ст	-6
▁.	-7
ни	-8
▁о	-9
то	-10
ра	-11
но	-12
го	-13
ро	-14
▁к	-15
ре	-16
ли	-17
▁по	-18
ть	-19
▁м	-20
▁б	-21
▁д	-22
▁на	-23
те	-24
ва	-25
ри	-26
ны	-27
ко	-28
во	-29
ет	-30
ла	-31
▁ч	-32
ен	-33
▁а	-34
за	-35
ль	-36
та	-37
ло	-38
ле	-39
да	-40
ся	-41
на	-42
▁не	-43
▁у	-44
ем	-45
ка	-46
ер	-47
▁1	-48
ени	-49
▁ко	-50
▁ра	-51
▁:	-52
▁со	-53
его	-54
ки	-55
ви	-56
ми	-57
▁за	-58
▁что	-59
ти	-60
ди	-61
ве	-62
▁про	-63
▁ка	-64
ру	-65
▁при	-66
▁э	-67
▁во	-68
▁от	-69
де	-70
▁«	-71
▁»	-72
мо	-73
ля	-74
сти	-75
▁об	-76
жи	-77
▁)	-78
ес	-79
▁го	-80
▁то	-81
по	-82
ха	-83
▁бо	-84
чи	-85
▁2	-86
зи	-87
ча	-88
до	-89
хо	-90
же	-91
▁мо	-92
▁г	-93
▁(	-94
▁пре	-95
▁?	-96
лу	-97
сть	-98
▁до	-99
ный	-100
▁из	-101
ци	-102
бо	-103
▁т	-104
ры	-105
▁бы	-106
▁аб	-107
ние	-108
ма	-109
ду	-110
лю	-111
га	-112
ис	-113
▁вы	-114
ста	-115
ться	-116
▁это	-117
не	-118
ши	-119
си	-120
▁ре	-121
▁как	-122
тель	-123
вы	-124
▁та	-125
сто	-126
▁вс	-127
▁те	-128
▁з	-129
▁мы	-130
ско	-131
▁абха	-132
ере	-133
ния	-134
сь	-135
ей	-136
▁@	-137
-@	-138
▁@-@	-139
ну	-140
ня	-141
му	-142
▁сво	-143
ги	-144
▁иего	-145
ного	-146
▁—	-147
ств	-148
▁е	-149
щи	-150
▁кото	-151
▁де	-152
ной	-153
ме	-154
▁он	-155
▁лю	-156
▁раз	-157
▁но	-158
▁ва	-159
▁ми	-160
ют	-161
▁под	-162
жно	-163
са	-164
ения	-165
▁да	-166
ение	-167
бли	-168
ку	-169
ба	-170
сп	-171
▁я	-172
ных	-173
бы	-174
ство	-175
▁его	-176
со	-177
▁ста	-178
ря	-179
▁3	-180
▁ма	-181
ему	-182
▁ф	-183
▁ве	-184
▁ни	-185
▁бу	-186
ту	-187
▁ли	-188
▁абхази	-189
ше	-190
ные	-191
▁са	-192
ша	-193
каза	-194
че	-195
су	-196
гда	-197
ца	-198
▁ме	-199
▁–	-200
▁ро	-201
▁жи	-202
вер	-203
жа	-204
▁все	-205
гу	-206
мен	-207
▁слу	-208
▁пос	-209
вать	-210
▁су	-211
▁х	-212
зо	-213
сс	-214
▁которы	-215
▁дру	-216
ще	-217
ски	-218
зы	-219
ствен	-220
би	-221
па	-222
ды	-223
ства	-224
▁иис	-225
▁так	-226
▁па	-227
▁пере	-228
▁иису	-229
▁се	-230
спо	-231
▁пред	-232
чес	-233
ется	-234
▁они	-235
бе	-236
ты	-237
▁воз	-238
ность	-239
▁;	-240
▁хо	-241
▁би	-242
▁для	-243
мы	-244
▁4	-245
▁пра	-246
▁же	-247
▁чтобы	-248
ща	-249
тся	-250
ным	-251
▁нас	-252
лей	-253
▁или	-254
вет	-255
▁си	-256
▁ст	-257
ции	-258
▁помо	-259
мя	-260
▁ви	-261
ное	-262
если	-263
це	-264
▁абхазии	-265
про	-266
зна	-267
▁если	-268
ень	-269
▁когда	-270
мер	-271
ву	-272
▁их	-273
вле	-274
лы	-275
▁5	-276
вля	-277
дет	-278
вя	-279
▁че	-280
▁нам	-281
▁сло	-282
▁зна	-283
▁иегова	-284
▁од	-285
▁ду	-286
об	-287
пре	-288
▁вре	-289
убли	-290
ден	-291
сту	-292
▁му	-293
пи	-294
▁ру	-295
лся	-296
▁бе	-297
▁кон	-298
ан	-299
ходи	-300
▁библи	-301
жен	-302
ков	-303
▁наро	-304
кой	-305
▁бога	-306
▁ин	-307
ном	-308
лен	-309
ющи	-310
вори	-311
▁жиз	-312
▁сто	-313
▁бла	-314
стра	-315
▁хри	-316
нима	-317
ров	-318
▁20	-319
▁кто	-320
▁респ	-321
▁республи	-322
ности	-323
▁свои	-324
▁иисус	-325
ху	-326
▁6	-327
ке	-328
▁сказа	-329
бра	-330
лове	-331
▁поч	-332
дя	-333
▁!	-334
жет	-335
▁19	-336
нии	-337
▁челове	-338
нов	-339
▁10	-340
лись	-341
тя	-342
▁рабо	-343
дь	-344
лет	-345
пра	-346
▁бра	-347
жда	-348
▁ты	-349
пе	-350
ского	-351
дар	-352
ная	-353
▁им	-354
йте	-355
гра	-356
лько	-357
ской	-358
▁ку	-359
▁благо	-360
▁которые	-361
▁ну	-362
▁7	-363
▁дол	-364
▁вер	-365
▁пер	-366
ск	-367
дей	-368
▁после	-369
▁боль	-370
▁ио	-371
бя	-372
бу	-373
▁будет	-374
мот	-375
▁расс	-376
▁обра	-377
се	-378
▁было	-379
чески	-380
ении	-381
▁ца	-382
сси	-383
▁стра	-384
▁был	-385
▁ос	-386
тов	-387
▁гла	-388
▁говори	-389
нь	-390
▁также	-391
зыва	-392
▁8	-393
гла	-394
▁суху	-395
ети	-396
рия	-397
вание	-398
стви	-399
он	-400
▁15	-401
вой	-402
▁други	-403
▁почему	-404
▁абхаз	-405
▁12	-406
шь	-407
ком	-408
▁11	-409
▁9	-410
▁ча	-411
▁республики	-412
стоя	-413
пу	-414
жд	-415
стре	-416
ству	-417
▁того	-418
ром	-419
▁иеговы	-420
▁ш	-421
дни	-422
ную	-423
чита	-424
▁абхазия	-425
▁бог	-426
зу	-427
▁том	-428
ными	-429
▁уча	-430
▁время	-431
▁ц	-432
иса	-433
▁ор	-434
тели	-435
теля	-436
▁буду	-437
▁библии	-438
▁отно	-439
▁собра	-440
▁госу	-441
▁испо	-442
▁свя	-443
▁пу	-444
ются	-445
чь	-446
ска	-447
дер	-448
▁14	-449
▁наш	-450
ция	-451
ор	-452
▁государ	-453
▁зем	-454
она	-455
▁сем	-456
▁ему	-457
▁13	-458
телей	-459
тому	-460
рова	-461
▁вопро	-462
▁сер	-463
чно	-464
▁прези	-465
▁предста	-466
вед	-467
рен	-468
тив	-469
лось	-470
вый	-471
▁эти	-472
▁президен	-473
ский	-474
жду	-475
▁дела	-476
▁ба	-477
▁этом	-478
▁лет	-479
▁ап	-480
▁сле	-481
▁может	-482
▁встре	-483
▁цар	-484
▁нужно	-485
▁сухум	-486
ник	-487
▁слова	-488
▁лу	-489
▁христи	-490
фи	-491
ге	-492
▁ар	-493
▁спо	-494
лия	-495
▁ле	-496
▁орга	-497
▁оста	-498
▁служ	-499
▁чем	-500
▁сказал	-501
▁быть	-502
▁ту	-503
▁ха	-504
▁людей	-505
вь	-506
сы	-507
▁оч	-508
▁мини	-509
кие	-510
▁отк	-511
▁16	-512
▁17	-513
дин	-514
▁иегове	-515
▁были	-516
▁возмо	-517
▁роди	-518
дно	-519
▁тем	-520
▁она	-521
▁года	-522
хов	-523
аль	-524
води	-525
▁га	-526
сны	-527
рой	-528
том	-529
▁служи	-530
▁ал	-531
ев	-532
сте	-533
▁росси	-534
▁&	-535
▁есть	-536
▁можно	-537
▁ан	-538
нам	-539
▁наши	-540
▁который	-541
▁них	-542
▁только	-543
▁одна	-544
рии	-545
фе	-546
▁зако	-547
лов	-548
ника	-549
▁проя	-550
▁мно	-551
кого	-552
▁само	-553
▁апсны	-554
нный	-555
▁жизни	-556
вания	-557
рь	-558
вали	-559
▁дея	-560
▁нача	-561
дела	-562
▁ав	-563
▁возможно	-564
▁иисуса	-565
▁чу	-566
тельно	-567
блей	-568
▁совер	-569
ний	-570
▁между	-571
▁вла	-572
▁бес	-573
▁18	-574
▁любо	-575
▁поэ	-576
лом	-577
▁фи	-578
виде	-579
▁ю	-580
▁ее	-581
▁без	-582
▁исти	-583
кое	-584
▁тре	-585
вал	-586
чение	-587
▁органи	-588
▁поз	-589
казыва	-590
▁люди	-591
▁учи	-592
лась	-593
пресс	-594
▁жизнь	-595
шения	-596
жь	-597
▁мен	-598
▁много	-599
▁апсныпресс	-600
гут	-601
род	-602
▁полу	-603
вить	-604
▁себя	-605
жем	-606
хи	-607
▁тех	-608
нять	-609
▁изу	-610
пове	-611
▁боле	-612
▁стать	-613
▁тру	-614
▁над	-615
▁вас	-616
▁объ	-617
▁сре	-618
▁мин	-619
▁государствен	-620
▁народ	-621
▁минист	-622
▁нап	-623
▁день	-624
▁ж	-625
▁каж	-626
ских	-627
чени	-628
шен	-629
▁семь	-630
▁ис	-631
▁алла	-632
▁ла	-633
▁будут	-634
▁этого	-635
рес	-636
▁язы	-637
▁испол	-638
дов	-639
▁тво	-640
зин	-641
▁очень	-642
торы	-643
▁сы	-644
тор	-645
▁еще	-646
тра	-647
тия	-648
▁обсу	-649
▁доб	-650
▁ди	-651
чный	-652
ек	-653
мотри	-654
лан	-655
▁кро	-656
▁совет	-657
▁исто	-658
нить	-659
дня	-660
▁вой	-661
стве	-662
▁пар	-663
▁прои	-664
зда	-665
▁уже	-666
хра	-667
▁рай	-668
▁руко	-669
▁жен	-670
▁брать	-671
мени	-672
кло	-673
▁иоан	-674
▁многи	-675
▁ад	-676
▁даже	-677
▁пи	-678
▁куль	-679
ней	-680
▁всем	-681
▁сего	-682
▁согла	-683
вил	-684
лек	-685
▁вз	-686
ваться	-687
▁201	-688
льно	-689
▁сооб	-690
▁кре	-691
нию	-692
▁гра	-693
▁сдела	-694
▁пример	-695
бря	-696
▁чи	-697
▁духов	-698
▁культу	-699
▁аба	-700
▁-	-701
вши	-702
▁сегодня	-703
▁вам	-704
▁любовь	-705
▁мат	-706
▁меня	-707
▁пло	-708
вод	-709
кре	-710
▁&#	-711
ением	-712
▁богу	-713
чения	-714
▁неко	-715
пы	-716
ступ	-717
пол	-718
рт	-719
▁моли	-720
▁пропове	-721
▁узна	-722
▁абз	-723
▁це	-724
ям	-725
▁прави	-726
▁гу	-727
льный	-728
▁поэтому	-729
шение	-730
▁более	-731
▁своих	-732
соб	-733
ению	-734
▁серд	-735
▁ответ	-736
мба	-737
дом	-738
▁всех	-739
▁инте	-740
▁долж	-741
▁человек	-742
▁больше	-743
ез	-744
▁пе	-745
▁была	-746
мети	-747
▁уве	-748
▁следу	-749
▁помога	-750
кра	-751
▁исп	-752
▁моло	-753
ерт	-754
▁могут	-755
тно	-756
щен	-757
▁созда	-758
▁21	-759
чу	-760
вает	-761
▁году	-762
сты	-763
фор	-764
▁фе	-765
▁ло	-766
▁&#9	-767
▁необ	-768
ские	-769
▁пол	-770
▁разви	-771
вых	-772
нуть	-773
▁ша	-774
▁свою	-775
▁некоторы	-776
▁́	-777
▁вели	-778
сно	-779
▁сот	-780
▁поддер	-781
вел	-782
▁которо	-783
вно	-784
ников	-785
▁этот	-786
нием	-787
седа	-788
▁него	-789
▁гру	-790
▁нау	-791
▁ско	-792
шо	-793
▁тер	-794
ления	-795
▁подо	-796
▁люби	-797
▁мне	-798
▁хоро	-799
▁своей	-800
рок	-801
▁ак	-802
▁обо	-803
▁22	-804
▁сторо	-805
цы	-806
▁организа	-807
▁име	-808
слу	-809
дить	-810
нес	-811
▁народа	-812
▁образо	-813
вые	-814
▁приня	-815
ким	-816
ений	-817
▁мар	-818
ак	-819
чен	-820
▁однако	-821
ван	-822
▁госпо	-823
джи	-824
▁важно	-825
тие	-826
▁необходи	-827
▁проявля	-828
▁можем	-829
▁ти	-830
▁божь	-831
чить	-832
дра	-833
нее	-834
▁цен	-835
▁собрания	-836
▁пла	-837
ском	-838
ющ	-839
рей	-840
▁отмети	-841
▁нет	-842
три	-843
▁других	-844
зан	-845
▁рас	-846
▁ри	-847
гово	-848
▁бли	-849
▁24	-850
кий	-851
▁луч	-852
▁гре	-853
▁чув	-854
тей	-855
ете	-856
▁обще	-857
▁помощ	-858
▁библей	-859
ких	-860
▁посту	-861
пис	-862
нет	-863
▁христиа	-864
▁виде	-865
▁наде	-866
ья	-867
▁свиде	-868
▁эк	-869
нен	-870
▁ком	-871
ходя	-872
▁писа	-873
кую	-874
вления	-875
▁всего	-876
▁президент	-877
▁сата	-878
▁25	-879
▁кни	-880
▁тра	-881
чества	-882
лем	-883
▁23	-884
ющий	-885
дем	-886
▁ус	-887
вая	-888
ерк	-889
▁смер	-890
▁представи	-891
ках	-892
жать	-893
стро	-894
йти	-895
▁мог	-896
▁перед	-897
▁рау	-898
вича	-899
▁участи	-900
цию	-901
▁этой	-902
цион	-903
▁оте	-904
▁должны	-905
▁пет	-906
▁горо	-907
▁жела	-908
рая	-909
▁ев	-910
прия	-911
▁христиан	-912
тельный	-913
▁шко	-914
ствовать	-915
раи	-916
▁ок	-917
вого	-918
мина	-919
▁вме	-920
жение	-921
▁один	-922
▁кор	-923
▁поли	-924
▁своего	-925
▁откры	-926
дол	-927
сла	-928
мента	-929
▁добро	-930
▁ним	-931
▁пока	-932
▁где	-933
стя	-934
ление	-935
▁друго	-936
циаль	-937
▁случа	-938
зе	-939
тить	-940
ложи	-941
▁израи	-942
▁р	-943
▁хотя	-944
ники	-945
▁работа	-946
▁радо	-947
вление	-948
пас	-949
▁хаджи	-950
ному	-951
▁сов	-952
▁земле	-953
▁детей	-954
▁расп	-955
▁учени	-956
чет	-957
ческий	-958
▁хаджимба	-959
▁иегову	-960
яс	-961
стью	-962
пер	-963
▁коми	-964
кая	-965
шел	-966
▁стал	-967
ющие	-968
▁потому	-969
тельства	-970
тер	-971
▁смо	-972
▁какие	-973
рату	-974
▁прочита	-975
ющих	-976
▁пес	-977
▁тот	-978
▁тогда	-979
▁30	-980
лага	-981
▁дей	-982
▁прит	-983
нения	-984
▁россий	-985
ливо	-986
от	-987
нд	-988
тери	-989
▁помощь	-990
чество	-991
▁человека	-992
ждения	-993
▁обла	-994
▁кроме	-995
чать	-996
▁междуна	-997
нем	-998
ит	-999
цу	-1000
▁своим	-1001
▁многие	-1002
мыш	-1003
ровать	-1004
ностью	-1005
ональ	-1006
▁глав	-1007
▁слово	-1008
▁призна	-1009
нение	-1010
▁осно	-1011
▁вопросы	-1012
▁сохра	-1013
цо	-1014
▁обе	-1015
ую	-1016
вка	-1017
▁абазин	-1018
▁праз	-1019
▁людя	-1020
▁благода	-1021
рудни	-1022
▁говорится	-1023
▁тур	-1024
▁международ	-1025
▁свобо	-1026
дера	-1027
▁мир	-1028
сить	-1029
▁зак	-1030
▁кра	-1031
▁апо	-1032
ствия	-1033
▁зада	-1034
ят	-1035
▁внима	-1036
▁..	-1037
▁/	-1038
▁мира	-1039
▁род	-1040
▁неза	-1041
▁прош	-1042
бира	-1043
тем	-1044
▁молит	-1045
▁парла	-1046
▁понима	-1047
тельство	-1048
▁счита	-1049
▁w	-1050
▁спе	-1051
▁некоторые	-1052
лить	-1053
▁побе	-1054
сов	-1055
ять	-1056
рить	-1057
▁всегда	-1058
▁апосто	-1059
▁сотрудни	-1060
▁вот	-1061
▁относи	-1062
▁деле	-1063
логи	-1064
льзо	-1065
▁необходимо	-1066
вести	-1067
00	-1068
дова	-1069
нно	-1070
▁тыся	-1071
емо	-1072
▁сра	-1073
▁продол	-1074
▁сти	-1075
▁участие	-1076
▁павел	-1077
ская	-1078
▁обя	-1079
▁побу	-1080
▁неб	-1081
▁тебе	-1082
дро	-1083
▁слуша	-1084
▁смотри	-1085
▁отметил	-1086
стано	-1087
ыта	-1088
▁президента	-1089
▁...	-1090
▁сча	-1091
кто	-1092
▁себе	-1093
▁коне	-1094
спе	-1095
преде	-1096
сколько	-1097
вест	-1098
при	-1099
жения	-1100
▁веру	-1101
▁какой	-1102
▁говорит	-1103
▁год	-1104
▁состоя	-1105
вид	-1106
▁воск	-1107
▁которых	-1108
ман	-1109
шего	-1110
▁фа	-1111
▁тебя	-1112
▁28	-1113
▁ки	-1114
▁выра	-1115
ственной	-1116
▁соб	-1117
▁подоб	-1118
казал	-1119
ходит	-1120
ческой	-1121
чает	-1122
▁полити	-1123
жде	-1124
▁ию	-1125
▁меро	-1126
▁нико	-1127
▁чере	-1128
зя	-1129
▁дву	-1130
▁мероприя	-1131
менно	-1132
вич	-1133
▁ск	-1134
▁спра	-1135
▁должно	-1136
▁26	-1137
▁дет	-1138
▁стро	-1139
▁кажды	-1140
▁забо	-1141
вра	-1142
▁муж	-1143
▁председа	-1144
фа	-1145
рта	-1146
▁важ	-1147
▁проб	-1148
▁аллах	-1149
ших	-1150
▁людям	-1151
▁россии	-1152
▁напри	-1153
▁проро	-1154
тре	-1155
▁например	-1156
мини	-1157
▁подра	-1158
▁чис	-1159
▁ведь	-1160
▁христа	-1161
▁опреде	-1162
▁перво	-1163
▁защи	-1164
ждение	-1165
▁деятель	-1166
▁самы	-1167
тро	-1168
фея	-1169
щение	-1170
▁израиль	-1171
ческих	-1172
▁покло	-1173
рий	-1174
▁эко	-1175
▁укре	-1176
▁мыс	-1177
▁чему	-1178
ним	-1179
▁рауль	-1180
▁совершен	-1181
▁ска	-1182
телем	-1183
▁вместе	-1184
▁уни	-1185
▁заме	-1186
бой	-1187
довать	-1188
есси	-1189
▁фо	-1190
▁иоанна	-1191
▁пов	-1192
▁настоя	-1193
вым	-1194
емы	-1195
тный	-1196
▁матери	-1197
кон	-1198
▁бро	-1199
▁вои	-1200
ход	-1201
▁вто	-1202
▁голо	-1203
министра	-1204
щий	-1205
▁тому	-1206
▁через	-1207
туа	-1208
▁гражда	-1209
▁ге	-1210
льзу	-1211
ешь	-1212
щее	-1213
▁ог	-1214
▁иск	-1215
▁прекра	-1216
▁дума	-1217
▁другие	-1218
▁среди	-1219
тый	-1220
▁вос	-1221
▁занима	-1222
шить	-1223
▁которая	-1224
▁ожи	-1225
▁произ	-1226
▁памя	-1227
▁причи	-1228
вайте	-1229
▁федера	-1230
веща	-1231
▁администра	-1232
▁старей	-1233
▁благодаря	-1234
▁сте	-1235
▁посвя	-1236
▁27	-1237
▁неу	-1238
▁доро	-1239
ческого	-1240
▁199	-1241
▁сердце	-1242
▁свое	-1243
писа	-1244
▁либо	-1245
▁сам	-1246
▁женщи	-1247
▁старейши	-1248
▁обу	-1249
емся	-1250
форма	-1251
▁наци	-1252
гр	-1253
пла	-1254
▁матфея	-1255
▁тя	-1256
▁руководи	-1257
смот	-1258
▁рим	-1259
▁отнош	-1260
ись	-1261
▁гово	-1262
али	-1263
▁каждый	-1264
▁явля	-1265
▁бого	-1266
▁лучше	-1267
▁небес	-1268
▁истори	-1269
▁n	-1270
▁послед	-1271
▁соста	-1272
ур	-1273
лик	-1274
▁сла	-1275
▁находи	-1276
▁принима	-1277
▁пом	-1278
тября	-1279
▁конг	-1280
нных	-1281
▁жить	-1282
▁кого	-1283
▁вра	-1284
▁влади	-1285
воз	-1286
▁веч	-1287
шать	-1288
▁нем	-1289
▁осо	-1290
▁высо	-1291
лый	-1292
▁ува	-1293
▁луки	-1294
▁работы	-1295
▁i	-1296
▁ней	-1297
шей	-1298
▁глава	-1299
▁убе	-1300
▁кол	-1301
кла	-1302
той	-1303
нци	-1304
лять	-1305
▁обеща	-1306
▁поло	-1307
▁позво	-1308
▁напра	-1309
▁делать	-1310
▁там	-1311
▁упра	-1312
▁библия	-1313
▁сред	-1314
▁вопрос	-1315
номи	-1316
ут	-1317
▁эта	-1318
▁проек	-1319
телям	-1320
▁друг	-1321
▁подго	-1322
бор	-1323
▁абхазо	-1324
нул	-1325
телями	-1326
▁дня	-1327
▁министр	-1328
▁люб	-1329
▁право	-1330
▁смотрите	-1331
▁29	-1332
влен	-1333
▁место	-1334
▁пса	-1335
▁алек	-1336
▁мень	-1337
▁рели	-1338
▁участ	-1339
▁ино	-1340
▁несо	-1341
▁свой	-1342
ена	-1343
стей	-1344
▁назна	-1345
▁ху	-1346
грам	-1347
енно	-1348
▁времен	-1349
ствие	-1350
вают	-1351
помина	-1352
▁имени	-1353
▁праздни	-1354
▁сей	-1355
гля	-1356
ством	-1357
▁чита	-1358
▁поступа	-1359
▁друз	-1360
▁рублей	-1361
▁нашей	-1362
▁проводи	-1363
3;	-1364
▁подч	-1365
▁посе	-1366
▁&#93;	-1367
1;	-1368
▁&#91;	-1369
гов	-1370
▁дома	-1371
▁абхазского	-1372
▁пода	-1373
ряд	-1374
▁войны	-1375
щего	-1376
рито	-1377
оне	-1378
▁значи	-1379
▁информа	-1380
тета	-1381
мся	-1382
лли	-1383
▁которое	-1384
нут	-1385
▁иса	-1386
шие	-1387
▁л	-1388
▁недо	-1389
▁просто	-1390
▁поможет	-1391
ём	-1392
▁глу	-1393
щения	-1394
▁образом	-1395
виться	-1396
пло	-1397
щей	-1398
▁рам	-1399
▁восп	-1400
виси	-1401
▁стали	-1402
▁религи	-1403
мент	-1404
▁руковод	-1405
▁парламента	-1406
▁террито	-1407
дума	-1408
рный	-1409
▁вся	-1410
▁братья	-1411
проси	-1412
▁предо	-1413
▁меньше	-1414
▁уче	-1415
▁экономи	-1416
▁наших	-1417
▁весть	-1418
ёт	-1419
▁успе	-1420
▁прочитайте	-1421
▁жерт	-1422
▁близ	-1423
▁преда	-1424
пить	-1425
▁ожида	-1426
▁тоже	-1427
▁отношения	-1428
▁матф	-1429
▁затем	-1430
▁умер	-1431
▁ситуа	-1432
▁времени	-1433
▁пс	-1434
▁пове	-1435
нил	-1436
чил	-1437
рно	-1438
▁зло	-1439
тий	-1440
▁сест	-1441
▁встреча	-1442
▁соот	-1443
шли	-1444
▁имя	-1445
▁груп	-1446
▁закон	-1447
▁преду	-1448
сле	-1449
твер	-1450
▁объяс	-1451
казывает	-1452
▁любви	-1453
▁района	-1454
▁пробле	-1455
ар	-1456
дит	-1457
час	-1458
▁гор	-1459
▁нео	-1460
▁будем	-1461
▁благос	-1462
▁кру	-1463
▁сми	-1464
▁моис	-1465
▁ними	-1466
▁израильтя	-1467
▁чет	-1468
▁тысяч	-1469
▁говоря	-1470
▁стара	-1471
раз	-1472
▁встречи	-1473
▁no	-1474
носи	-1475
▁лите	-1476
▁никогда	-1477
фо	-1478
▁изучение	-1479
▁мире	-1480
▁другим	-1481
вляет	-1482
▁сатана	-1483
▁поздра	-1484
▁соответ	-1485
ница	-1486
стой	-1487
▁чего	-1488
▁помочь	-1489
рин	-1490
цен	-1491
▁сделать	-1492
▁уго	-1493
▁проис	-1494
▁против	-1495
▁три	-1496
▁осу	-1497
вается	-1498
жды	-1499
▁авто	-1500
▁которой	-1501
▁абхазской	-1502
▁реши	-1503
дели	-1504
▁каждо	-1505
▁сообщи	-1506
▁преступ	-1507
▁диа	-1508
▁показа	-1509
ший	-1510
нт	-1511
▁тор	-1512
▁ген	-1513
▁мест	-1514
▁совета	-1515
▁особ	-1516
▁31	-1517
▁конечно	-1518
▁гото	-1519
▁двух	-1520
▁отме	-1521
жден	-1522
▁два	-1523
▁смерти	-1524
▁способ	-1525
тесь	-1526
▁обсуди	-1527
▁хра	-1528
▁дости	-1529
▁служить	-1530
шим	-1531
▁дети	-1532
▁сейчас	-1533
что	-1534
▁аллаха	-1535
▁реб	-1536
▁непо	-1537
▁литерату	-1538
▁министер	-1539
▁собрании	-1540
лич	-1541
▁завер	-1542
▁обществен	-1543
▁дни	-1544
ствует	-1545
▁извест	-1546
▁произо	-1547
ню	-1548
▁влия	-1549
▁принци	-1550
▁брат	-1551
▁написа	-1552
▁програм	-1553
сколь	-1554
титься	-1555
▁государства	-1556
мь	-1557
вар	-1558
▁пригла	-1559
▁наша	-1560
▁дух	-1561
▁христиане	-1562
▁ваак	-1563
▁такое	-1564
▁города	-1565
ками	-1566
▁анге	-1567
▁испыта	-1568
еру	-1569
▁оказа	-1570
ить	-1571
▁безо	-1572
▁словам	-1573
▁лишь	-1574
▁укреп	-1575
▁поста	-1576
чина	-1577
рев	-1578
тиво	-1579
гли	-1580
пру	-1581
▁подчерк	-1582
▁сказать	-1583
▁поддержи	-1584
вую	-1585
▁фор	-1586
▁зачита	-1587
рного	-1588
▁обре	-1589
▁собы	-1590
▁администрации	-1591
▁иску	-1592
▁несколько	-1593
▁братьев	-1594
дать	-1595
▁заня	-1596
▁даль	-1597
мере	-1598
нами	-1599
▁одно	-1600
▁царства	-1601
▁воскрес	-1602
лови	-1603
▁супру	-1604
▁увиде	-1605
▁видео	-1606
ил	-1607
▁такой	-1608
▁служении	-1609
ций	-1610
▁озна	-1611
▁культуры	-1612
бить	-1613
▁наз	-1614
жной	-1615
▁200	-1616
▁такие	-1617
▁именно	-1618
нность	-1619
▁вес	-1620
▁использо	-1621
▁стороны	-1622
▁этих	-1623
▁помогает	-1624
▁народного	-1625
▁националь	-1626
лё	-1627
дут	-1628
▁ше	-1629
воль	-1630
▁премь	-1631
ква	-1632
сам	-1633
лиа	-1634
рую	-1635
▁внимание	-1636
жу	-1637
ях	-1638
▁ги	-1639
чность	-1640
вится	-1641
▁стре	-1642
ческие	-1643
▁потом	-1644
▁иа	-1645
нова	-1646
▁ново	-1647
▁места	-1648
▁иу	-1649
мой	-1650
кими	-1651
щает	-1652
▁отец	-1653
▁награ	-1654
▁труд	-1655
кам	-1656
▁стано	-1657
▁должен	-1658
него	-1659
▁хочет	-1660
▁родители	-1661
нах	-1662
цев	-1663
кова	-1664
льта	-1665
▁уда	-1666
▁поддерж	-1667
▁здо	-1668
▁отече	-1669
▁ребен	-1670
ститу	-1671
▁мудро	-1672
▁исполни	-1673
▁российской	-1674
▁оп	-1675
▁расска	-1676
рение	-1677
▁могли	-1678
жба	-1679
рот	-1680
хва	-1681
▁заклю	-1682
заи	-1683
кан	-1684
▁выпол	-1685
▁размыш	-1686
▁отве	-1687
льного	-1688
жо	-1689
▁христо	-1690
ия	-1691
стли	-1692
нк	-1693
сут	-1694
щие	-1695
▁послу	-1696
▁трудно	-1697
▁хоте	-1698
▁землю	-1699
▁хорошо	-1700
▁сом	-1701
▁спа	-1702
▁прекрас	-1703
▁един	-1704
▁отца	-1705
жить	-1706
▁ада	-1707
▁уте	-1708
▁мило	-1709
читься	-1710
▁деяния	-1711
▁библию	-1712
лез	-1713
ремен	-1714
них	-1715
▁суще	-1716
▁организации	-1717
лка	-1718
▁обязан	-1719
чия	-1720
стину	-1721
▁кар	-1722
▁сен	-1723
▁исс	-1724
▁срок	-1725
▁воистину	-1726
жит	-1727
▁дело	-1728
▁этим	-1729
рения	-1730
коло	-1731
▁отде	-1732
▁благодар	-1733
▁служение	-1734
вших	-1735
▁поя	-1736
▁граждан	-1737
▁пусть	-1738
▁алекса	-1739
▁чувства	-1740
▁продолжа	-1741
пом	-1742
шба	-1743
фере	-1744
▁возможность	-1745
чего	-1746
▁нашего	-1747
▁уста	-1748
▁какое	-1749
▁00	-1750
▁большо	-1751
▁зачитай	-1752
дой	-1753
ское	-1754
йтесь	-1755
льной	-1756
шин	-1757
щих	-1758
▁иссле	-1759
▁строи	-1760
▁своими	-1761
▁корин	-1762
▁дал	-1763
▁ей	-1764
▁*	-1765
▁страны	-1766
▁распо	-1767
▁взаи	-1768
шая	-1769
щем	-1770
▁правед	-1771
▁рамках	-1772
▁распро	-1773
▁федерации	-1774
стно	-1775
▁нему	-1776
▁обес	-1777
▁семей	-1778
▁которого	-1779
▁отечественной	-1780
стива	-1781
▁истин	-1782
▁турни	-1783
ским	-1784
вари	-1785
▁годы	-1786
щая	-1787
водя	-1788
▁чте	-1789
дания	-1790
▁осво	-1791
▁спорт	-1792
шее	-1793
▁путь	-1794
▁конгрес	-1795
▁проявлять	-1796
вили	-1797
▁работу	-1798
дный	-1799
пута	-1800
▁авгу	-1801
▁противо	-1802
▁иоси	-1803
висимо	-1804
▁семьи	-1805
▁уверен	-1806
▁всей	-1807
зм	-1808
ран	-1809
ступи	-1810
▁распростра	-1811
тим	-1812
▁проф	-1813
йся	-1814
кти	-1815
▁вне	-1816
▁разгово	-1817
▁наше	-1818
▁возвеща	-1819
▁замести	-1820
ин	-1821
▁иска	-1822
▁священ	-1823
▁счастли	-1824
нали	-1825
▁пути	-1826
▁уси	-1827
графи	-1828
ёр	-1829
▁доку	-1830
▁псалом	-1831
▁владими	-1832
ведливо	-1833
▁коринф	-1834
▁молоде	-1835
зия	-1836
честве	-1837
▁интере	-1838
▁согласи	-1839
▁рассмотри	-1840
▁возра	-1841
▁фестива	-1842
ктор	-1843
▁делега	-1844
дия	-1845
▁лег	-1846
▁прав	-1847
хом	-1848
▁понять	-1849
▁побужда	-1850
▁помощью	-1851
▁решение	-1852
шю	-1853
кро	-1854
так	-1855
▁зо	-1856
перь	-1857
мотре	-1858
▁песня	-1859
▁теперь	-1860
▁откров	-1861
скую	-1862
▁богом	-1863
тельные	-1864
▁определен	-1865
рил	-1866
лыша	-1867
▁всеми	-1868
▁коринфя	-1869
▁которую	-1870
вш	-1871
тет	-1872
▁подчеркнул	-1873
вит	-1874
▁премьер	-1875
стить	-1876
▁сестра	-1877
▁меся	-1878
▁интерес	-1879
шу	-1880
мет	-1881
▁ноя	-1882
▁оно	-1883
▁брошю	-1884
▁этому	-1885
над	-1886
рабо	-1887
▁вале	-1888
▁следует	-1889
▁окру	-1890
▁резу	-1891
▁получи	-1892
▁часто	-1893
▁первый	-1894
▁основ	-1895
▁освобо	-1896
тельность	-1897
▁сту	-1898
▁коринфянам	-1899
шением	-1900
▁результа	-1901
▁согласно	-1902
ющим	-1903
▁видеоро	-1904
▁серь	-1905
▁библейские	-1906
нок	-1907
рио	-1908
▁пого	-1909
▁сами	-1910
▁друга	-1911
тии	-1912
чка	-1913
вала	-1914
▁обы	-1915
▁дел	-1916
▁царство	-1917
рон	-1918
ющего	-1919
стов	-1920
ступа	-1921
▁своему	-1922
▁смерть	-1923
▁выста	-1924
тр	-1925
обра	-1926
▁сист	-1927
▁милли	-1928
▁сердца	-1929
кры	-1930
▁пору	-1931
сом	-1932
▁сухуме	-1933
стру	-1934
▁сын	-1935
▁авра	-1936
▁вести	-1937
▁днем	-1938
▁статьи	-1939
▁дми	-1940
▁моск	-1941
жество	-1942
▁каким	-1943
▁ры	-1944
▁дан	-1945
ствии	-1946
▁твор	-1947
▁беспо	-1948
тин	-1949
▁жа	-1950
▁сою	-1951
▁посо	-1952
ведения	-1953
вен	-1954
гре	-1955
▁взгля	-1956
▁главы	-1957
▁многих	-1958
йдет	-1959
▁стоит	-1960
▁еди	-1961
держа	-1962
▁поко	-1963
▁сына	-1964
▁рассмотрим	-1965
▁32	-1966
▁33	-1967
▁кан	-1968
▁отда	-1969
▁является	-1970
▁жур	-1971
▁ито	-1972
▁дека	-1973
▁речь	-1974
▁служения	-1975
вла	-1976
▁кри	-1977
▁заслу	-1978
▁узнать	-1979
▁часть	-1980
▁наб	-1981
▁чер	-1982
▁заседа	-1983
сса	-1984
▁лич	-1985
зинба	-1986
▁здоров	-1987
▁рассказа	-1988
▁ард	-1989
сер	-1990
▁35	-1991
▁борь	-1992
▁пользу	-1993
▁примен	-1994
нача	-1995
▁отли	-1996
▁воспи	-1997
▁случае	-1998
рах	-1999
цией	-2000
ющей	-2001
▁началь	-2002
▁независимо	-2003
▁эту	-2004
▁уг	-2005
▁мало	-2006
▁измен	-2007
слан	-2008
▁нор	-2009
ровал	-2010
▁называ	-2011
▁теа	-2012
▁котором	-2013
▁конгресса	-2014
▁сме	-2015
▁упо	-2016
▁спор	-2017
▁связи	-2018
▁переда	-2019
▁социаль	-2020
кур	-2021
▁зде	-2022
тельной	-2023
▁одного	-2024
▁спортс	-2025
пасности	-2026
▁нра	-2027
▁посколь	-2028
▁особенно	-2029
▁спу	-2030
ходят	-2031
▁теле	-2032
▁здесь	-2033
ляет	-2034
▁председатель	-2035
▁апостол	-2036
▁решения	-2037
▁приве	-2038
▁ардзинба	-2039
их	-2040
▁выс	-2041
▁уби	-2042
▁фон	-2043
▁буде	-2044
▁свет	-2045
▁абаза	-2046
▁петра	-2047
вое	-2048
▁древ	-2049
▁поскольку	-2050
ера	-2051
▁34	-2052
▁зая	-2053
▁публи	-2054
лых	-2055
дьми	-2056
▁креп	-2057
▁рассказал	-2058
▁+	-2059
лена	-2060
▁искрен	-2061
▁оби	-2062
грани	-2063
▁апре	-2064
ровали	-2065
▁давайте	-2066
▁глубо	-2067
вли	-2068
▁коман	-2069
▁оча	-2070
жении	-2071
нуться	-2072
▁людьми	-2073
▁государственной	-2074
из	-2075
▁обсужда	-2076
щик	-2077
▁черк	-2078
жествен	-2079
▁действи	-2080
чат	-2081
муще	-2082
▁огром	-2083
▁приходи	-2084
циа	-2085
гать	-2086
▁вырази	-2087
▁иеговой	-2088
▁истории	-2089
льных	-2090
▁территории	-2091
еди	-2092
сали	-2093
▁мая	-2094
▁кому	-2095
рование	-2096
▁депута	-2097
▁молоды	-2098
мый	-2099
▁чле	-2100
▁небо	-2101
▁ночь	-2102
▁цель	-2103
▁насле	-2104
▁отношении	-2105
нка	-2106
▁июля	-2107
▁измени	-2108
▁иисусу	-2109
▁поги	-2110
▁подума	-2111
▁серьез	-2112
чай	-2113
ятно	-2114
▁препо	-2115
▁законо	-2116
▁ци	-2117
льные	-2118
▁своем	-2119
▁тради	-2120
▁царстве	-2121
▁ответствен	-2122
цам	-2123
прави	-2124
▁сове	-2125
▁качества	-2126
номо	-2127
▁удо	-2128
▁найти	-2129
▁статье	-2130
▁говорить	-2131
▁числе	-2132
▁исполня	-2133
еха	-2134
жела	-2135
диться	-2136
▁диаспо	-2137
▁обраща	-2138
▁комисси	-2139
▁бед	-2140
▁вол	-2141
▁пись	-2142
▁готов	-2143
▁перио	-2144
▁александ	-2145
нин	-2146
▁бю	-2147
▁смы	-2148
▁пома	-2149
▁саму	-2150
▁работе	-2151
▁оде	-2152
▁притчи	-2153
вор	-2154
шает	-2155
▁ничего	-2156
оз	-2157
▁сил	-2158
▁совме	-2159
▁мероприятия	-2160
▁деся	-2161
ваются	-2162
▁радость	-2163
стан	-2164
литься	-2165
▁любит	-2166
▁благослов	-2167
▁будь	-2168
▁выбо	-2169
▁около	-2170
▁очере	-2171
▁августа	-2172
кому	-2173
▁любя	-2174
▁учит	-2175
▁город	-2176
▁другой	-2177
▁услови	-2178
▁приме	-2179
▁родителей	-2180
ыр	-2181
скому	-2182
▁тимо	-2183
▁знает	-2184
тельных	-2185
▁черкес	-2186
нан	-2187
щим	-2188
вершен	-2189
▁таким	-2190
▁утвер	-2191
▁царь	-2192
▁семье	-2193
ган	-2194
▁взаимо	-2195
▁друзья	-2196
▁организо	-2197
треб	-2198
▁ибо	-2199
▁спи	-2200
▁актив	-2201
клю	-2202
▁мой	-2203
▁иеру	-2204
▁права	-2205
▁иерусали	-2206
дил	-2207
рак	-2208
шло	-2209
▁ребенка	-2210
мом	-2211
▁иов	-2212
▁ред	-2213
▁христос	-2214
▁може	-2215
▁марта	-2216
▁обеспе	-2217
▁абазинского	-2218
▁пря	-2219
▁коло	-2220
▁срав	-2221
▁видно	-2222
▁наста	-2223
▁свободы	-2224
▁й	-2225
▁приоб	-2226
▁сентября	-2227
держи	-2228
цем	-2229
▁пя	-2230
▁ради	-2231
▁абза	-2232
жный	-2233
▁ина	-2234
строй	-2235
▁воспо	-2236
▁говорят	-2237
▁приноси	-2238
ью	-2239
▁живо	-2240
▁тяже	-2241
▁какую	-2242
▁подро	-2243
▁эф	-2244
мати	-2245
вались	-2246
▁глаза	-2247
ии	-2248
▁ум	-2249
▁евре	-2250
▁прове	-2251
▁работ	-2252
▁прежде	-2253
ам	-2254
лег	-2255
стый	-2256
▁божи	-2257
▁помощи	-2258
▁учеников	-2259
▁господа	-2260
им	-2261
▁дра	-2262
▁проповедовать	-2263
ником	-2264
▁опы	-2265
влять	-2266
▁мысли	-2267
▁министра	-2268
▁части	-2269
▁начина	-2270
гло	-2271
▁поте	-2272
▁материа	-2273
▁возвра	-2274
▁несовершен	-2275
▁ря	-2276
▁обяза	-2277
▁посвящен	-2278
▁последова	-2279
дите	-2280
зывать	-2281
чается	-2282
▁давид	-2283
▁земли	-2284
дви	-2285
рами	-2286
стями	-2287
▁вера	-2288
▁сообщил	-2289
цом	-2290
вался	-2291
никами	-2292
дры	-2293
влении	-2294
▁наказа	-2295
▁уничто	-2296
хе	-2297
ницы	-2298
▁деятельности	-2299
▁ваш	-2300
нести	-2301
▁худо	-2302
▁моисе	-2303
▁одной	-2304
▁очам	-2305
▁нужда	-2306
▁иностра	-2307
▁современ	-2308
▁уч	-2309
вшие	-2310
диви	-2311
▁вид	-2312
ниться	-2313
▁указа	-2314
▁крести	-2315
▁подписа	-2316
чал	-2317
▁ника	-2318
▁стол	-2319
▁устано	-2320
рю	-2321
там	-2322
▁кла	-2323
▁значит	-2324
лий	-2325
дание	-2326
▁сила	-2327
смотря	-2328
ссо	-2329
▁сим	-2330
нению	-2331
▁несмотря	-2332
▁воен	-2333
▁присут	-2334
▁которым	-2335
выми	-2336
▁офи	-2337
▁никто	-2338
еры	-2339
лые	-2340
▁меди	-2341
▁стар	-2342
зяй	-2343
▁ян	-2344
▁декабря	-2345
▁народов	-2346
▁хи	-2347
▁нес	-2348
▁прим	-2349
▁доста	-2350
▁видеоролик	-2351
▁представители	-2352
▁“	-2353
▁40	-2354
форми	-2355
▁фото	-2356
▁хотим	-2357
▁истину	-2358
езд	-2359
лой	-2360
шка	-2361
▁урок	-2362
ствуют	-2363
▁позна	-2364
▁район	-2365
▁собой	-2366
▁язык	-2367
▁покажи	-2368
▁октября	-2369
▁пор	-2370
▁станет	-2371
▁нами	-2372
ум	-2373
онов	-2374
▁кара	-2375
▁j	-2376
▁бюд	-2377
▁дис	-2378
▁абхазский	-2379
щу	-2380
▁нару	-2381
лн	-2382
чая	-2383
▁кам	-2384
▁нового	-2385
клад	-2386
▁очамч	-2387
пш	-2388
щать	-2389
▁трех	-2390
▁практи	-2391
▁хотел	-2392
▁апреля	-2393
▁родствен	-2394
дает	-2395
▁абхазию	-2396
вай	-2397
▁июня	-2398
▁нена	-2399
▁поня	-2400
▁проц	-2401
▁реали	-2402
▁ана	-2403
▁кур	-2404
▁неде	-2405
▁развития	-2406
гам	-2407
▁непре	-2408
чают	-2409
сянам	-2410
▁дней	-2411
▁конц	-2412
▁„	-2413
▁опе	-2414
тился	-2415
няться	-2416
▁приняли	-2417
▁собствен	-2418
▁обсуждение	-2419
рез	-2420
▁дви	-2421
▁вере	-2422
▁пожела	-2423
▁подготов	-2424
▁человеком	-2425
▁дает	-2426
▁разве	-2427
▁професси	-2428
▁заб	-2429
рем	-2430
верси	-2431
ществ	-2432
▁квар	-2433
▁отра	-2434
вствен	-2435
▁запис	-2436
▁комитета	-2437
ниру	-2438
▁дави	-2439
▁музы	-2440
▁тури	-2441
никам	-2442
▁реги	-2443
▁цени	-2444
▁власти	-2445
▁мя	-2446
▁дире	-2447
▁испра	-2448
▁пережи	-2449
лаго	-2450
▁могу	-2451
▁мужчи	-2452
▁посети	-2453
▁соверши	-2454
▁фак	-2455
▁возду	-2456
▁образ	-2457
гую	-2458
ток	-2459
▁гуда	-2460
▁комп	-2461
▁бытие	-2462
▁второй	-2463
▁постоя	-2464
▁ах	-2465
вери	-2466
▁иль	-2467
евича	-2468
▁языке	-2469
▁сделал	-2470
тил	-2471
дина	-2472
▁жена	-2473
▁петр	-2474
▁книги	-2475
▁дом	-2476
▁окон	-2477
▁избра	-2478
▁дмитри	-2479
▁небе	-2480
▁самом	-2481
▁специаль	-2482
▁наи	-2483
▁таких	-2484
▁языка	-2485
▁основа	-2486
▁безопасности	-2487
▁разде	-2488
▁финан	-2489
▁времена	-2490
▁означает	-2491
▁част	-2492
▁избира	-2493
▁предоста	-2494
▁служителей	-2495
ните	-2496
▁добры	-2497
▁интер	-2498
▁спроси	-2499
▁центра	-2500
жал	-2501
▁столи	-2502
▁детям	-2503
▁спортсме	-2504
шно	-2505
▁ши	-2506
▁бере	-2507
▁брак	-2508
▁подражать	-2509
ферен	-2510
▁информации	-2511
▁республике	-2512
▁янва	-2513
▁господь	-2514
▁помазан	-2515
сят	-2516
▁37	-2517
▁суб	-2518
▁фев	-2519
пуска	-2520
▁деян	-2521
▁народу	-2522
тать	-2523
▁всю	-2524
▁объек	-2525
▁требо	-2526
▁прибли	-2527
▁собира	-2528
вило	-2529
няет	-2530
▁имеет	-2531
▁состо	-2532
ствовал	-2533
▁фили	-2534
▁связа	-2535
▁принес	-2536
ыре	-2537
▁пыта	-2538
▁находя	-2539
▁приобре	-2540
дят	-2541
▁бар	-2542
лению	-2543
▁веро	-2544
▁избе	-2545
▁спас	-2546
будь	-2547
▁проси	-2548
▁стран	-2549
▁попроси	-2550
рос	-2551
▁нее	-2552
▁нашу	-2553
▁осети	-2554
▁римля	-2555
▁положи	-2556
▁правительства	-2557
крови	-2558
▁нече	-2559
▁долго	-2560
▁валерий	-2561
▁равно	-2562
▁обстоя	-2563
▁встрече	-2564
▁изучения	-2565
коре	-2566
▁откровение	-2567
ясь	-2568
тера	-2569
▁охра	-2570
▁физи	-2571
ментов	-2572
▁памят	-2573
лее	-2574
▁визи	-2575
▁друж	-2576
▁различ	-2577
▁события	-2578
▁поб	-2579
▁духа	-2580
▁стала	-2581
▁другом	-2582
тельного	-2583
▁управления	-2584
дне	-2585
коми	-2586
зации	-2587
▁выда	-2588
▁александр	-2589
спра	-2590
▁силь	-2591
▁чтение	-2592
▁говорил	-2593
▁насколько	-2594
▁невер	-2595
▁сатаны	-2596
▁поступи	-2597
▁соверша	-2598
▁дере	-2599
▁нибудь	-2600
▁другими	-2601
▁относиться	-2602
▁уро	-2603
▁стихи	-2604
▁честь	-2605
▁проповеду	-2606
дим	-2607
того	-2608
▁погиб	-2609
▁посла	-2610
▁абхазских	-2611
тка	-2612
▁второ	-2613
▁ат	-2614
▁обод	-2615
▁имуще	-2616
▁конкур	-2617
▁турции	-2618
гип	-2619
▁исклю	-2620
▁стало	-2621
▁полага	-2622
▁ил	-2623
▁рф	-2624
▁впер	-2625
▁темпе	-2626
▁дмитрий	-2627
▁сообщает	-2628
лож	-2629
тан	-2630
▁ам	-2631
▁сель	-2632
ратура	-2633
тар	-2634
спек	-2635
▁оши	-2636
▁дании	-2637
▁молитва	-2638
лил	-2639
цин	-2640
▁одним	-2641
▁февра	-2642
▁написал	-2643
▁течение	-2644
▁проблемы	-2645
▁рождения	-2646
▁старейшины	-2647
▁000	-2648
▁егип	-2649
▁городе	-2650
▁счасть	-2651
▁похо	-2652
▁сказали	-2653
▁бюджет	-2654
▁образования	-2655
тами	-2656
▁гал	-2657
тельным	-2658
▁студен	-2659
един	-2660
▁безу	-2661
▁ваши	-2662
▁испы	-2663
▁вечно	-2664
▁песни	-2665
▁вами	-2666
▁неспра	-2667
▁лица	-2668
риться	-2669
▁канди	-2670
▁сказано	-2671
▁лишением	-2672
дох	-2673
▁сама	-2674
▁большин	-2675
▁служители	-2676
▁истины	-2677
▁официаль	-2678
чие	-2679
▁дер	-2680
▁снова	-2681
бно	-2682
ваем	-2683
мость	-2684
▁кавка	-2685
▁требу	-2686
▁предпри	-2687
▁некоторых	-2688
дца	-2689
чной	-2690
▁отпра	-2691
▁правильно	-2692
чей	-2693
ческое	-2694
▁самое	-2695
▁иногда	-2696
▁поздравил	-2697
оте	-2698
вшись	-2699
▁знал	-2700
▁регу	-2701
▁конце	-2702
чествен	-2703
▁испыты	-2704
▁божьего	-2705
▁римлянам	-2706
▁вклю	-2707
▁иллю	-2708
▁миро	-2709
▁наза	-2710
▁секре	-2711
нику	-2712
▁взя	-2713
▁вклад	-2714
▁прожи	-2715
▁сомне	-2716
▁разных	-2717
▁однажды	-2718
док	-2719
нер	-2720
▁пле	-2721
▁показыва	-2722
рее	-2723
рит	-2724
влены	-2725
тельное	-2726
.0	-2727
ждать	-2728
▁наси	-2729
▁школы	-2730
кру	-2731
кость	-2732
▁цели	-2733
▁пресс	-2734
▁прошло	-2735
▁духовно	-2736
▁вспомина	-2737
▁точ	-2738
▁войне	-2739
▁новый	-2740
▁период	-2741
▁принял	-2742
сф	-2743
▁сек	-2744
▁золо	-2745
▁нель	-2746
зии	-2747
нец	-2748
▁али	-2749
▁1992	-2750
▁учре	-2751
▁непри	-2752
▁послан	-2753
▁институ	-2754
▁кандида	-2755
щё	-2756
▁евр	-2757
▁каби	-2758
▁усилия	-2759
▁36	-2760
вный	-2761
▁судь	-2762
▁генера	-2763
▁каждого	-2764
▁представля	-2765
▁соответству	-2766
раб	-2767
чик	-2768
вший	-2769
▁баш	-2770
щении	-2771
▁вице	-2772
▁пяти	-2773
▁полез	-2774
▁четыре	-2775
▁впервые	-2776
▁осуществ	-2777
▁проповеди	-2778
▁свидетель	-2779
жели	-2780
нные	-2781
▁сбор	-2782
▁евреям	-2783
▁нельзя	-2784
▁сестры	-2785
ствовали	-2786
▁сколько	-2787
нное	-2788
▁использу	-2789
зма	-2790
стр	-2791
▁живот	-2792
▁запре	-2793
▁принад	-2794
▁универси	-2795
тию	-2796
цов	-2797
▁пора	-2798
▁тимофе	-2799
▁очередь	-2800
▁принадле	-2801
▁собрание	-2802
▁сос	-2803
▁фору	-2804
▁стране	-2805
▁области	-2806
▁температура	-2807
▁забы	-2808
▁протя	-2809
▁ноября	-2810
▁принять	-2811
рены	-2812
▁потеря	-2813
▁будущем	-2814
били	-2815
▁воды	-2816
гуа	-2817
мов	-2818
▁заве	-2819
▁большой	-2820
▁находится	-2821
▁дья	-2822
▁тро	-2823
▁содей	-2824
▁закона	-2825
▁знания	-2826
▁спорта	-2827
▁министров	-2828
▁министерства	-2829
мена	-2830
▁хва	-2831
▁запове	-2832
▁коллек	-2833
▁предлага	-2834
▁приз	-2835
▁силу	-2836
▁возможности	-2837
кр	-2838
▁38	-2839
верг	-2840
сный	-2841
▁ала	-2842
▁быт	-2843
▁жили	-2844
▁раск	-2845
ческом	-2846
▁соблю	-2847
▁нечести	-2848
▁первого	-2849
▁проходи	-2850
▁предусмот	-2851
вом	-2852
лях	-2853
чем	-2854
новлен	-2855
▁хозяй	-2856
▁тимофею	-2857
казывается	-2858
лел	-2859
чис	-2860
сков	-2861
▁мор	-2862
▁вече	-2863
▁дьяво	-2864
▁вскоре	-2865
▁связан	-2866
▁̊	-2867
▁яр	-2868
▁воо	-2869
▁тим	-2870
▁роль	-2871
▁дальше	-2872
зни	-2873
▁выпу	-2874
▁мене	-2875
▁мере	-2876
▁сразу	-2877
▁первой	-2878
▁получить	-2879
▁христианам	-2880
▁обязанности	-2881
днее	-2882
▁исаия	-2883
▁января	-2884
ян	-2885
шки	-2886
▁ака	-2887
▁юно	-2888
▁конца	-2889
▁привле	-2890
▁сестер	-2891
▁подобно	-2892
▁последние	-2893
нда	-2894
тур	-2895
ненно	-2896
▁иосиф	-2897
▁первое	-2898
▁кварчия	-2899
▁одо	-2900
ливый	-2901
▁горе	-2902
▁восто	-2903
▁павла	-2904
▁площа	-2905
▁моисей	-2906
▁руководство	-2907
▁b	-2908
чба	-2909
емый	-2910
▁победы	-2911
▁театра	-2912
▁вопроса	-2913
▁республикан	-2914
▁нач	-2915
▁знать	-2916
▁особо	-2917
▁семья	-2918
▁москве	-2919
▁будущее	-2920
▁израильтяне	-2921
мон	-2922
▁ще	-2923
возмо	-2924
▁школе	-2925
▁молитвы	-2926
▁публика	-2927
▁приносит	-2928
ред	-2929
стях	-2930
ревно	-2931
▁деву	-2932
▁непро	-2933
▁пользо	-2934
▁культур	-2935
▁содержа	-2936
ила	-2937
мур	-2938
тили	-2939
▁вну	-2940
женный	-2941
▁самого	-2942
▁послуша	-2943
▁уви	-2944
▁раду	-2945
▁царя	-2946
▁оборо	-2947
▁разре	-2948
они	-2949
чении	-2950
▁симво	-2951
▁друзей	-2952
▁советы	-2953
жных	-2954
▁ука	-2955
▁миха	-2956
▁вавило	-2957
▁предпо	-2958
▁дальней	-2959
▁сказала	-2960
▁будете	-2961
▁иллюстра	-2962
▁произошло	-2963
кать	-2964
нной	-2965
жением	-2966
▁всему	-2967
▁первых	-2968
▁полностью	-2969
бре	-2970
чению	-2971
▁приш	-2972
▁изуча	-2973
▁ночью	-2974
▁сильно	-2975
гор	-2976
рец	-2977
▁уми	-2978
▁весь	-2979
▁коли	-2980
▁чемпи	-2981
▁смирен	-2982
юсь	-2983
чных	-2984
▁земля	-2985
▁плохо	-2986
▁начале	-2987
▁средств	-2988
▁председателя	-2989
ктив	-2990
▁ока	-2991
▁стой	-2992
▁менее	-2993
▁помнить	-2994
▁страдания	-2995
▁происходит	-2996
▁представителей	-2997
дея	-2998
▁вста	-2999
▁здра	-3000
▁анква	-3001
▁поряд	-3002
▁самым	-3003
▁восстано	-3004
чные	-3005
▁кем	-3006
▁захо	-3007
▁уров	-3008
ческая	-3009
▁воскре	-3010
▁начала	-3011
ственный	-3012
▁размере	-3013
скими	-3014
▁живу	-3015
▁надо	-3016
▁раст	-3017
▁скажи	-3018
▁истине	-3019
▁любить	-3020
▁сталки	-3021
▁постано	-3022
▁поступать	-3023
▁иностранных	-3024
вей	-3025
кси	-3026
ресс	-3027
▁бан	-3028
▁иакова	-3029
▁религиоз	-3030
▁человеку	-3031
▁культурного	-3032
шую	-3033
ится	-3034
точно	-3035
▁объя	-3036
▁подчи	-3037
▁север	-3038
▁треть	-3039
▁желание	-3040
▁предложи	-3041
▁демо	-3042
▁суда	-3043
▁твер	-3044
▁просла	-3045
▁призыва	-3046
▁соревно	-3047
▁владисла	-3048
▁показать	-3049
кл	-3050
▁тан	-3051
▁игра	-3052
▁совмест	-3053
▁диаспоры	-3054
жат	-3055
▁см	-3056
▁вечер	-3057
▁какая	-3058
▁переста	-3059
▁свидетели	-3060
чий	-3061
▁сп	-3062
полни	-3063
▁силы	-3064
▁наблю	-3065
▁февраля	-3066
горь	-3067
ружи	-3068
▁пож	-3069
тость	-3070
циали	-3071
▁гулиа	-3072
▁знаем	-3073
мотреть	-3074
▁неужели	-3075
бия	-3076
зов	-3077
жали	-3078
▁экзе	-3079
▁милосер	-3080
▁владимир	-3081
▁частности	-3082
зить	-3083
прав	-3084
▁гер	-3085
▁мои	-3086
▁све	-3087
ющими	-3088
▁нало	-3089
▁обсудим	-3090
мыс	-3091
рам	-3092
рда	-3093
▁джо	-3094
▁конгресс	-3095
▁назначен	-3096
▁дать	-3097
тывать	-3098
▁жесто	-3099
▁конец	-3100
▁харак	-3101
▁прошел	-3102
▁сотрудничества	-3103
чо	-3104
пуа	-3105
вало	-3106
▁цви	-3107
▁повы	-3108
▁чисто	-3109
ственно	-3110
▁позднее	-3111
▁множество	-3112
▁уверовали	-3113
▁справедливо	-3114
нра	-3115
▁кг	-3116
тится	-3117
▁выку	-3118
▁связ	-3119
▁тран	-3120
▁главе	-3121
▁книге	-3122
▁подели	-3123
▁братьям	-3124
▁журнали	-3125
матри	-3126
▁грех	-3127
▁каза	-3128
▁миру	-3129
▁скоро	-3130
▁памяти	-3131
▁воздуха	-3132
▁молиться	-3133
зор	-3134
мия	-3135
дали	-3136
ницу	-3137
▁ини	-3138
▁внеш	-3139
▁геор	-3140
▁настро	-3141
▁регуля	-3142
▁словами	-3143
▁ситуации	-3144
вин	-3145
дии	-3146
ниц	-3147
стри	-3148
▁сли	-3149
▁благую	-3150
▁поступ	-3151
▁временем	-3152
▁оставаться	-3153
▁догово	-3154
▁должна	-3155
▁скорее	-3156
▁медицин	-3157
▁последни	-3158
рыв	-3159
шед	-3160
▁внут	-3161
▁георги	-3162
ющее	-3163
▁нис	-3164
▁план	-3165
▁стоя	-3166
▁паспо	-3167
▁появи	-3168
ционный	-3169
▁разговор	-3170
▁согласии	-3171
ot	-3172
▁зу	-3173
вета	-3174
нему	-3175
телю	-3176
▁жив	-3177
▁брата	-3178
▁искус	-3179
▁филип	-3180
▁стреми	-3181
тельными	-3182
▁развитие	-3183
18	-3184
▁иг	-3185
▁мал	-3186
шению	-3187
▁месси	-3188
▁семью	-3189
▁ограни	-3190
▁невозмо	-3191
▁ученики	-3192
зба	-3193
▁нар	-3194
▁изба	-3195
▁ходе	-3196
▁книга	-3197
▁районе	-3198
▁распоря	-3199
▁организация	-3200
▁ид	-3201
▁сум	-3202
▁волю	-3203
▁насе	-3204
▁свер	-3205
▁потреб	-3206
▁праздно	-3207
▁рассказывает	-3208
▁ль	-3209
▁нав	-3210
▁несом	-3211
▁представь	-3212
▁трудности	-3213
▁заместитель	-3214
▁обстоятельства	-3215
▁%	-3216
лам	-3217
жные	-3218
куар	-3219
▁две	-3220
▁оче	-3221
яться	-3222
▁2017	-3223
▁круп	-3224
▁божье	-3225
▁заста	-3226
ведение	-3227
▁порой	-3228
▁анкваб	-3229
▁предупре	-3230
▁побуждает	-3231
ема	-3232
мии	-3233
ваны	-3234
▁иез	-3235
пусти	-3236
▁степ	-3237
▁назад	-3238
▁прибы	-3239
▁ткуар	-3240
▁ответы	-3241
▁пришел	-3242
▁сокрови	-3243
▁стороже	-3244
әа	-3245
нным	-3246
степ	-3247
нется	-3248
▁нашим	-3249
▁приго	-3250
▁суббо	-3251
▁устра	-3252
▁службы	-3253
▁секрета	-3254
▁несправедливо	-3255
дек	-3256
няя	-3257
охра	-3258
▁гро	-3259
мышлен	-3260
▁борьбе	-3261
▁высоко	-3262
▁служит	-3263
▁подтвер	-3264
▁программы	-3265
▁t	-3266
гур	-3267
луч	-3268
пий	-3269
жего	-3270
чены	-3271
лений	-3272
▁развле	-3273
▁помогать	-3274
▁x	-3275
▁бое	-3276
▁всё	-3277
▁обща	-3278
▁ясно	-3279
▁расши	-3280
▁контро	-3281
дие	-3282
сад	-3283
▁гг	-3284
▁изо	-3285
▁запа	-3286
▁мари	-3287
▁мерт	-3288
влению	-3289
▁верну	-3290
дования	-3291
▁беслан	-3292
▁воспита	-3293
▁принято	-3294
▁показывает	-3295
лым	-3296
цба	-3297
▁198	-3298
менты	-3299
чного	-3300
▁проду	-3301
▁самых	-3302
▁доказа	-3303
▁проект	-3304
▁внутрен	-3305
▁работать	-3306
▁преступления	-3307
▁боге	-3308
▁прис	-3309
ворить	-3310
ждении	-3311
▁недоста	-3312
▁напомина	-3313
▁средства	-3314
пере	-3315
▁уме	-3316
нении	-3317
шении	-3318
▁2016	-3319
▁терп	-3320
▁вспом	-3321
▁готовы	-3322
▁инициа	-3323
▁инстру	-3324
▁писания	-3325
▁отношений	-3326
▁постоянно	-3327
qu	-3328
лог	-3329
мым	-3330
▁перево	-3331
▁дем	-3332
▁опыт	-3333
▁поза	-3334
▁филь	-3335
ческую	-3336
▁легко	-3337
▁размышля	-3338
▁специали	-3339
▁несомненно	-3340
▁руководитель	-3341
бри	-3342
кер	-3343
сем	-3344
шем	-3345
▁ке	-3346
дают	-3347
евич	-3348
▁джа	-3349
ковый	-3350
стере	-3351
▁твой	-3352
▁элек	-3353
▁рядом	-3354
▁рассказ	-3355
▁вопросам	-3356
▁исследова	-3357
мые	-3358
quot	-3359
щему	-3360
▁юби	-3361
ждает	-3362
▁делает	-3363
▁оконча	-3364
▁первом	-3365
▁услыша	-3366
▁вероятно	-3367
▁проповедни	-3368
лит	-3369
люби	-3370
нета	-3371
▁дож	-3372
▁атмо	-3373
▁идет	-3374
▁прос	-3375
▁шамба	-3376
▁цвижба	-3377
▁планиру	-3378
▁уверены	-3379
▁посмотри	-3380
▁веры	-3381
▁москов	-3382
▁странах	-3383
▁испытания	-3384
▁родителям	-3385
▁международного	-3386
ье	-3387
вец	-3388
рка	-3389
тым	-3390
полу	-3391
▁пожи	-3392
▁чрез	-3393
▁досто	-3394
▁материаль	-3395
▁деятельность	-3396
▁50	-3397
▁съ	-3398
вной	-3399
▁геро	-3400
▁доме	-3401
▁изда	-3402
▁нашем	-3403
▁слыша	-3404
▁подража	-3405
▁полномо	-3406
ене	-3407
гами	-3408
▁лиц	-3409
▁горя	-3410
▁преж	-3411
▁прино	-3412
▁помогают	-3413
▁39	-3414
▁сро	-3415
▁лети	-3416
▁разо	-3417
▁месте	-3418
▁мудры	-3419
▁пионе	-3420
▁худож	-3421
▁очамчыр	-3422
▁сохранять	-3423
▁благословения	-3424
жеб	-3425
ньше	-3426
▁псал	-3427
▁селе	-3428
знен	-3429
▁кав	-3430
▁пой	-3431
▁знам	-3432
▁другу	-3433
▁иметь	-3434
▁процес	-3435
▁служеб	-3436
▁примеру	-3437
▁законода	-3438
ета	-3439
кия	-3440
куль	-3441
новь	-3442
льное	-3443
▁втор	-3444
▁годов	-3445
▁фонда	-3446
▁первую	-3447
жная	-3448
коба	-3449
▁уде	-3450
стный	-3451
▁спек	-3452
▁эксп	-3453
▁выбра	-3454
▁духом	-3455
▁десяти	-3456
▁заниматься	-3457
▁благодарность	-3458
зира	-3459
▁соло	-3460
▁союза	-3461
▁неверу	-3462
▁встречу	-3463
нос	-3464
вшего	-3465
ённый	-3466
▁режи	-3467
▁писал	-3468
▁кавказ	-3469
▁осозна	-3470
▁большинство	-3471
бур	-3472
лах	-3473
▁арти	-3474
▁ежего	-3475
▁надежду	-3476
▁спортив	-3477
▁проблема	-3478
др	-3479
тки	-3480
▁дар	-3481
▁мед	-3482
▁тек	-3483
▁2018	-3484
▁иуде	-3485
▁норма	-3486
▁академ	-3487
▁можете	-3488
▁пройдет	-3489
▁ii	-3490
▁тяж	-3491
▁поми	-3492
▁генна	-3493
▁проин	-3494
влением	-3495
▁власть	-3496
▁констан	-3497
▁принимать	-3498
▁участвовать	-3499
нье	-3500
чит	-3501
▁млн	-3502
▁нуж	-3503
▁разру	-3504
▁давида	-3505
▁конститу	-3506
▁принципы	-3507
gt	-3508
дель	-3509
чиво	-3510
▁меж	-3511
▁душе	-3512
▁тему	-3513
▁столк	-3514
▁учения	-3515
▁прочитай	-3516
тах	-3517
▁аг	-3518
цени	-3519
▁агу	-3520
▁сай	-3521
ложен	-3522
▁2019	-3523
▁бага	-3524
▁этно	-3525
▁греха	-3526
▁серге	-3527
тельная	-3528
▁становится	-3529
дий	-3530
нит	-3531
чным	-3532
▁удиви	-3533
▁члены	-3534
▁выстав	-3535
▁достой	-3536
▁намере	-3537
▁ненави	-3538
▁комплек	-3539
▁следовать	-3540
▁свидетелей	-3541
стер	-3542
навли	-3543
▁подгото	-3544
▁духовные	-3545
or	-3546
▁45	-3547
жного	-3548
▁адам	-3549
▁теми	-3550
▁лично	-3551
▁отвер	-3552
▁проку	-3553
▁точно	-3554
▁вместо	-3555
▁раньше	-3556
▁заседании	-3557
12	-3558
рба	-3559
▁дели	-3560
▁души	-3561
▁каса	-3562
▁божий	-3563
▁каких	-3564
▁новые	-3565
▁благот	-3566
▁кавказа	-3567
▁фестиваль	-3568
▁действительно	-3569
чали	-3570
▁кате	-3571
▁почет	-3572
▁путем	-3573
▁терпе	-3574
▁повтор	-3575
▁системы	-3576
▁считает	-3577
▁бук	-3578
▁навер	-3579
▁совеща	-3580
▁женщина	-3581
▁комиссии	-3582
▁проходит	-3583
▁ситуация	-3584
мей	-3585
▁41	-3586
куда	-3587
чено	-3588
▁хочу	-3589
▁едино	-3590
▁спустя	-3591
▁мудрость	-3592
▁взаимодей	-3593
▁42	-3594
рять	-3595
шком	-3596
▁нако	-3597
▁отцу	-3598
▁мария	-3599
▁брошюры	-3600
тельством	-3601
▁состоится	-3602
вл	-3603
бар	-3604
жает	-3605
▁хле	-3606
▁2015	-3607
▁пара	-3608
▁поме	-3609
▁руки	-3610
▁теку	-3611
ждений	-3612
▁абзац	-3613
рования	-3614
▁здраво	-3615
▁удалось	-3616
▁абхазские	-3617
▁экономики	-3618
разу	-3619
слов	-3620
чили	-3621
▁вино	-3622
▁слове	-3623
▁грузин	-3624
▁катего	-3625
▁праздник	-3626
▁благополу	-3627
▁мероприятий	-3628
бер	-3629
одо	-3630
▁ау	-3631
▁194	-3632
▁ули	-3633
▁1993	-3634
▁кров	-3635
ческим	-3636
▁святой	-3637
▁качестве	-3638
▁наследия	-3639
▁чемпиона	-3640
▁предусмотрен	-3641
▁государственный	-3642
▁агр	-3643
▁авраа	-3644
▁гости	-3645
фесянам	-3646
▁придет	-3647
▁воспомина	-3648
бро	-3649
дино	-3650
▁опас	-3651
▁попа	-3652
сторон	-3653
▁начал	-3654
▁хотят	-3655
▁память	-3656
▁молитве	-3657
▁неправи	-3658
▁сохранить	-3659
▁невозможно	-3660
▁рассказыва	-3661
ева	-3662
тых	-3663
печат	-3664
▁зале	-3665
▁иорда	-3666
▁разно	-3667
▁форми	-3668
▁момент	-3669
▁неболь	-3670
▁победи	-3671
▁поклоня	-3672
▁директор	-3673
▁молодежи	-3674
рук	-3675
лость	-3676
▁зави	-3677
▁пала	-3678
▁помогут	-3679
▁здоровья	-3680
дал	-3681
▁тю	-3682
вила	-3683
писы	-3684
▁ото	-3685
▁века	-3686
▁вашей	-3687
▁вновь	-3688
▁кодек	-3689
▁надзира	-3690
▁конферен	-3691
пр	-3692
▁it	-3693
самб	-3694
щают	-3695
▁ады	-3696
▁рус	-3697
▁суд	-3698
нного	-3699
биться	-3700
ванием	-3701
▁увели	-3702
▁музыка	-3703
▁любовью	-3704
▁обрести	-3705
▁показал	-3706
▁значение	-3707
▁изменения	-3708
▁старейшин	-3709
▁независимости	-3710
▁эс	-3711
пать	-3712
тите	-3713
▁джи	-3714
▁мол	-3715
▁поо	-3716
ологи	-3717
▁иере	-3718
▁мужа	-3719
▁пояс	-3720
жаться	-3721
ствуем	-3722
▁каком	-3723
▁возника	-3724
▁ие	-3725
▁ложь	-3726
▁иоанн	-3727
▁состра	-3728
▁выразил	-3729
▁44	-3730
▁th	-3731
▁вд	-3732
▁шо	-3733
нице	-3734
ганба	-3735
етесь	-3736
▁архи	-3737
▁почти	-3738
▁ранее	-3739
▁бганба	-3740
▁пришли	-3741
▁создал	-3742
▁иисусом	-3743
▁вопросов	-3744
▁использовать	-3745
нюю	-3746
фом	-3747
▁гл	-3748
▁очи	-3749
▁агрба	-3750
▁будьте	-3751
▁малень	-3752
▁прошла	-3753
▁желания	-3754
▁увидеть	-3755
▁развитию	-3756
▁разъ	-3757
▁суде	-3758
чением	-3759
▁радости	-3760
▁совесть	-3761
▁степени	-3762
▁участников	-3763
гей	-3764
дзия	-3765
зный	-3766
нили	-3767
▁шта	-3768
▁напа	-3769
▁слов	-3770
▁барци	-3771
▁объеди	-3772
▁изучать	-3773
▁прошлом	-3774
▁литературы	-3775
▁протяжении	-3776
▁соответствии	-3777
бр	-3778
▁60	-3779
рует	-3780
льным	-3781
▁мать	-3782
▁относится	-3783
▁зи	-3784
довали	-3785
начала	-3786
▁возна	-3787
▁заблу	-3788
▁барциц	-3789
▁видеть	-3790
▁сначала	-3791
▁должности	-3792
▁отношение	-3793
▁развивать	-3794
▁израильтян	-3795
▁результате	-3796
дка	-3797
жай	-3798
пой	-3799
зако	-3800
ляют	-3801
▁усы	-3802
ванию	-3803
▁угро	-3804
▁журна	-3805
▁сухума	-3806
▁международный	-3807
рию	-3808
ктора	-3809
сторо	-3810
▁вдох	-3811
▁неиз	-3812
▁скло	-3813
▁учеб	-3814
▁главное	-3815
▁спектак	-3816
▁рассказать	-3817
мых	-3818
▁100	-3819
▁дли	-3820
влено	-3821
ждены	-3822
иться	-3823
▁куро	-3824
▁откуда	-3825
▁совсем	-3826
▁концерт	-3827
▁перевод	-3828
▁столице	-3829
▁известно	-3830
▁проинформи	-3831
▁мас	-3832
▁евро	-3833
▁ошиб	-3834
▁штра	-3835
▁предс	-3836
▁великой	-3837
▁друзьями	-3838
▁поддержку	-3839
▁43	-3840
▁70	-3841
▁jw	-3842
▁кры	-3843
▁най	-3844
▁доба	-3845
▁пять	-3846
▁утра	-3847
▁частью	-3848
▁которыми	-3849
рик	-3850
сил	-3851
ыла	-3852
▁фу	-3853
чений	-3854
▁умира	-3855
▁пресле	-3856
▁турнир	-3857
▁вознагра	-3858
▁спортсменов	-3859
обла	-3860
▁газ	-3861
▁зам	-3862
еремо	-3863
▁попу	-3864
▁пунк	-3865
▁ребе	-3866
▁довер	-3867
▁опера	-3868
▁карача	-3869
▁неделю	-3870
вок	-3871
▁моя	-3872
▁скор	-3873
▁сайте	-3874
▁регулярно	-3875
▁гри	-3876
▁меч	-3877
▁воро	-3878
▁маль	-3879
▁новых	-3880
▁взгляд	-3881
▁записа	-3882
▁местах	-3883
▁охраны	-3884
▁сможем	-3885
▁спокой	-3886
▁проявил	-3887
▁электро	-3888
▁говорили	-3889
▁уважение	-3890
▁исполнять	-3891
▁начальник	-3892
гн	-3893
ево	-3894
▁ов	-3895
хода	-3896
▁веке	-3897
▁эшба	-3898
лагода	-3899
▁выслу	-3900
▁такая	-3901
▁ветера	-3902
▁повлия	-3903
▁преодо	-3904
▁итак	-3905
▁пово	-3906
▁широ	-3907
▁крови	-3908
▁небеса	-3909
▁читать	-3910
▁ребенок	-3911
▁слишком	-3912
▁историко	-3913
▁смирение	-3914
▁научиться	-3915
▁зре	-3916
▁случи	-3917
▁продук	-3918
▁женщины	-3919
▁иерусалим	-3920
▁настоящей	-3921
▁следующей	-3922
▁знали	-3923
▁корот	-3924
▁уважа	-3925
▁возник	-3926
▁смогут	-3927
▁религии	-3928
▁сторожевой	-3929
▁фес	-3930
говари	-3931
▁источ	-3932
▁достиг	-3933
▁родился	-3934
▁являются	-3935
зд	-3936
гом	-3937
кии	-3938
тал	-3939
цами	-3940
▁клу	-3941
вятся	-3942
▁види	-3943
▁замы	-3944
▁пожа	-3945
▁тепло	-3946
▁атмосф	-3947
▁спраши	-3948
▁беспокой	-3949
▁пророчество	-3950
▁ут	-3951
▁слы	-3952
ертво	-3953
▁привы	-3954
▁первые	-3955
▁счастье	-3956
▁культуре	-3957
▁здравоохра	-3958
▁количество	-3959
шний	-3960
▁тай	-3961
▁бесе	-3962
▁боро	-3963
▁твои	-3964
ностей	-3965
▁видел	-3966
▁служба	-3967
шла	-3968
▁гар	-3969
суаль	-3970
▁исце	-3971
▁неда	-3972
▁нема	-3973
▁прид	-3974
▁насто	-3975
▁привет	-3976
▁случай	-3977
ционного	-3978
▁записан	-3979
▁обязательно	-3980
лие	-3981
ями	-3982
ваний	-3983
▁мето	-3984
▁навы	-3985
жности	-3986
щается	-3987
▁сооте	-3988
▁узнали	-3989
▁благосло	-3990
▁получили	-3991
▁предпринима	-3992
▁соотечествен	-3993
жены	-3994
ссий	-3995
шный	-3996
▁пси	-3997
▁джопуа	-3998
▁такого	-3999
▁абхазская	-4000
org	-4001
пли	-4002
▁75	-4003
чная	-4004
▁191	-4005
довал	-4006
проек	-4007
▁обма	-4008
▁пози	-4009
▁дождь	-4010
▁рассу	-4011
▁талан	-4012
▁умере	-4013
▁постро	-4014
веро	-4015
пара	-4016
довлет	-4017
чивание	-4018
▁ангелы	-4019
сландзия	-4020
▁другого	-4021
▁молодых	-4022
▁подписал	-4023
▁доброволь	-4024
▁проявляет	-4025
▁ны	-4026
▁зара	-4027
новича	-4028
▁новом	-4029
▁аллаху	-4030
▁церемо	-4031
▁объедин	-4032
▁основан	-4033
▁чувство	-4034
▁пожертво	-4035
▁ткуарчал	-4036
хот	-4037
▁гне	-4038
▁реа	-4039
вании	-4040
▁водо	-4041
▁конф	-4042
▁пото	-4043
▁браке	-4044
▁знают	-4045
▁мысль	-4046
ческому	-4047
▁карачаево	-4048
▁соглашение	-4049
▁раю	-4050
▁ряд	-4051
▁тол	-4052
▁идти	-4053
▁край	-4054
▁обви	-4055
▁отре	-4056
▁можешь	-4057
▁первым	-4058
▁уголов	-4059
▁инвести	-4060
▁действия	-4061
▁абхазском	-4062
▁поддерживать	-4063
жка	-4064
зой	-4065
лии	-4066
жным	-4067
нете	-4068
▁той	-4069
▁деть	-4070
▁скры	-4071
▁чуде	-4072
видзба	-4073
▁марка	-4074
▁группы	-4075
▁узнаем	-4076
▁вспоминает	-4077
пл	-4078
лев	-4079
▁дж	-4080
дили	-4081
терпе	-4082
▁внес	-4083
▁обна	-4084
▁поле	-4085
▁эффе	-4086
▁адама	-4087
▁ниспо	-4088
▁решил	-4089
▁скром	-4090
▁авраам	-4091
▁многое	-4092
▁жителей	-4093
▁каждому	-4094
▁примени	-4095
▁поддержке	-4096
гл	-4097
лим	-4098
нта	-4099
тые	-4100
▁жил	-4101
▁руф	-4102
▁лана	-4103
▁плоды	-4104
▁разум	-4105
▁словом	-4106
▁задание	-4107
▁проводить	-4108
▁предостере	-4109
нина	-4110
▁мной	-4111
ничать	-4112
▁искан	-4113
▁прось	-4114
▁тарба	-4115
льность	-4116
тельную	-4117
▁препод	-4118
▁великого	-4119
▁кабинета	-4120
▁касландзия	-4121
▁воспоминания	-4122
шены	-4123
▁ели	-4124
▁кви	-4125
▁рез	-4126
▁воли	-4127
жества	-4128
нирова	-4129
▁брака	-4130
▁видит	-4131
▁запла	-4132
▁моего	-4133
▁поезд	-4134
▁разме	-4135
▁впечат	-4136
▁выступ	-4137
▁детьми	-4138
▁довери	-4139
▁какими	-4140
▁приеха	-4141
▁авидзба	-4142
▁выступи	-4143
▁парламент	-4144
▁всемирного	-4145
сл	-4146
сия	-4147
чки	-4148
зать	-4149
▁иде	-4150
▁пят	-4151
▁уто	-4152
▁член	-4153
▁леони	-4154
▁думать	-4155
▁поблагода	-4156
▁проведения	-4157
нг	-4158
нял	-4159
лены	-4160
▁вку	-4161
чивать	-4162
▁иисусе	-4163
▁красно	-4164
▁окружа	-4165
▁экзеков	-4166
▁отметила	-4167
зн	-4168
пят	-4169
выше	-4170
▁дочь	-4171
ложения	-4172
▁дороги	-4173
▁особен	-4174
▁первен	-4175
▁выступа	-4176
▁свободу	-4177
▁познакоми	-4178
▁профессиональ	-4179
пка	-4180
рас	-4181
▁вру	-4182
▁науки	-4183
▁одном	-4184
▁пропа	-4185
▁сесси	-4186
▁глазах	-4187
▁жертву	-4188
▁пересе	-4189
▁популя	-4190
▁ученикам	-4191
▁достаточно	-4192
▁соревнования	-4193
vi	-4194
свя	-4195
▁выз	-4196
▁мла	-4197
льном	-4198
▁выде	-4199
▁музе	-4200
▁сожа	-4201
зиться	-4202
▁гудау	-4203
▁целях	-4204
дование	-4205
▁велико	-4206
▁чрезвы	-4207
▁делегация	-4208
▁сокровища	-4209
▁состоянии	-4210
▁законопроек	-4211
▁трудностями	-4212
тен	-4213
▁мф	-4214
▁ами	-4215
ворил	-4216
щению	-4217
▁наибо	-4218
▁учить	-4219
▁гудаут	-4220
▁сергей	-4221
▁глубоко	-4222
▁месяцев	-4223
▁проблем	-4224
▁проекта	-4225
▁сердцем	-4226
▁встречах	-4227
▁фестиваля	-4228
лами	-4229
▁ими	-4230
видно	-4231
водит	-4232
▁дово	-4233
▁усер	-4234
жность	-4235
▁ансамб	-4236
▁позабо	-4237
▁заверши	-4238
▁препода	-4239
▁сделали	-4240
▁удовлет	-4241
▁хозяйства	-4242
▁организован	-4243
дах	-4244
чув	-4245
▁48	-4246
мани	-4247
▁зву	-4248
▁эмо	-4249
дцати	-4250
шений	-4251
▁марии	-4252
▁верхов	-4253
▁возгла	-4254
▁благотвори	-4255
▁руководством	-4256
▁197	-4257
▁зав	-4258
лении	-4259
▁собо	-4260
▁сочи	-4261
▁добра	-4262
▁колле	-4263
▁нелег	-4264
ливость	-4265
▁лакоба	-4266
▁пророк	-4267
▁высшего	-4268
▁проводя	-4269
▁знамения	-4270
▁которому	-4271
▁нравится	-4272
▁социально	-4273
▁чрезвычай	-4274
▁деятельностью	-4275
гой	-4276
ены	-4277
леко	-4278
льная	-4279
хнуть	-4280
▁наук	-4281
няется	-4282
▁адгур	-4283
▁пости	-4284
▁моисея	-4285
▁считают	-4286
▁сексуаль	-4287
▁поклонение	-4288
вос	-4289
пря	-4290
дена	-4291
няли	-4292
▁иак	-4293
▁иона	-4294
▁мемо	-4295
▁през	-4296
▁руфь	-4297
▁даниил	-4298
▁обороны	-4299
▁подходя	-4300
нба	-4301
валось	-4302
▁помог	-4303
▁силой	-4304
▁будешь	-4305
▁хотели	-4306
▁примеры	-4307
▁транспо	-4308
▁следующий	-4309
▁приходится	-4310
▁определенные	-4311
вшим	-4312
дной	-4313
▁куда	-4314
▁спут	-4315
▁замеча	-4316
▁смогли	-4317
▁упомина	-4318
▁преподнес	-4319
▁установлен	-4320
▁последствия	-4321
▁национальной	-4322
пов	-4323
чер	-4324
щал	-4325
дото	-4326
кнуть	-4327
▁одну	-4328
▁эсфи	-4329
▁божьей	-4330
▁зрения	-4331
▁провоз	-4332
▁кажется	-4333
▁подрост	-4334
▁обсудили	-4335
▁ожидается	-4336
▁положение	-4337
шит	-4338
мить	-4339
фика	-4340
▁ощу	-4341
▁гала	-4342
▁зака	-4343
▁поро	-4344
▁путе	-4345
▁разу	-4346
▁болез	-4347
▁вторы	-4348
▁дамей	-4349
▁рауля	-4350
▁группа	-4351
▁обычно	-4352
▁супругов	-4353
▁миллионов	-4354
▁соглашения	-4355
гру	-4356
▁пр	-4357
▁яс	-4358
▁виду	-4359
▁илья	-4360
▁коро	-4361
▁осад	-4362
числен	-4363
▁квици	-4364
▁техни	-4365
▁увидел	-4366
▁преодоле	-4367
▁пользоваться	-4368
дая	-4369
жил	-4370
▁вя	-4371
▁сс	-4372
▁жени	-4373
▁море	-4374
▁тамо	-4375
▁туда	-4376
ографи	-4377
▁ваших	-4378
▁самые	-4379
▁число	-4380
▁предан	-4381
▁мужество	-4382
▁делегации	-4383
▁преданность	-4384
вичу	-4385
скор	-4386
▁вита	-4387
▁любы	-4388
▁отды	-4389
▁печа	-4390
живание	-4391
▁восста	-4392
▁победу	-4393
▁станут	-4394
▁комитет	-4395
▁получил	-4396
▁братьями	-4397
▁пришлось	-4398
гия	-4399
деть	-4400
щены	-4401
гулия	-4402
▁гагр	-4403
▁лицо	-4404
▁ныне	-4405
ложить	-4406
редото	-4407
ходить	-4408
▁безнра	-4409
▁народом	-4410
▁успехов	-4411
▁отмечается	-4412
▁безнравствен	-4413
▁ави	-4414
вился	-4415
▁выво	-4416
▁жены	-4417
▁рода	-4418
▁краси	-4419
▁сфере	-4420
▁южной	-4421
▁сторону	-4422
▁предстоя	-4423
стор	-4424
стям	-4425
▁анд	-4426
ваясь	-4427
лейба	-4428
▁анти	-4429
▁поки	-4430
▁счет	-4431
▁лицом	-4432
▁верных	-4433
▁знаешь	-4434
▁прости	-4435
▁тяжело	-4436
▁надежда	-4437
▁финансо	-4438
▁создания	-4439
▁участники	-4440
▁мероприятие	-4441
▁здравоохранения	-4442
ске	-4443
▁тр	-4444
▁клю	-4445
▁веду	-4446
▁анато	-4447
▁демон	-4448
▁диску	-4449
▁компа	-4450
▁корре	-4451
▁самый	-4452
▁сопро	-4453
ционной	-4454
▁главным	-4455
▁ответил	-4456
▁хорошие	-4457
▁очевидно	-4458
▁сосредото	-4459
▁библейских	-4460
▁совершенно	-4461
вели	-4462
утбо	-4463
▁ого	-4464
нский	-4465
▁сезо	-4466
▁тама	-4467
▁учил	-4468
ванный	-4469
▁исаии	-4470
▁потре	-4471
▁верным	-4472
▁инвали	-4473
▁начать	-4474
▁нашему	-4475
▁тысячи	-4476
▁абхазов	-4477
▁самуила	-4478
▁обучение	-4479
▁креститься	-4480
▁торжествен	-4481
▁80	-4482
дник	-4483
круг	-4484
ющая	-4485
▁имел	-4486
вержен	-4487
ствием	-4488
▁гицба	-4489
▁гордо	-4490
▁покры	-4491
просить	-4492
▁отказа	-4493
▁порядке	-4494
▁штрафом	-4495
▁животных	-4496
▁материал	-4497
▁обещание	-4498
▁провозгла	-4499
▁абазинской	-4500
ёл	-4501
▁сва	-4502
логии	-4503
менти	-4504
▁дене	-4505
▁делам	-4506
▁исход	-4507
▁расти	-4508
▁целью	-4509
▁полной	-4510
роваться	-4511
▁большое	-4512
▁немного	-4513
▁приятно	-4514
▁политике	-4515
▁ир	-4516
риим	-4517
чном	-4518
▁193	-4519
▁нев	-4520
▁тен	-4521
▁руку	-4522
стоять	-4523
▁искать	-4524
▁твоего	-4525
▁членов	-4526
▁национа	-4527
▁придержи	-4528
▁эффектив	-4529
▁уверенность	-4530
▁общественной	-4531
тру	-4532
▁сбо	-4533
сятся	-4534
▁ближ	-4535
▁греш	-4536
▁фази	-4537
▁багра	-4538
▁ведет	-4539
▁выход	-4540
▁плодо	-4541
▁вокруг	-4542
▁активно	-4543
▁терпение	-4544
▁исполнение	-4545
▁представить	-4546
▁ответственность	-4547
кор	-4548
лял	-4549
тина	-4550
▁раб	-4551
ровка	-4552
▁муха	-4553
▁одер	-4554
вочный	-4555
▁англи	-4556
▁колос	-4557
▁судеб	-4558
▁благой	-4559
▁навыки	-4560
▁дополни	-4561
▁искренне	-4562
▁наказания	-4563
▁христианин	-4564
▁международных	-4565
зем	-4566
▁уд	-4567
▁бок	-4568
▁мер	-4569
▁2014	-4570
▁села	-4571
▁отцом	-4572
▁подар	-4573
▁упомя	-4574
▁футбо	-4575
▁достоин	-4576
▁постара	-4577
▁обещания	-4578
▁следующие	-4579
оны	-4580
пти	-4581
▁46	-4582
шими	-4583
▁вен	-4584
▁ужа	-4585
▁ваше	-4586
▁сере	-4587
валась	-4588
ровича	-4589
тились	-4590
▁давай	-4591
▁сочув	-4592
▁тобой	-4593
вляться	-4594
▁вызыва	-4595
▁послал	-4596
▁удосто	-4597
▁доброту	-4598
▁указания	-4599
ён	-4600
зка	-4601
тян	-4602
пози	-4603
тере	-4604
▁вет	-4605
▁нака	-4606
▁мусса	-4607
▁напол	-4608
▁филиа	-4609
▁экспо	-4610
вляется	-4611
▁жертвы	-4612
▁молодо	-4613
▁погода	-4614
▁помимо	-4615
▁вольной	-4616
▁атмосфер	-4617
▁должность	-4618
▁слушателей	-4619
▁очамчырского	-4620
брь	-4621
▁196	-4622
дение	-4623
▁сынов	-4624
▁такую	-4625
▁усыно	-4626
▁багапш	-4627
▁провел	-4628
▁пророчества	-4629
▁проинформировал	-4630
мут	-4631
сор	-4632
чься	-4633
▁дво	-4634
▁ков	-4635
▁аста	-4636
▁указ	-4637
▁холо	-4638
▁подда	-4639
▁прямо	-4640
▁замети	-4641
▁начали	-4642
▁смысле	-4643
▁господи	-4644
▁посещение	-4645
вд	-4646
есе	-4647
▁её	-4648
дами	-4649
читы	-4650
▁зве	-4651
▁опа	-4652
▁ассо	-4653
▁ваша	-4654
▁изго	-4655
▁репа	-4656
▁реша	-4657
▁семи	-4658
▁сыно	-4659
▁аршба	-4660
▁голос	-4661
▁имеют	-4662
▁мнению	-4663
▁отвечает	-4664
▁принципа	-4665
▁наказывается	-4666
кли	-4667
тит	-4668
тое	-4669
шта	-4670
жете	-4671
▁исх	-4672
▁дипло	-4673
▁любой	-4674
▁напом	-4675
▁струк	-4676
ционных	-4677
▁раскры	-4678
▁сессии	-4679
▁осадков	-4680
▁символи	-4681
▁изменить	-4682
▁эфесянам	-4683
▁поклонения	-4684
▁представьте	-4685
st	-4686
рили	-4687
шему	-4688
▁мис	-4689
▁мое	-4690
▁юри	-4691
▁видя	-4692
▁возь	-4693
▁алаша	-4694
▁живем	-4695
▁летию	-4696
▁научи	-4697
▁грузии	-4698
▁делают	-4699
▁жители	-4700
▁изобра	-4701
▁осетии	-4702
▁главный	-4703
▁заслужи	-4704
▁сыновей	-4705
еты	-4706
нят	-4707
фон	-4708
меня	-4709
тавли	-4710
▁попы	-4711
▁упла	-4712
питься	-4713
▁встреч	-4714
▁большая	-4715
▁мучения	-4716
▁разрабо	-4717
▁прежнему	-4718
▁программа	-4719
▁общественных	-4720
кле	-4721
▁зе	-4722
▁фл	-4723
18.0	-4724
гает	-4725
▁зас	-4726
▁сау	-4727
ствий	-4728
ющему	-4729
▁попе	-4730
▁влады	-4731
▁согре	-4732
▁убеди	-4733
▁вечную	-4734
▁гумани	-4735
▁мемори	-4736
▁прийти	-4737
▁провед	-4738
▁понимал	-4739
▁разговари	-4740
▁колоссянам	-4741
▁a	-4742
жей	-4743
лив	-4744
дные	-4745
исти	-4746
▁сви	-4747
▁санк	-4748
▁акции	-4749
▁ведом	-4750
▁члена	-4751
▁дьявол	-4752
▁женщин	-4753
▁жизнью	-4754
▁кодекса	-4755
▁репатри	-4756
▁турнира	-4757
▁учиться	-4758
▁бедствия	-4759
▁последний	-4760
20	-4761
зом	-4762
▁55	-4763
▁кр	-4764
няют	-4765
крати	-4766
▁бори	-4767
▁лаза	-4768
▁мяте	-4769
▁раба	-4770
▁чест	-4771
вились	-4772
вшихся	-4773
▁верно	-4774
▁еврей	-4775
ступить	-4776
▁знаком	-4777
▁месяца	-4778
▁близких	-4779
▁история	-4780
▁совершил	-4781
▁находятся	-4782
▁организаций	-4783
▁свидетельство	-4784
гах	-4785
▁оз	-4786
емой	-4787
знес	-4788
мости	-4789
рович	-4790
▁поря	-4791
шиться	-4792
▁война	-4793
▁выкуп	-4794
▁любим	-4795
▁турец	-4796
▁такими	-4797
▁поручил	-4798
▁торгово	-4799
▁примерно	-4800
▁ситуацию	-4801
▁благоразу	-4802
▁постановление	-4803
обо	-4804
бный	-4805
вана	-4806
сария	-4807
▁фара	-4808
▁ближай	-4809
▁гостей	-4810
▁истина	-4811
▁концер	-4812
▁адлейба	-4813
▁занятия	-4814
▁несколь	-4815
▁писание	-4816
▁турнире	-4817
▁филиппий	-4818
▁территория	-4819
▁заместителем	-4820
лье	-4821
щер	-4822
ждал	-4823
ропо	-4824
шься	-4825
▁боя	-4826
▁кос	-4827
▁низ	-4828
вляют	-4829
▁тюрь	-4830
▁ангел	-4831
▁патри	-4832
▁петер	-4833
ложение	-4834
▁абзацы	-4835
▁быстро	-4836
▁деньги	-4837
▁законы	-4838
▁никола	-4839
▁басария	-4840
▁бюджета	-4841
▁остается	-4842
▁основании	-4843
▁ҳ	-4844
жим	-4845
жут	-4846
лин	-4847
пись	-4848
рите	-4849
▁ной	-4850
▁тео	-4851
▁даст	-4852
▁улуч	-4853
▁безза	-4854
▁взрос	-4855
▁воору	-4856
▁домой	-4857
▁таком	-4858
▁провер	-4859
▁сможет	-4860
▁перспек	-4861
▁условия	-4862
▁избегать	-4863
▁смотреть	-4864
▁университета	-4865
▁ева	-4866
▁уди	-4867
лезно	-4868
▁кино	-4869
▁неба	-4870
емость	-4871
лением	-4872
▁оружи	-4873
законие	-4874
▁михаил	-4875
▁молодые	-4876
▁заботиться	-4877
▁настоящего	-4878
▁непременно	-4879
▁республику	-4880
чё	-4881
бок	-4882
боя	-4883
дел	-4884
джа	-4885
пля	-4886
фици	-4887
▁лаг	-4888
▁мет	-4889
▁союз	-4890
вилось	-4891
▁божьи	-4892
▁знако	-4893
▁итоге	-4894
▁начало	-4895
▁создать	-4896
▁правитель	-4897
▁реализации	-4898
▁относительно	-4899
вано	-4900
▁опо	-4901
писан	-4902
▁неви	-4903
станов	-4904
▁впере	-4905
▁гораз	-4906
▁книгу	-4907
▁бизнес	-4908
▁могуще	-4909
▁просты	-4910
▁квициния	-4911
▁существо	-4912
▁института	-4913
▁наказание	-4914
▁настоящее	-4915
▁рассматри	-4916
▁рассказала	-4917
▁справиться	-4918
▁сухумского	-4919
▁требования	-4920
дз	-4921
тек	-4922
куба	-4923
▁ква	-4924
▁педа	-4925
▁реда	-4926
▁иначе	-4927
▁спосо	-4928
▁итогам	-4929
▁решить	-4930
▁гораздо	-4931
▁группой	-4932
▁морской	-4933
▁предела	-4934
▁принесет	-4935
▁сомневаться	-4936
▁филиппийцам	-4937
ср	-4938
▁65	-4939
▁аве	-4940
▁зла	-4941
▁жене	-4942
▁нави	-4943
▁плен	-4944
▁стих	-4945
▁тема	-4946
▁закры	-4947
▁затра	-4948
▁расхо	-4949
циональ	-4950
▁немало	-4951
▁побуди	-4952
▁делится	-4953
▁наверня	-4954
▁настрой	-4955
▁геннадий	-4956
▁президентом	-4957
ув	-4958
зде	-4959
сей	-4960
▁аль	-4961
▁саи	-4962
▁выше	-4963
▁дове	-4964
▁фило	-4965
точный	-4966
▁богат	-4967
▁выбор	-4968
▁живет	-4969
▁нарко	-4970
▁повто	-4971
▁сирии	-4972
▁щедро	-4973
▁совету	-4974
▁абхазией	-4975
▁качество	-4976
▁поступил	-4977
▁местности	-4978
▁нравствен	-4979
▁слушаться	-4980
еми	-4981
щую	-4982
лыми	-4983
▁195	-4984
жению	-4985
несли	-4986
▁васи	-4987
▁рады	-4988
▁речи	-4989
▁тело	-4990
▁кровь	-4991
▁любил	-4992
▁любят	-4993
▁особы	-4994
▁царей	-4995
▁числа	-4996
▁спикер	-4997
▁беспоко	-4998
▁законом	-4999
▁оказыва	-5000
▁пророка	-5001
▁безуслов	-5002
▁выставка	-5003
▁духовных	-5004
▁обсудить	-5005
▁петербур	-5006
▁провести	-5007
▁заботится	-5008
▁заседание	-5009
▁внимательно	-5010
▁поклоняться	-5011
▁эль	-5012
надца	-5013
нство	-5014
▁моей	-5015
▁покой	-5016
▁приро	-5017
▁свыше	-5018
▁уника	-5019
▁зависи	-5020
▁превос	-5021
▁состав	-5022
▁ожидает	-5023
▁применя	-5024
▁удоволь	-5025
▁давление	-5026
▁наиболее	-5027
▁общаться	-5028
▁радостью	-5029
▁имущества	-5030
▁наверняка	-5031
▁существует	-5032
▁импе	-5033
▁солн	-5034
▁энер	-5035
▁буква	-5036
▁грехи	-5037
▁домаш	-5038
▁выпуск	-5039
▁нашими	-5040
▁превра	-5041
▁возраста	-5042
▁принимает	-5043
▁различных	-5044
▁преступление	-5045
▁строительство	-5046
емых	-5047
тивы	-5048
▁сни	-5049
салия	-5050
▁став	-5051
▁цвет	-5052
▁пребы	-5053
ческими	-5054
▁артист	-5055
▁иосифа	-5056
▁решать	-5057
▁служат	-5058
▁ангелов	-5059
▁великий	-5060
▁столкну	-5061
▁таможен	-5062
▁укрепля	-5063
▁первосвя	-5064
▁размышлять	-5065
▁спортсмены	-5066
▁свидетелями	-5067
▁международной	-5068
руг	-5069
лено	-5070
▁рав	-5071
▁шин	-5072
▁мате	-5073
житься	-5074
квабия	-5075
▁почув	-5076
▁ревно	-5077
▁письмо	-5078
▁словно	-5079
▁команда	-5080
▁святого	-5081
▁супруги	-5082
▁единство	-5083
▁миквабия	-5084
▁объектов	-5085
▁понимать	-5086
▁настолько	-5087
▁секретарь	-5088
▁воскресение	-5089
▁представитель	-5090
дзе	-5091
сах	-5092
шек	-5093
дуют	-5094
тива	-5095
щими	-5096
▁теп	-5097
▁тон	-5098
льщик	-5099
туаль	-5100
▁бесс	-5101
▁пицу	-5102
▁прок	-5103
ленный	-5104
▁игорь	-5105
▁пораз	-5106
▁картин	-5107
▁посоль	-5108
▁разные	-5109
▁решили	-5110
▁относятся	-5111
▁подготавли	-5112
▁первосвящен	-5113
чку	-5114
енье	-5115
▁гос	-5116
▁зап	-5117
▁знаю	-5118
▁крас	-5119
▁пови	-5120
▁описа	-5121
▁отсут	-5122
▁призы	-5123
▁прими	-5124
▁славы	-5125
▁узнал	-5126
▁учиты	-5127
▁форма	-5128
▁зависит	-5129
▁править	-5130
▁средней	-5131
▁хорошее	-5132
▁мудрости	-5133
▁случилось	-5134
▁учреждения	-5135
▁государство	-5136
▁представлен	-5137
▁y	-5138
лок	-5139
ющиеся	-5140
▁делал	-5141
▁визита	-5142
▁осетия	-5143
▁режисс	-5144
▁столич	-5145
тельному	-5146
▁ассоциа	-5147
▁случаях	-5148
▁направлен	-5149
▁удовлетво	-5150
▁республикой	-5151
бая	-5152
йка	-5153
шой	-5154
▁эн	-5155
боро	-5156
жено	-5157
трия	-5158
стров	-5159
▁одни	-5160
▁прод	-5161
ченный	-5162
▁выпла	-5163
▁пасту	-5164
▁пробу	-5165
▁вашего	-5166
▁вступа	-5167
▁голосо	-5168
▁прошли	-5169
▁языках	-5170
▁достичь	-5171
▁возрасте	-5172
▁общества	-5173
▁подумайте	-5174
124	-5175
лят	-5176
▁сю	-5177
тной	-5178
▁флп	-5179
скоми	-5180
▁даур	-5181
▁нечи	-5182
тивный	-5183
щением	-5184
▁вещей	-5185
▁людях	-5186
▁присо	-5187
▁остано	-5188
▁укрепи	-5189
▁органов	-5190
▁сестрам	-5191
▁прекрасный	-5192
▁человечества	-5193
гии	-5194
▁св	-5195
124;	-5196
▁ахь	-5197
▁вов	-5198
▁пав	-5199
▁спис	-5200
▁прием	-5201
▁центр	-5202
▁&#124;	-5203
▁многим	-5204
▁самоот	-5205
зировать	-5206
ственных	-5207
▁алашара	-5208
▁верными	-5209
▁нелегко	-5210
▁выразить	-5211
▁документ	-5212
▁применять	-5213
тк	-5214
дам	-5215
екии	-5216
▁аха	-5217
▁блу	-5218
▁буд	-5219
▁титу	-5220
▁убий	-5221
▁спаси	-5222
▁жизнен	-5223
▁мальчи	-5224
▁педаго	-5225
▁профес	-5226
▁сергея	-5227
▁госкоми	-5228
▁иезекии	-5229
▁израиля	-5230
▁референ	-5231
▁проявить	-5232
мери	-5233
чное	-5234
▁джу	-5235
▁зри	-5236
ствуя	-5237
▁заго	-5238
▁крот	-5239
▁доступ	-5240
▁великое	-5241
▁пригово	-5242
▁действий	-5243
▁производи	-5244
▁продолжать	-5245
зиа	-5246
тео	-5247
нден	-5248
номор	-5249
▁напро	-5250
▁обыча	-5251
▁позже	-5252
▁санкт	-5253
▁школу	-5254
▁южная	-5255
▁отлича	-5256
▁страте	-5257
▁команды	-5258
▁повелел	-5259
▁пригото	-5260
▁руководя	-5261
▁хотелось	-5262
▁апостолов	-5263
▁встретился	-5264
▁заблуждение	-5265
▁принадлежит	-5266
▁возвещателей	-5267
кт	-5268
пт	-5269
рг	-5270
лаг	-5271
обр	-5272
▁ещё	-5273
▁ран	-5274
▁аргу	-5275
▁вефи	-5276
▁дево	-5277
▁реки	-5278
ляется	-5279
носить	-5280
▁ближе	-5281
▁делах	-5282
спонден	-5283
▁верные	-5284
▁первая	-5285
▁спорту	-5286
▁шинкуба	-5287
▁здоровье	-5288
▁сотворил	-5289
▁безусловно	-5290
▁законопроект	-5291
▁государственном	-5292
вят	-5293
мар	-5294
шил	-5295
тора	-5296
▁бер	-5297
дного	-5298
▁ссср	-5299
▁артур	-5300
▁близо	-5301
▁зачем	-5302
▁легче	-5303
▁самой	-5304
▁будучи	-5305
▁важнее	-5306
▁вторых	-5307
▁выбира	-5308
▁назвал	-5309
▁учитель	-5310
▁вернуться	-5311
▁счастливы	-5312
▁определенной	-5313
lt	-5314
вью	-5315
сел	-5316
дных	-5317
▁охо	-5318
слана	-5319
▁душа	-5320
▁края	-5321
▁неве	-5322
▁осве	-5323
▁сосе	-5324
▁аслан	-5325
▁оскор	-5326
боязнен	-5327
▁божьем	-5328
▁буклет	-5329
▁другое	-5330
▁заболе	-5331
▁задача	-5332
▁конкре	-5333
▁мадина	-5334
▁письма	-5335
▁презен	-5336
▁твердо	-5337
▁незакон	-5338
▁общение	-5339
▁столько	-5340
▁хороший	-5341
ственного	-5342
▁иордании	-5343
▁наказыва	-5344
▁сельского	-5345
▁продолжает	-5346
▁благополучия	-5347
▁политической	-5348
▁сотрудничестве	-5349
шет	-5350
вшей	-5351
монт	-5352
пита	-5353
рной	-5354
стом	-5355
▁заг	-5356
▁май	-5357
▁вари	-5358
▁иова	-5359
▁проз	-5360
▁чудо	-5361
ленной	-5362
ющихся	-5363
▁иаков	-5364
▁мисси	-5365
▁несча	-5366
▁отста	-5367
▁подза	-5368
▁посол	-5369
▁проща	-5370
▁трево	-5371
▁отдела	-5372
▁родной	-5373
ственные	-5374
▁неблаго	-5375
▁объяснил	-5376
▁пионером	-5377
▁основание	-5378
▁признания	-5379
▁начальника	-5380
▁состоялась	-5381
▁заслуженный	-5382
▁корреспонден	-5383
дж	-5384
рд	-5385
бель	-5386
деся	-5387
маге	-5388
сили	-5389
чется	-5390
▁коле	-5391
▁взять	-5392
▁драго	-5393
▁могла	-5394
▁незна	-5395
▁реаль	-5396
▁тания	-5397
▁шести	-5398
▁одному	-5399
▁путеше	-5400
степриим	-5401
▁взгляды	-5402
▁знамени	-5403
▁помните	-5404
▁внимания	-5405
▁занимать	-5406
▁производ	-5407
▁внутренних	-5408
▁российских	-5409
▁богобоязнен	-5410
▁министерство	-5411
хн	-5412
мор	-5413
ссы	-5414
рица	-5415
льник	-5416
рность	-5417
▁затро	-5418
▁комму	-5419
▁силах	-5420
▁царем	-5421
▁желает	-5422
▁подвер	-5423
▁постра	-5424
▁академи	-5425
▁городов	-5426
▁историю	-5427
▁миллионы	-5428
▁обучения	-5429
▁послушание	-5430
▁проводится	-5431
тая	-5432
бере	-5433
гава	-5434
лана	-5435
лями	-5436
мный	-5437
тные	-5438
▁500	-5439
▁кли	-5440
▁мвд	-5441
▁пен	-5442
▁архе	-5443
▁живут	-5444
▁прода	-5445
▁радио	-5446
▁страх	-5447
тывание	-5448
▁раская	-5449
▁форума	-5450
рованный	-5451
▁близкие	-5452
▁порядок	-5453
▁предприя	-5454
▁условиях	-5455
▁министром	-5456
▁совместно	-5457
▁укреплять	-5458
▁настоящему	-5459
бей	-5460
ддо	-5461
▁пы	-5462
лети	-5463
стую	-5464
▁сда	-5465
▁тут	-5466
▁жену	-5467
▁олим	-5468
▁русс	-5469
▁сложи	-5470
тельном	-5471
▁видели	-5472
▁говорю	-5473
▁почита	-5474
▁самуил	-5475
▁властью	-5476
▁даниила	-5477
▁бороться	-5478
▁населения	-5479
▁показывают	-5480
▁размышление	-5481
▁национального	-5482
▁экономического	-5483
▁представителями	-5484
лле	-5485
рет	-5486
▁бт	-5487
веде	-5488
рити	-5489
▁лже	-5490
▁цве	-5491
нович	-5492
графии	-5493
▁описы	-5494
▁повле	-5495
▁поэта	-5496
▁раско	-5497
▁лучший	-5498
▁допуска	-5499
▁намного	-5500
▁помогло	-5501
▁развить	-5502
▁расписа	-5503
▁слушать	-5504
▁успешно	-5505
▁депутаты	-5506
▁комиссия	-5507
▁обстанов	-5508
▁черномор	-5509
▁связанные	-5510
▁сожалению	-5511
▁руководства	-5512
▁второзаконие	-5513
▁израильтянам	-5514
▁последователей	-5515
лони	-5516
туры	-5517
ванге	-5518
чными	-5519
▁2013	-5520
▁парт	-5521
▁прио	-5522
▁сцен	-5523
▁храм	-5524
валить	-5525
начале	-5526
▁еванге	-5527
▁мнение	-5528
▁юбилей	-5529
▁вначале	-5530
▁сыновья	-5531
▁апостолы	-5532
▁волнение	-5533
▁ниспосла	-5534
▁алиментов	-5535
▁двусторон	-5536
▁посещения	-5537
▁преподава	-5538
▁различные	-5539
▁гостеприим	-5540
▁действовать	-5541
▁совершенные	-5542
▁поддерживает	-5543
▁христианские	-5544
ал	-5545
вшее	-5546
ндра	-5547
нули	-5548
отно	-5549
сона	-5550
твор	-5551
циях	-5552
стоит	-5553
▁невы	-5554
▁прой	-5555
▁фран	-5556
влений	-5557
тельны	-5558
честву	-5559
▁далее	-5560
▁женой	-5561
▁насла	-5562
▁раска	-5563
▁смело	-5564
▁храма	-5565
тельств	-5566
▁облада	-5567
▁послуш	-5568
▁мужчина	-5569
▁личности	-5570
▁предвари	-5571
▁характер	-5572
▁сообщении	-5573
▁информацию	-5574
▁воскресения	-5575
▁несовершенно	-5576
доро	-5577
клон	-5578
нены	-5579
▁сих	-5580
жений	-5581
служи	-5582
▁апша	-5583
▁укра	-5584
▁фари	-5585
нологи	-5586
таться	-5587
▁крити	-5588
▁массо	-5589
▁отвра	-5590
▁важное	-5591
▁грехов	-5592
▁притча	-5593
▁конкурс	-5594
▁перемен	-5595
▁субботу	-5596
▁туристи	-5597
▁верность	-5598
▁написано	-5599
▁подробно	-5600
▁произведения	-5601
▁90	-5602
▁ву	-5603
влял	-5604
манд	-5605
тура	-5606
чена	-5607
▁зал	-5608
▁сол	-5609
▁упа	-5610
даний	-5611
тивно	-5612
▁ахба	-5613
▁приу	-5614
▁сбли	-5615
▁ахьдз	-5616
▁ждать	-5617
▁военно	-5618
▁делами	-5619
▁набере	-5620
▁сравни	-5621
▁третий	-5622
▁милость	-5623
▁обещает	-5624
▁апостола	-5625
▁касается	-5626
▁погибших	-5627
▁служению	-5628
▁сомнения	-5629
▁исполнилось	-5630
▁несовершеннолет	-5631
лон	-5632
сло	-5633
▁кч	-5634
▁чь	-5635
зуме	-5636
хать	-5637
ющую	-5638
▁иер	-5639
ешься	-5640
летия	-5641
▁меры	-5642
▁тако	-5643
▁ветер	-5644
▁серде	-5645
▁успеш	-5646
▁бывает	-5647
▁языков	-5648
▁отмечает	-5649
▁поразмыш	-5650
▁проводит	-5651
▁самообла	-5652
▁владислав	-5653
▁документа	-5654
▁искандера	-5655
▁физической	-5656
▁самоотвержен	-5657
гры	-5658
рый	-5659
▁аф	-5660
езда	-5661
дения	-5662
▁заво	-5663
▁заму	-5664
▁моря	-5665
▁след	-5666
▁кабар	-5667
▁нечто	-5668
▁преды	-5669
▁часов	-5670
▁правду	-5671
▁ремонт	-5672
▁спасти	-5673
▁дмитрия	-5674
▁отправи	-5675
▁примере	-5676
▁районов	-5677
▁духовное	-5678
▁духовной	-5679
▁выполнять	-5680
▁правления	-5681
▁устанавли	-5682
▁планируется	-5683
▁христианских	-5684
мед	-5685
хия	-5686
▁мм	-5687
тием	-5688
▁вар	-5689
▁выя	-5690
▁лев	-5691
▁лжи	-5692
▁меда	-5693
интере	-5694
▁вступ	-5695
▁нормы	-5696
▁оправ	-5697
▁оцени	-5698
▁прину	-5699
▁пусты	-5700
▁важные	-5701
▁вариан	-5702
▁заверя	-5703
▁мужчин	-5704
▁чагава	-5705
▁авраама	-5706
▁возраст	-5707
▁мужчины	-5708
▁наступи	-5709
▁подразуме	-5710
▁позволяет	-5711
▁публикации	-5712
▁совершенное	-5713
▁поблагодарил	-5714
▁руководители	-5715
19	-5716
гая	-5717
жес	-5718
лар	-5719
▁vi	-5720
▁xi	-5721
▁аа	-5722
тали	-5723
▁идо	-5724
▁сне	-5725
чесла	-5726
▁вещи	-5727
▁идут	-5728
▁неис	-5729
▁стои	-5730
▁могло	-5731
▁новое	-5732
▁полно	-5733
▁дружбу	-5734
▁знание	-5735
▁мыслей	-5736
▁особое	-5737
▁получа	-5738
▁четвер	-5739
▁вячесла	-5740
▁мертвых	-5741
▁насилия	-5742
▁просить	-5743
▁событие	-5744
▁состоит	-5745
тельности	-5746
▁библиоте	-5747
▁подобные	-5748
▁страница	-5749
▁укрепить	-5750
▁положения	-5751
▁промышлен	-5752
▁библейской	-5753
ген	-5754
ряс	-5755
▁твое	-5756
▁цент	-5757
нением	-5758
▁чисты	-5759
▁влияет	-5760
▁полови	-5761
▁статья	-5762
▁христе	-5763
▁влияние	-5764
▁стойкость	-5765
▁документов	-5766
▁находиться	-5767
▁разговоров	-5768
▁конференции	-5769
▁0	-5770
лья	-5771
рим	-5772
спи	-5773
▁ды	-5774
мень	-5775
тает	-5776
тете	-5777
струк	-5778
▁вред	-5779
▁моги	-5780
▁твоя	-5781
▁фами	-5782
▁вреда	-5783
▁ковче	-5784
▁нужна	-5785
▁пойти	-5786
▁пошли	-5787
магеддо	-5788
▁партии	-5789
▁служил	-5790
ничество	-5791
▁задания	-5792
▁прилага	-5793
▁счастья	-5794
▁увидели	-5795
▁примером	-5796
▁армагеддо	-5797
▁поддержать	-5798
ок	-5799
нар	-5800
лили	-5801
▁iii	-5802
▁вось	-5803
▁чаще	-5804
жается	-5805
▁выдви	-5806
▁навсе	-5807
▁плана	-5808
▁школа	-5809
▁египет	-5810
▁знаете	-5811
▁обрати	-5812
▁происхо	-5813
▁вооружен	-5814
▁драгоцен	-5815
▁заповеди	-5816
▁интересу	-5817
▁напротив	-5818
▁гуманитар	-5819
▁поведение	-5820
▁константин	-5821
▁приглашение	-5822
▁политических	-5823
вут	-5824
еме	-5825
куа	-5826
чек	-5827
чную	-5828
▁эпи	-5829
долго	-5830
▁инал	-5831
▁круг	-5832
▁поис	-5833
▁фонд	-5834
▁автор	-5835
▁одино	-5836
▁плоти	-5837
▁служа	-5838
▁сложно	-5839
▁действу	-5840
▁допусти	-5841
▁мировой	-5842
▁подарок	-5843
▁прокуро	-5844
▁интервью	-5845
▁оказался	-5846
▁привести	-5847
▁стараемся	-5848
▁верховного	-5849
▁старейшинам	-5850
дё	-5851
вяз	-5852
▁47	-5853
гают	-5854
думы	-5855
емые	-5856
▁каз	-5857
▁мощ	-5858
веден	-5859
▁анна	-5860
▁одоб	-5861
▁смог	-5862
водить	-5863
оборот	-5864
▁башни	-5865
▁иудей	-5866
▁необы	-5867
▁ноеми	-5868
▁сирий	-5869
▁труда	-5870
▁фесса	-5871
▁ценит	-5872
пустить	-5873
▁задачи	-5874
▁общего	-5875
▁паспор	-5876
▁прошед	-5877
▁сообще	-5878
нический	-5879
▁иеремия	-5880
▁последу	-5881
▁служили	-5882
▁навсегда	-5883
▁подобным	-5884
▁приходит	-5885
▁проявлял	-5886
▁родитель	-5887
▁писателей	-5888
▁александра	-5889
▁облачность	-5890
▁служителям	-5891
▁управление	-5892
бов	-5893
мую	-5894
нула	-5895
обще	-5896
ведли	-5897
▁церк	-5898
десяти	-5899
▁прида	-5900
▁сотво	-5901
▁твоей	-5902
▁курорт	-5903
▁народы	-5904
▁пожелал	-5905
▁связаны	-5906
▁употреб	-5907
▁учителя	-5908
▁нескольких	-5909
▁обращаться	-5910
▁атмосферное	-5911
▁r	-5912
ара	-5913
вим	-5914
мое	-5915
тник	-5916
шают	-5917
▁мяг	-5918
▁хиб	-5919
нений	-5920
▁обле	-5921
▁услы	-5922
ваемся	-5923
вшиеся	-5924
▁новым	-5925
ливание	-5926
▁давать	-5927
▁связей	-5928
▁перееха	-5929
▁причина	-5930
▁сильнее	-5931
▁личность	-5932
▁требуется	-5933
▁расписание	-5934
▁направления	-5935
▁религиозные	-5936
▁исследования	-5937
▁взаимодействия	-5938
луа	-5939
фик	-5940
ерки	-5941
лина	-5942
суль	-5943
чешь	-5944
▁кня	-5945
▁пас	-5946
телях	-5947
▁воле	-5948
▁иной	-5949
▁видим	-5950
▁долги	-5951
▁желаю	-5952
▁макси	-5953
▁ничто	-5954
▁самоу	-5955
чивость	-5956
▁англий	-5957
▁вечере	-5958
▁одежду	-5959
▁разоча	-5960
▁святым	-5961
▁большую	-5962
▁григорь	-5963
▁исключи	-5964
▁прожива	-5965
▁присоеди	-5966
▁создание	-5967
▁единствен	-5968
▁поколения	-5969
▁понимание	-5970
▁проповедь	-5971
▁профессиона	-5972
▁c	-5973
гно	-5974
тол	-5975
▁jy	-5976
▁кчр	-5977
▁ори	-5978
▁хро	-5979
рский	-5980
▁воля	-5981
▁заре	-5982
▁пищу	-5983
▁увле	-5984
ляться	-5985
▁адыге	-5986
▁слабо	-5987
▁автомо	-5988
▁переме	-5989
▁поводу	-5990
▁руслан	-5991
▁страну	-5992
▁ходить	-5993
▁гагулия	-5994
▁доверие	-5995
▁награду	-5996
▁наконец	-5997
▁наркоти	-5998
▁обучать	-5999
▁четырех	-6000
▁непросто	-6001
▁свободой	-6002
▁демонстра	-6003
▁запланирова	-6004
пп	-6005
зво	-6006
кос	-6007
люб	-6008
фей	-6009
голо	-6010
йный	-6011
мого	-6012
сток	-6013
▁кле	-6014
▁ура	-6015
ивать	-6016
рован	-6017
▁мама	-6018
▁опро	-6019
▁сайт	-6020
▁трен	-6021
ивание	-6022
▁лицем	-6023
▁пишет	-6024
▁попро	-6025
▁утром	-6026
сказыва	-6027
▁вечной	-6028
▁вообще	-6029
▁всякий	-6030
▁попечи	-6031
▁правил	-6032
▁сатане	-6033
▁назвать	-6034
▁отличие	-6035
▁ответить	-6036
▁пожелает	-6037
▁приходят	-6038
▁творения	-6039
▁поступить	-6040
▁руководству	-6041
душе	-6042
рыпш	-6043
ковой	-6044
торов	-6045
▁имен	-6046
▁неем	-6047
▁оцен	-6048
служен	-6049
способ	-6050
▁думаю	-6051
▁отдал	-6052
▁подал	-6053
▁спаса	-6054
▁эсфирь	-6055
▁этноса	-6056
▁виталий	-6057
▁господу	-6058
▁депутат	-6059
▁драмати	-6060
▁пояснил	-6061
▁предыду	-6062
▁причины	-6063
▁спирити	-6064
▁духовном	-6065
▁истинные	-6066
▁видеороли	-6067
▁основания	-6068
▁благодарны	-6069
▁потребности	-6070
▁сострадание	-6071
▁руководителя	-6072
▁ответственности	-6073
ала	-6074
пок	-6075
ноги	-6076
шено	-6077
енных	-6078
▁иуды	-6079
▁моих	-6080
▁осла	-6081
▁сино	-6082
гаться	-6083
▁самим	-6084
▁слабы	-6085
▁траге	-6086
▁какого	-6087
▁увидев	-6088
▁вавилон	-6089
▁молодой	-6090
▁помогли	-6091
▁сделает	-6092
▁процвета	-6093
▁проявляя	-6094
▁рассмотре	-6095
▁уважением	-6096
▁сотрудники	-6097
▁председателем	-6098
ьы	-6099
бка	-6100
жья	-6101
пар	-6102
ффа	-6103
▁аи	-6104
ации	-6105
жают	-6106
▁вдо	-6107
▁пти	-6108
имуще	-6109
новый	-6110
▁взял	-6111
▁коор	-6112
▁млад	-6113
▁неот	-6114
▁пион	-6115
▁подс	-6116
▁вашим	-6117
▁винов	-6118
▁лежит	-6119
▁завтра	-6120
▁основе	-6121
▁родину	-6122
▁хотите	-6123
▁главная	-6124
▁недавно	-6125
▁принцип	-6126
▁смертью	-6127
▁сопрово	-6128
▁остаться	-6129
▁сестрами	-6130
▁категории	-6131
▁региональ	-6132
▁библейский	-6133
▁иерусалима	-6134
▁культурных	-6135
▁незаслужен	-6136
▁представил	-6137
▁правительство	-6138
бь	-6139
гна	-6140
рят	-6141
шни	-6142
▁рт	-6143
руют	-6144
чери	-6145
▁дню	-6146
▁отс	-6147
стным	-6148
▁ужас	-6149
▁кампа	-6150
▁остро	-6151
▁отчет	-6152
▁приез	-6153
▁узнаём	-6154
▁фазиля	-6155
▁надежды	-6156
▁небесах	-6157
▁местного	-6158
▁политики	-6159
▁понимает	-6160
▁взаимоотно	-6161
▁московской	-6162
▁поговорить	-6163
▁родителями	-6164
wt	-6165
sty	-6166
▁52	-6167
жешь	-6168
поли	-6169
роди	-6170
солю	-6171
форм	-6172
▁nwt	-6173
▁бор	-6174
вость	-6175
нутся	-6176
▁зару	-6177
▁ребя	-6178
▁спло	-6179
▁вышел	-6180
▁месяц	-6181
▁новую	-6182
▁руках	-6183
▁угото	-6184
▁школь	-6185
▁абсолю	-6186
▁алексе	-6187
▁важный	-6188
▁команд	-6189
▁обещал	-6190
▁одежды	-6191
▁семьей	-6192
▁ученый	-6193
интересо	-6194
▁конфлик	-6195
▁духовную	-6196
▁огромное	-6197
▁работает	-6198
▁радовать	-6199
▁применить	-6200
▁подготовки	-6201
▁президенту	-6202
▁практически	-6203
▁международном	-6204
пор	-6205
▁пь	-6206
любо	-6207
▁весо	-6208
▁двор	-6209
▁орде	-6210
▁пост	-6211
▁видят	-6212
▁нераз	-6213
▁психо	-6214
▁целом	-6215
▁nwtsty	-6216
▁выборы	-6217
▁деревь	-6218
▁крайне	-6219
▁христу	-6220
▁всякого	-6221
▁научить	-6222
▁спросил	-6223
▁предсказа	-6224
▁иллюстрации	-6225
▁иллюстрацию	-6226
▁художествен	-6227
▁строительства	-6228
ат	-6229
жида	-6230
жите	-6231
▁гул	-6232
▁зах	-6233
▁пот	-6234
▁ачба	-6235
▁воду	-6236
▁гали	-6237
▁кове	-6238
▁успо	-6239
вилась	-6240
▁завое	-6241
▁тимур	-6242
▁уроки	-6243
ститься	-6244
▁мастер	-6245
▁разъяс	-6246
▁сторон	-6247
▁арсалия	-6248
▁болезни	-6249
▁георгий	-6250
▁составе	-6251
▁умерших	-6252
▁организу	-6253
▁парламен	-6254
▁понимаем	-6255
▁постанов	-6256
▁небесного	-6257
▁семейного	-6258
▁владислава	-6259
▁мероприятии	-6260
▁рассказывать	-6261
ъя	-6262
куп	-6263
▁51	-6264
ленно	-6265
тятся	-6266
чивый	-6267
▁ждет	-6268
▁поль	-6269
▁поощ	-6270
▁ущер	-6271
миться	-6272
шаться	-6273
▁будто	-6274
▁елена	-6275
▁женев	-6276
▁новой	-6277
▁пенси	-6278
▁понял	-6279
▁вечери	-6280
▁доверя	-6281
▁дружба	-6282
▁палаты	-6283
▁препят	-6284
▁скажут	-6285
▁годовщи	-6286
▁примеча	-6287
▁убежден	-6288
▁христом	-6289
▁принести	-6290
▁некоторым	-6291
▁праведные	-6292
▁соблюдать	-6293
▁противодей	-6294
▁возвещатели	-6295
▁обеспечения	-6296
мона	-6297
▁бри	-6298
▁уст	-6299
льную	-6300
ющийся	-6301
▁аргун	-6302
▁взаим	-6303
▁стиха	-6304
ведений	-6305
▁воспри	-6306
▁вступи	-6307
▁лучшее	-6308
▁научно	-6309
▁россия	-6310
▁милости	-6311
▁полезно	-6312
▁реализо	-6313
▁создана	-6314
▁участия	-6315
▁автомоби	-6316
▁движения	-6317
▁защитить	-6318
▁крещение	-6319
▁основные	-6320
▁подчерки	-6321
▁спросить	-6322
▁строитель	-6323
▁фессалони	-6324
▁говорилось	-6325
▁последователи	-6326
нча	-6327
мана	-6328
водят	-6329
дцать	-6330
тации	-6331
▁лето	-6332
▁начи	-6333
▁обли	-6334
▁овец	-6335
▁юрий	-6336
говори	-6337
ченных	-6338
▁давно	-6339
▁реаги	-6340
▁роман	-6341
▁самих	-6342
▁сыном	-6343
▁трудо	-6344
▁второе	-6345
▁дочери	-6346
▁добавил	-6347
▁общения	-6348
▁поднима	-6349
▁связано	-6350
▁попросил	-6351
▁привлека	-6352
▁продолжи	-6353
▁владимира	-6354
▁отношению	-6355
▁северного	-6356
▁организацию	-6357
▁обстоятельствах	-6358
вив	-6359
ура	-6360
▁сар	-6361
▁выну	-6362
▁горь	-6363
▁иско	-6364
▁кана	-6365
▁стан	-6366
▁схва	-6367
ждению	-6368
живать	-6369
▁занта	-6370
▁иудеи	-6371
▁огонь	-6372
▁плохи	-6373
▁превы	-6374
▁учили	-6375
▁аппара	-6376
▁недели	-6377
▁посыла	-6378
▁учимся	-6379
▁фарисе	-6380
▁чтения	-6381
тировать	-6382
▁большим	-6383
▁рабочей	-6384
▁крещения	-6385
▁наоборот	-6386
▁предстоит	-6387
▁приведите	-6388
▁предлагать	-6389
▁представляет	-6390
▁распространен	-6391
ряз	-6392
сит	-6393
сур	-6394
щет	-6395
▁ай	-6396
▁сл	-6397
цкия	-6398
▁рад	-6399
▁чан	-6400
▁изли	-6401
▁маши	-6402
▁мужу	-6403
тность	-6404
▁похва	-6405
ременно	-6406
▁далеко	-6407
▁избран	-6408
▁моисею	-6409
▁прислу	-6410
▁пройти	-6411
▁доброму	-6412
▁исправи	-6413
▁миллиар	-6414
▁работал	-6415
▁событий	-6416
▁столицы	-6417
▁стороне	-6418
▁чувству	-6419
▁влиянием	-6420
▁молодежь	-6421
▁перегово	-6422
▁традиции	-6423
▁совершали	-6424
▁терпеливо	-6425
▁поделиться	-6426
▁воскресенье	-6427
▁обсуждались	-6428
▁необходимости	-6429
▁сотрудничество	-6430
▁справедливость	-6431
▁76	-6432
гали	-6433
пуск	-6434
дника	-6435
▁2008	-6436
▁сути	-6437
ситься	-6438
ющимся	-6439
▁вдруг	-6440
▁грузи	-6441
▁домам	-6442
▁здоро	-6443
▁прово	-6444
▁свадь	-6445
▁божьим	-6446
▁делаем	-6447
▁каждой	-6448
▁открыл	-6449
▁родины	-6450
▁талант	-6451
▁заранее	-6452
▁орденом	-6453
▁осужден	-6454
▁посетил	-6455
▁прелюбо	-6456
▁система	-6457
▁уважать	-6458
▁инициати	-6459
▁началась	-6460
▁писатель	-6461
▁позволил	-6462
▁преимуще	-6463
▁стратеги	-6464
▁оказались	-6465
▁призывает	-6466
▁иерусалиме	-6467
▁литературу	-6468
▁обязанностей	-6469
▁государственным	-6470
ов	-6471
шал	-6472
▁49	-6473
▁уз	-6474
кров	-6475
раба	-6476
чник	-6477
шили	-6478
ющем	-6479
▁шал	-6480
▁бата	-6481
▁огне	-6482
▁роли	-6483
ковича	-6484
лённый	-6485
▁непра	-6486
▁прене	-6487
▁форум	-6488
ривание	-6489
▁масшта	-6490
▁никого	-6491
▁полнов	-6492
▁рабочи	-6493
лировать	-6494
▁границы	-6495
▁зантария	-6496
▁основном	-6497
▁вселенной	-6498
▁происходи	-6499
▁противоре	-6500
▁многочислен	-6501
▁проповедуем	-6502
▁l	-6503
дор	-6504
мас	-6505
низ	-6506
сон	-6507
тиви	-6508
▁тес	-6509
▁экс	-6510
енные	-6511
ложил	-6512
щихся	-6513
▁воин	-6514
▁кост	-6515
▁мучи	-6516
ктором	-6517
ченные	-6518
▁восем	-6519
▁вошли	-6520
▁герма	-6521
▁имена	-6522
▁флага	-6523
▁возьми	-6524
▁искупи	-6525
▁очамчы	-6526
▁принят	-6527
▁родине	-6528
▁центре	-6529
▁алексей	-6530
▁безопас	-6531
▁бояться	-6532
▁молитву	-6533
▁довольно	-6534
▁писателя	-6535
▁смиренно	-6536
▁составля	-6537
▁ветеранов	-6538
▁традицион	-6539
▁обратиться	-6540
▁преодолеть	-6541
▁развлечения	-6542
▁фессалоникий	-6543
луй	-6544
ваку	-6545
дным	-6546
терп	-6547
▁бой	-6548
▁впо	-6549
▁мыш	-6550
▁нур	-6551
▁умо	-6552
▁час	-6553
▁яро	-6554
порта	-6555
разия	-6556
телия	-6557
▁темы	-6558
▁функ	-6559
▁цари	-6560
шенный	-6561
▁верят	-6562
▁извле	-6563
▁узнав	-6564
▁юриди	-6565
▁звание	-6566
▁концов	-6567
▁родном	-6568
▁факуль	-6569
▁рассмот	-6570
▁соломон	-6571
▁возвраща	-6572
▁выставки	-6573
▁изучению	-6574
▁сообщила	-6575
▁приносить	-6576
▁соболезно	-6577
▁совещание	-6578
▁абазинский	-6579
▁милосердие	-6580
▁произойдет	-6581
▁общественно	-6582
▁наказываются	-6583
▁празднования	-6584
▁родственники	-6585
ент	-6586
шку	-6587
волю	-6588
вшая	-6589
лопо	-6590
нджо	-6591
▁смя	-6592
класс	-6593
▁горы	-6594
▁обру	-6595
▁эдем	-6596
▁абази	-6597
▁слову	-6598
▁шесть	-6599
▁беспла	-6600
▁вечерю	-6601
▁десять	-6602
▁доволь	-6603
▁жертва	-6604
▁мнения	-6605
▁уровне	-6606
▁предмет	-6607
▁телевид	-6608
▁увеличи	-6609
▁уровень	-6610
▁утешить	-6611
▁финанси	-6612
▁духовный	-6613
▁посещать	-6614
▁депутатов	-6615
▁пределами	-6616
▁принимают	-6617
▁фестивале	-6618
▁определить	-6619
▁праздником	-6620
▁журналистов	-6621
вне	-6622
нью	-6623
держ	-6624
пред	-6625
▁аре	-6626
▁ума	-6627
логия	-6628
▁плод	-6629
▁сина	-6630
▁напря	-6631
▁траги	-6632
▁эльви	-6633
▁господ	-6634
▁придне	-6635
▁причин	-6636
▁стойко	-6637
▁устрой	-6638
▁воодуше	-6639
▁гулрыпш	-6640
▁неожида	-6641
▁оставил	-6642
▁прощать	-6643
▁подобное	-6644
▁регистра	-6645
▁гагрского	-6646
▁женевских	-6647
▁опасности	-6648
▁поддержки	-6649
▁последней	-6650
▁приднестров	-6651
▁необходимость	-6652
▁фессалоникийцам	-6653
пле	-6654
тай	-6655
ждая	-6656
лежа	-6657
мыми	-6658
▁гва	-6659
▁эпо	-6660
ждали	-6661
▁бодр	-6662
▁охва	-6663
▁саду	-6664
▁това	-6665
▁хлеб	-6666
истине	-6667
льному	-6668
ренный	-6669
▁велел	-6670
▁клуба	-6671
▁пообе	-6672
▁пошел	-6673
▁разда	-6674
▁устро	-6675
▁борьбы	-6676
▁непоро	-6677
▁примет	-6678
▁собесе	-6679
тический	-6680
▁другому	-6681
▁затраги	-6682
▁пограни	-6683
▁требует	-6684
▁четверг	-6685
▁выставке	-6686
▁кротость	-6687
▁открывая	-6688
▁поистине	-6689
▁пренебре	-6690
▁пытается	-6691
▁страницы	-6692
▁студенты	-6693
▁дискуссий	-6694
▁инвалидов	-6695
▁повеление	-6696
сторожности	-6697
▁предсказал	-6698
▁федерацией	-6699
on	-6700
вр	-6701
иль	-6702
мян	-6703
▁пл	-6704
дное	-6705
нила	-6706
щено	-6707
щить	-6708
▁еже	-6709
▁мид	-6710
▁чём	-6711
ждают	-6712
жными	-6713
хозяй	-6714
▁выпа	-6715
▁гнев	-6716
▁душу	-6717
▁обез	-6718
дность	-6719
▁возму	-6720
▁лагер	-6721
▁повед	-6722
▁разво	-6723
▁рассе	-6724
▁труди	-6725
▁юбиле	-6726
▁газеты	-6727
▁деяние	-6728
▁каждом	-6729
▁ложной	-6730
▁опубли	-6731
▁предна	-6732
▁престо	-6733
▁привел	-6734
▁потерпе	-6735
▁проекты	-6736
▁подразде	-6737
▁культурно	-6738
▁отделения	-6739
▁праздника	-6740
▁приобрете	-6741
▁стараются	-6742
▁исполнении	-6743
▁художников	-6744
▁свидетельствует	-6745
11	-6746
зид	-6747
кол	-6748
нике	-6749
▁192	-6750
▁зер	-6751
▁мра	-6752
▁сор	-6753
▁шах	-6754
змава	-6755
▁двое	-6756
▁заха	-6757
▁злые	-6758
▁леон	-6759
▁пить	-6760
▁башне	-6761
▁красо	-6762
▁слепы	-6763
▁судом	-6764
вайтесь	-6765
▁автобу	-6766
▁данный	-6767
▁ошибки	-6768
▁присво	-6769
▁церкви	-6770
▁безупре	-6771
▁военной	-6772
▁джинджо	-6773
▁позволя	-6774
▁считать	-6775
▁хочется	-6776
▁коммента	-6777
▁начинает	-6778
▁серьезно	-6779
▁набережной	-6780
▁подготовке	-6781
▁посвященный	-6782
▁возможностей	-6783
бл	-6784
лт	-6785
вки	-6786
дки	-6787
рат	-6788
тят	-6789
▁мк	-6790
▁ашу	-6791
▁бал	-6792
▁мел	-6793
ритет	-6794
▁араб	-6795
▁воло	-6796
▁гром	-6797
▁меха	-6798
▁отры	-6799
▁хозя	-6800
тивных	-6801
▁стаби	-6802
▁судей	-6803
▁читая	-6804
▁этими	-6805
зывание	-6806
надцати	-6807
▁абхазы	-6808
▁восхва	-6809
▁дружбы	-6810
▁защиту	-6811
▁каждым	-6812
▁мудрый	-6813
▁постеп	-6814
▁прямым	-6815
▁словах	-6816
▁глазами	-6817
▁подумать	-6818
▁проходят	-6819
▁сообщили	-6820
▁теократи	-6821
▁древности	-6822
▁искусства	-6823
▁награжден	-6824
▁джинджолия	-6825
▁гудаутского	-6826
▁сегодняшний	-6827
▁противостоять	-6828
кн	-6829
әы	-6830
лки	-6831
мат	-6832
пит	-6833
сли	-6834
кция	-6835
▁делу	-6836
▁дени	-6837
▁зная	-6838
▁маха	-6839
▁огор	-6840
▁поне	-6841
▁преу	-6842
паться	-6843
▁иеффа	-6844
▁кораб	-6845
▁мушни	-6846
▁обита	-6847
▁прият	-6848
▁слева	-6849
▁сокра	-6850
гивание	-6851
▁видишь	-6852
▁демоны	-6853
▁дороге	-6854
▁закону	-6855
▁лучших	-6856
▁налого	-6857
▁торгов	-6858
▁помогал	-6859
ствование	-6860
▁герзмава	-6861
▁конкурса	-6862
▁обладает	-6863
▁проявляют	-6864
▁состояние	-6865
▁становятся	-6866
▁репатриации	-6867
или	-6868
мая	-6869
мин	-6870
сен	-6871
ждем	-6872
нуты	-6873
▁119	-6874
▁лау	-6875
▁ски	-6876
▁шер	-6877
десят	-6878
▁верх	-6879
▁лука	-6880
▁сыну	-6881
▁школ	-6882
ленных	-6883
▁анали	-6884
▁выйти	-6885
▁задей	-6886
▁обору	-6887
▁погло	-6888
▁призо	-6889
▁столь	-6890
▁стрем	-6891
▁татар	-6892
▁тетра	-6893
▁убить	-6894
▁чанба	-6895
▁одобря	-6896
▁порази	-6897
▁премии	-6898
▁родных	-6899
▁хочешь	-6900
▁языком	-6901
▁аллахом	-6902
▁воспиты	-6903
▁выборах	-6904
▁процесс	-6905
▁харазия	-6906
▁хорошим	-6907
▁духовным	-6908
▁подписан	-6909
▁нуждается	-6910
▁оказывать	-6911
▁предложил	-6912
▁прокурату	-6913
▁достижения	-6914
▁заинтересо	-6915
бир	-6916
коп	-6917
пия	-6918
▁иго	-6919
▁мою	-6920
▁сты	-6921
▁узы	-6922
▁иных	-6923
▁фрон	-6924
▁хана	-6925
видный	-6926
▁возвы	-6927
▁иного	-6928
ждается	-6929
▁верить	-6930
▁задума	-6931
▁подроб	-6932
▁примут	-6933
▁тысяче	-6934
▁интерна	-6935
▁подверг	-6936
▁содержи	-6937
▁сохрани	-6938
▁важность	-6939
▁избежать	-6940
▁отметить	-6941
▁черкесии	-6942
▁материалы	-6943
▁нарушение	-6944
зап	-6945
зму	-6946
фан	-6947
верь	-6948
нную	-6949
▁зад	-6950
жания	-6951
комен	-6952
честв	-6953
▁добы	-6954
▁есте	-6955
▁балка	-6956
▁визит	-6957
▁такти	-6958
держать	-6959
▁влиять	-6960
▁воинов	-6961
▁главой	-6962
▁заняли	-6963
▁просит	-6964
▁самари	-6965
▁стремя	-6966
▁астамур	-6967
▁валерия	-6968
▁жертвен	-6969
▁местные	-6970
▁подумай	-6971
▁усердно	-6972
▁понедель	-6973
▁константи	-6974
▁относился	-6975
▁прекрасно	-6976
▁состоялся	-6977
▁церемонии	-6978
▁ассоциации	-6979
▁знакомство	-6980
▁исполнения	-6981
▁расположен	-6982
▁результаты	-6983
▁проповедовал	-6984
кви	-6985
мно	-6986
уго	-6987
▁дв	-6988
мене	-6989
мопе	-6990
▁езе	-6991
▁ипа	-6992
верен	-6993
зация	-6994
ломет	-6995
щаясь	-6996
▁дабы	-6997
▁уточ	-6998
гистри	-6999
зирова	-7000
няются	-7001
▁креди	-7002
▁любые	-7003
▁нашли	-7004
▁откро	-7005
▁рамку	-7006
▁храме	-7007
▁алкого	-7008
▁раздра	-7009
▁тренер	-7010
тельский	-7011
▁выборов	-7012
▁выбрать	-7013
▁галатам	-7014
▁неудиви	-7015
▁позволит	-7016
▁ведомства	-7017
▁имущество	-7018
▁объяснить	-7019
▁студентов	-7020
▁постепенно	-7021
▁работников	-7022
▁справляться	-7023
▁пожертвования	-7024
▁предусмотренные	-7025
фы	-7026
▁©	-7027
блю	-7028
жий	-7029
цах	-7030
▁рв	-7031
▁шу	-7032
▁щи	-7033
стил	-7034
чере	-7035
скать	-7036
стных	-7037
▁алха	-7038
▁кафе	-7039
▁напо	-7040
▁побы	-7041
▁шами	-7042
▁нужны	-7043
▁близок	-7044
▁всякую	-7045
▁другая	-7046
▁отклик	-7047
▁судить	-7048
▁актуаль	-7049
▁бессмер	-7050
▁вдохнов	-7051
▁любящий	-7052
▁остался	-7053
▁академии	-7054
▁ансамбля	-7055
▁начнется	-7056
▁образова	-7057
▁псалмопе	-7058
▁работами	-7059
▁разногла	-7060
▁возможное	-7061
▁воспользу	-7062
▁проявляем	-7063
▁размышляя	-7064
▁транспорт	-7065
▁неудивительно	-7066
днев	-7067
рачи	-7068
след	-7069
тных	-7070
▁тща	-7071
▁шли	-7072
жется	-7073
клона	-7074
▁1914	-7075
▁2020	-7076
▁аджи	-7077
▁впол	-7078
▁лице	-7079
▁юные	-7080
▁двена	-7081
▁итоги	-7082
▁понра	-7083
▁старо	-7084
льности	-7085
▁важным	-7086
▁верный	-7087
▁защиты	-7088
▁многом	-7089
▁некото	-7090
▁растор	-7091
▁случаи	-7092
▁статью	-7093
▁усилий	-7094
▁виногра	-7095
▁девушки	-7096
▁закончи	-7097
▁израиле	-7098
▁истиной	-7099
▁открыто	-7100
▁вопросах	-7101
▁вспомним	-7102
▁интересы	-7103
▁приводит	-7104
▁ставропо	-7105
▁интересов	-7106
▁поздравля	-7107
▁серьезные	-7108
▁уважаемый	-7109
▁проводятся	-7110
▁госкомитета	-7111
▁российского	-7112
▁способность	-7113
▁государственных	-7114
ваю	-7115
дио	-7116
огу	-7117
тел	-7118
лова	-7119
рено	-7120
ряет	-7121
▁лых	-7122
▁руб	-7123
нутый	-7124
чатый	-7125
щиеся	-7126
▁игры	-7127
▁мета	-7128
▁общи	-7129
▁поэт	-7130
▁флаг	-7131
родный	-7132
▁агума	-7133
▁восхи	-7134
▁гумба	-7135
▁масте	-7136
▁повер	-7137
▁смысл	-7138
▁чирик	-7139
дывание	-7140
▁мессия	-7141
▁силами	-7142
▁говорим	-7143
▁километ	-7144
▁персона	-7145
▁порядка	-7146
▁трениру	-7147
▁беззакон	-7148
▁верующих	-7149
▁диаспора	-7150
▁казалось	-7151
▁крепкого	-7152
▁передать	-7153
▁семейное	-7154
▁утешение	-7155
▁кабардино	-7156
▁проходить	-7157
▁решительно	-7158
▁сохранения	-7159
▁сочувствие	-7160
▁необходимые	-7161
▁полномочный	-7162
▁признательность	-7163
ец	-7164
бую	-7165
миа	-7166
пба	-7167
тир	-7168
рика	-7169
▁бре	-7170
▁габ	-7171
▁зат	-7172
▁люд	-7173
▁оба	-7174
▁шаг	-7175
ваете	-7176
зария	-7177
стана	-7178
▁исче	-7179
▁книг	-7180
▁нала	-7181
▁опла	-7182
▁пита	-7183
▁саид	-7184
тирова	-7185
▁армии	-7186
▁батал	-7187
▁беско	-7188
▁верит	-7189
▁гагра	-7190
▁денег	-7191
▁нагля	-7192
▁облег	-7193
▁подви	-7194
▁помни	-7195
▁разли	-7196
▁сража	-7197
▁сцене	-7198
▁тарас	-7199
▁твоих	-7200
▁другую	-7201
▁думают	-7202
▁народе	-7203
▁проник	-7204
▁скажет	-7205
▁стихов	-7206
▁беслана	-7207
▁величай	-7208
▁выступил	-7209
▁повлиять	-7210
▁примеров	-7211
▁приносят	-7212
▁узнавать	-7213
▁археологи	-7214
▁воспользо	-7215
▁напоминает	-7216
▁предполага	-7217
▁священного	-7218
▁официальный	-7219
▁преступлений	-7220
каз	-7221
мбу	-7222
чев	-7223
▁оф	-7224
чета	-7225
щали	-7226
▁взы	-7227
▁кля	-7228
▁мон	-7229
▁ост	-7230
▁ссы	-7231
стики	-7232
▁дали	-7233
▁освя	-7234
▁плот	-7235
▁услу	-7236
▁шаги	-7237
▁ашуба	-7238
▁враги	-7239
▁думал	-7240
▁задач	-7241
▁комна	-7242
▁лауре	-7243
▁насме	-7244
▁петру	-7245
▁повре	-7246
▁прото	-7247
▁ремон	-7248
▁боевой	-7249
▁боевых	-7250
▁вестью	-7251
▁голову	-7252
▁добрые	-7253
▁зарубе	-7254
▁леонид	-7255
▁правда	-7256
▁создан	-7257
▁читаем	-7258
▁большей	-7259
▁вторник	-7260
▁площади	-7261
▁проница	-7262
▁доверять	-7263
▁координа	-7264
▁пережить	-7265
▁поговори	-7266
▁находился	-7267
▁остальные	-7268
▁дальнейшем	-7269
▁называется	-7270
вов	-7271
гал	-7272
зно	-7273
кар	-7274
мол	-7275
ону	-7276
▁ох	-7277
▁зим	-7278
▁пох	-7279
▁сна	-7280
стной	-7281
▁нали	-7282
▁укло	-7283
образо	-7284
▁зураб	-7285
▁стати	-7286
вляются	-7287
▁баграт	-7288
▁давиду	-7289
▁добрым	-7290
▁марина	-7291
▁отдыха	-7292
▁успеха	-7293
нировать	-7294
▁визитом	-7295
▁всемогу	-7296
▁жестоко	-7297
▁правило	-7298
▁россией	-7299
▁педагоги	-7300
▁приблизи	-7301
▁директора	-7302
▁духовного	-7303
▁заседания	-7304
▁известный	-7305
▁краснодар	-7306
▁останется	-7307
▁последних	-7308
▁характера	-7309
▁зарегистри	-7310
▁отношениях	-7311
▁творчества	-7312
▁сталкиваются	-7313
▁человечество	-7314
▁самообладание	-7315
▁соболезнования	-7316
аа	-7317
▁g	-7318
рыз	-7319
тке	-7320
▁54	-7321
▁58	-7322
▁66	-7323
змом	-7324
▁дай	-7325
▁дес	-7326
▁сад	-7327
▁сбы	-7328
дному	-7329
тябрь	-7330
▁бабу	-7331
▁девя	-7332
▁смыр	-7333
▁стес	-7334
▁викто	-7335
▁делом	-7336
▁миром	-7337
▁созна	-7338
▁авваку	-7339
▁важных	-7340
▁вечера	-7341
▁внутри	-7342
▁нейтра	-7343
▁ордена	-7344
▁северо	-7345
▁страха	-7346
▁считал	-7347
▁цветов	-7348
▁впослед	-7349
▁главных	-7350
▁популяр	-7351
▁условий	-7352
▁вызывает	-7353
▁главного	-7354
▁неизвест	-7355
▁огромную	-7356
▁оставить	-7357
▁сегодняш	-7358
▁мужествен	-7359
▁ненавидит	-7360
▁правление	-7361
▁укрепляет	-7362
▁переменная	-7363
▁полагаться	-7364
▁эмоциональ	-7365
▁образование	-7366
▁развлечений	-7367
▁беспокойства	-7368
▁впоследствии	-7369
▁родственников	-7370
▁последователям	-7371
уэ	-7372
бай	-7373
зти	-7374
лец	-7375
мок	-7376
ндо	-7377
чёт	-7378
ёрт	-7379
▁дн	-7380
▁ур	-7381
ряду	-7382
▁сан	-7383
▁эфи	-7384
циона	-7385
▁вашу	-7386
▁коба	-7387
▁отбы	-7388
▁соли	-7389
▁тела	-7390
мотрел	-7391
ностях	-7392
▁карти	-7393
▁лакер	-7394
▁общей	-7395
▁самая	-7396
▁добрый	-7397
▁ковчег	-7398
▁юношей	-7399
▁брошюре	-7400
▁вечером	-7401
▁замысел	-7402
▁компози	-7403
▁личного	-7404
▁районах	-7405
▁религия	-7406
▁сохраня	-7407
▁эксплуа	-7408
▁находясь	-7409
▁придется	-7410
▁абхазским	-7411
▁программу	-7412
▁содержится	-7413
▁сообщается	-7414
▁состоялось	-7415
▁готовностью	-7416
▁организаторы	-7417
ra	-7418
пя	-7419
гба	-7420
мец	-7421
мощ	-7422
▁53	-7423
вале	-7424
лета	-7425
ними	-7426
писи	-7427
сами	-7428
чала	-7429
▁ску	-7430
▁бело	-7431
▁мала	-7432
▁пони	-7433
▁войти	-7434
▁держа	-7435
▁замуж	-7436
▁плоть	-7437
▁сотни	-7438
▁сумму	-7439
▁важную	-7440
▁войска	-7441
▁именем	-7442
▁москвы	-7443
▁никому	-7444
▁охотно	-7445
▁скорби	-7446
▁большие	-7447
▁гудаута	-7448
▁думаете	-7449
▁пожалуй	-7450
▁ежегодно	-7451
▁название	-7452
▁получать	-7453
▁проектов	-7454
▁участием	-7455
▁интересно	-7456
▁поступали	-7457
▁воспитание	-7458
▁обсуждения	-7459
▁референдума	-7460
▁представлены	-7461
▁представление	-7462
фу	-7463
зей	-7464
льм	-7465
лян	-7466
пан	-7467
сии	-7468
тон	-7469
нава	-7470
▁144	-7471
▁игр	-7472
снуть	-7473
▁2012	-7474
▁гран	-7475
▁деду	-7476
▁эккл	-7477
каться	-7478
ложили	-7479
▁закан	-7480
▁консу	-7481
▁сыгра	-7482
▁тенни	-7483
▁экспе	-7484
вывание	-7485
шивание	-7486
ющегося	-7487
▁египта	-7488
▁партий	-7489
▁поняли	-7490
▁службу	-7491
▁стихий	-7492
▁синопти	-7493
▁считали	-7494
▁чирикба	-7495
▁говорите	-7496
▁двадцати	-7497
▁делиться	-7498
▁единства	-7499
▁институт	-7500
▁молитесь	-7501
▁спасения	-7502
▁обратился	-7503
▁поступают	-7504
▁появились	-7505
▁федерация	-7506
▁проповедуя	-7507
▁социальной	-7508
▁последствий	-7509
▁способности	-7510
▁министерством	-7511
▁общественного	-7512
▁соревнованиях	-7513
▁неосторожности	-7514
▁взаимоотношения	-7515
век	-7516
жая	-7517
лию	-7518
▁гр	-7519
19.0	-7520
бели	-7521
домо	-7522
яние	-7523
▁xix	-7524
▁дро	-7525
▁соч	-7526
▁убы	-7527
рении	-7528
▁адзы	-7529
▁дбар	-7530
▁нама	-7531
▁наме	-7532
товича	-7533
шается	-7534
▁квали	-7535
▁отвле	-7536
▁преде	-7537
▁приле	-7538
фикации	-7539
▁близко	-7540
▁габния	-7541
▁заняла	-7542
▁изгото	-7543
▁назван	-7544
▁наилуч	-7545
▁бойтесь	-7546
▁впереди	-7547
▁обслужи	-7548
▁причине	-7549
▁рабочая	-7550
▁спасибо	-7551
▁истинный	-7552
▁очамчыра	-7553
▁проходил	-7554
▁прошлого	-7555
▁существу	-7556
▁изменений	-7557
▁искренние	-7558
▁небольшой	-7559
▁обращение	-7560
▁утвержден	-7561
▁заключение	-7562
▁показываем	-7563
▁подчиняться	-7564
▁представляя	-7565
▁поздравлении	-7566
▁независимость	-7567
зг	-7568
вёр	-7569
нге	-7570
чии	-7571
▁мх	-7572
лава	-7573
ляем	-7574
надо	-7575
▁300	-7576
▁дав	-7577
▁дне	-7578
▁киш	-7579
▁сул	-7580
▁улы	-7581
лармо	-7582
летов	-7583
стные	-7584
▁дзид	-7585
▁моим	-7586
▁ноги	-7587
▁раза	-7588
▁реак	-7589
▁сото	-7590
▁фоль	-7591
▁брату	-7592
▁захва	-7593
▁непос	-7594
▁парке	-7595
▁подня	-7596
▁прису	-7597
▁славу	-7598
новения	-7599
▁любите	-7600
▁наступ	-7601
▁отрица	-7602
▁патрио	-7603
▁побере	-7604
▁успоко	-7605
▁доброде	-7606
▁наблюда	-7607
▁подарки	-7608
▁провели	-7609
▁счастью	-7610
▁умершие	-7611
▁эльвира	-7612
правления	-7613
▁ансамбль	-7614
▁договори	-7615
▁заповедь	-7616
▁основных	-7617
▁пророков	-7618
▁паспортов	-7619
▁страданий	-7620
▁церемония	-7621
▁абазинских	-7622
▁готовность	-7623
▁президенте	-7624
▁президенты	-7625
дри	-7626
ссе	-7627
сый	-7628
дует	-7629
коле	-7630
лады	-7631
ляли	-7632
▁жду	-7633
▁коп	-7634
▁нах	-7635
▁сби	-7636
▁сел	-7637
▁фра	-7638
▁безд	-7639
▁вода	-7640
▁инар	-7641
▁иные	-7642
▁исаа	-7643
▁нера	-7644
▁опер	-7645
▁пищи	-7646
▁углу	-7647
дивиду	-7648
льными	-7649
россий	-7650
▁возбу	-7651
▁годом	-7652
▁двумя	-7653
▁карто	-7654
▁мятеж	-7655
▁прохо	-7656
▁психи	-7657
▁самуи	-7658
▁василь	-7659
▁внешне	-7660
▁делали	-7661
▁египте	-7662
▁заявил	-7663
▁прямой	-7664
▁синаго	-7665
▁сказав	-7666
▁широко	-7667
▁видение	-7668
▁надежде	-7669
▁вячеслав	-7670
▁индивиду	-7671
▁ободрять	-7672
▁приведен	-7673
▁проведен	-7674
▁дзидзария	-7675
▁окончания	-7676
▁поделился	-7677
▁сухумской	-7678
▁убеждения	-7679
▁участвуют	-7680
▁учениками	-7681
▁христиани	-7682
▁государств	-7683
▁проведение	-7684
▁составляет	-7685
▁сотрудников	-7686
▁университет	-7687
▁познакомиться	-7688
16	-7689
дёт	-7690
▁56	-7691
▁сх	-7692
вите	-7693
зами	-7694
лизм	-7695
реть	-7696
рина	-7697
щена	-7698
энер	-7699
▁коз	-7700
▁сша	-7701
служа	-7702
ципли	-7703
▁духе	-7704
▁инфо	-7705
клезиа	-7706
▁волну	-7707
▁левит	-7708
▁неред	-7709
▁облож	-7710
▁свете	-7711
▁судьи	-7712
▁устре	-7713
▁чудес	-7714
▁врагов	-7715
▁горячо	-7716
▁зарабо	-7717
▁звания	-7718
▁подзаг	-7719
▁предус	-7720
▁проком	-7721
▁соедин	-7722
▁детства	-7723
▁истинно	-7724
▁кобахия	-7725
▁мыслями	-7726
▁награда	-7727
▁насилие	-7728
▁получат	-7729
▁просвет	-7730
▁рекомен	-7731
▁следова	-7732
▁гордость	-7733
▁напомнил	-7734
▁небесный	-7735
▁оставили	-7736
▁собранию	-7737
▁сообщают	-7738
▁экклезиа	-7739
▁организуй	-7740
▁предназна	-7741
▁трудиться	-7742
▁военнослужа	-7743
▁заслуживает	-7744
▁надзиратель	-7745
▁праведность	-7746
▁приходилось	-7747
▁прокомменти	-7748
▁исторической	-7749
▁политические	-7750
▁христианская	-7751
▁исправительными	-7752
ад	-7753
жие	-7754
лью	-7755
▁72	-7756
▁сф	-7757
▁бит	-7758
▁ужи	-7759
вшему	-7760
тором	-7761
▁погу	-7762
▁факт	-7763
▁хуже	-7764
стский	-7765
▁возда	-7766
▁кубок	-7767
▁музея	-7768
▁обето	-7769
▁перес	-7770
▁планы	-7771
▁прока	-7772
▁театр	-7773
▁улице	-7774
▁вполне	-7775
▁европы	-7776
▁знаний	-7777
▁контак	-7778
▁мусуль	-7779
▁солнце	-7780
▁нередко	-7781
▁никаких	-7782
▁поездки	-7783
▁религию	-7784
▁слышать	-7785
▁фолькло	-7786
▁исполнит	-7787
▁паспорта	-7788
▁понимают	-7789
▁сравнить	-7790
▁вопросами	-7791
▁иезекииль	-7792
▁поступает	-7793
▁праздники	-7794
▁программе	-7795
▁противопо	-7796
▁указывает	-7797
▁вооруженных	-7798
▁заключается	-7799
▁национально	-7800
▁генерального	-7801
▁министерстве	-7802
▁национальных	-7803
▁недостаточно	-7804
тэ	-7805
бий	-7806
бле	-7807
бом	-7808
гьы	-7809
зть	-7810
▁ез	-7811
▁ул	-7812
▁ман	-7813
▁стр	-7814
енное	-7815
ерков	-7816
стора	-7817
▁2011	-7818
▁вока	-7819
▁домо	-7820
▁идея	-7821
▁ласу	-7822
▁моро	-7823
▁сюда	-7824
▁верой	-7825
▁имели	-7826
▁костю	-7827
▁повсе	-7828
▁сквер	-7829
▁страш	-7830
▁фильм	-7831
▁невиди	-7832
▁похоро	-7833
▁правди	-7834
▁родным	-7835
▁городах	-7836
▁курорта	-7837
▁местных	-7838
▁сможете	-7839
▁вавилона	-7840
▁галского	-7841
▁господин	-7842
▁источник	-7843
▁остались	-7844
▁произнес	-7845
▁апостолам	-7846
▁возникают	-7847
▁инфопорта	-7848
▁нуждаются	-7849
▁объясните	-7850
▁плодотвор	-7851
▁появилась	-7852
▁совершать	-7853
▁столичной	-7854
▁библейским	-7855
▁появляется	-7856
▁содействия	-7857
▁чемпионата	-7858
▁черкесской	-7859
▁мероприятиях	-7860
▁христианском	-7861
▁руководителей	-7862
10	-7863
хь	-7864
чом	-7865
▁въ	-7866
вляя	-7867
жена	-7868
сора	-7869
ёнок	-7870
▁вещ	-7871
вшими	-7872
клады	-7873
▁злых	-7874
▁марш	-7875
▁мхце	-7876
▁полю	-7877
▁разд	-7878
▁сило	-7879
▁царю	-7880
вающий	-7881
▁входи	-7882
▁истре	-7883
▁людми	-7884
▁микро	-7885
▁ценим	-7886
▁доктор	-7887
▁класси	-7888
▁нормам	-7889
▁божьему	-7890
▁выслуша	-7891
▁наделил	-7892
▁покрови	-7893
▁приводи	-7894
▁связана	-7895
▁членами	-7896
▁бедствие	-7897
▁заслужен	-7898
▁компании	-7899
▁народный	-7900
▁никакого	-7901
▁осталось	-7902
▁помогали	-7903
▁развитии	-7904
▁ребенком	-7905
▁спутника	-7906
▁повторное	-7907
▁поставлен	-7908
▁профессор	-7909
▁российско	-7910
зв	-7911
сн	-7912
вку	-7913
гуш	-7914
леп	-7915
ору	-7916
мура	-7917
нена	-7918
тным	-7919
▁выу	-7920
▁зме	-7921
▁кал	-7922
▁кло	-7923
▁сно	-7924
кович	-7925
лятся	-7926
стами	-7927
▁асси	-7928
▁боли	-7929
▁ильи	-7930
▁крат	-7931
▁нара	-7932
▁олег	-7933
▁экза	-7934
ленные	-7935
▁акция	-7936
▁амери	-7937
▁вашем	-7938
▁венес	-7939
▁возро	-7940
▁выгля	-7941
▁давал	-7942
▁мудрые	-7943
▁отмеча	-7944
▁повлек	-7945
▁развед	-7946
▁демонов	-7947
▁доброта	-7948
▁махаджи	-7949
▁многому	-7950
▁надеюсь	-7951
▁писании	-7952
▁пройдут	-7953
▁соснали	-7954
▁ставить	-7955
▁супруга	-7956
▁экспози	-7957
▁близкого	-7958
▁душевный	-7959
▁нейтрали	-7960
▁пострада	-7961
▁абхазскую	-7962
▁заявление	-7963
▁совершает	-7964
▁абхазскому	-7965
▁благоразум	-7966
▁посмотреть	-7967
▁признается	-7968
▁сохранение	-7969
▁неправильно	-7970
▁переживания	-7971
▁позаботился	-7972
▁исследований	-7973
▁использованием	-7974
йн	-7975
леб	-7976
мах	-7977
фра	-7978
шев	-7979
▁ҳа	-7980
жную	-7981
▁зар	-7982
▁зау	-7983
▁рук	-7984
▁сче	-7985
▁умы	-7986
▁эго	-7987
вляли	-7988
делия	-7989
дроме	-7990
нулся	-7991
▁выяс	-7992
▁насы	-7993
▁оглы	-7994
▁рост	-7995
▁учат	-7996
дитесь	-7997
стость	-7998
▁адрес	-7999
▁веков	-8000
▁войну	-8001
▁желая	-8002
▁мужем	-8003
▁обуча	-8004
▁опять	-8005
▁прибе	-8006
▁резер	-8007
▁языку	-8008
▁бжания	-8009
▁данные	-8010
▁землей	-8011
▁ответь	-8012
▁продви	-8013
▁стихот	-8014
▁товари	-8015
▁адзынба	-8016
▁наступа	-8017
▁приняла	-8018
▁ребенку	-8019
▁договора	-8020
▁подражая	-8021
▁конгрессе	-8022
▁однокласс	-8023
▁ревностно	-8024
▁священном	-8025
▁считается	-8026
▁информация	-8027
▁старейшина	-8028
▁заместителя	-8029
▁чувствовать	-8030
▁администрация	-8031
▁экономическому	-8032
зь	-8033
сю	-8034
18.	-8035
льт	-8036
тво	-8037
упо	-8038
хба	-8039
худ	-8040
▁62	-8041
▁аҧ	-8042
дете	-8043
ниях	-8044
нями	-8045
рное	-8046
ссии	-8047
▁вый	-8048
▁оск	-8049
ницей	-8050
▁выго	-8051
▁зала	-8052
▁ката	-8053
▁лесо	-8054
▁лиши	-8055
▁силе	-8056
▁цело	-8057
нились	-8058
▁вывод	-8059
▁глуби	-8060
▁новая	-8061
▁подли	-8062
▁подру	-8063
▁разби	-8064
▁солда	-8065
▁танца	-8066
▁факты	-8067
▁планах	-8068
▁приста	-8069
▁распре	-8070
▁строго	-8071
валиться	-8072
▁договор	-8073
▁олимпий	-8074
▁строить	-8075
▁пропаган	-8076
▁туристов	-8077
▁объясняет	-8078
▁спектакль	-8079
▁стараться	-8080
▁библейское	-8081
▁обеспечить	-8082
▁прекрасные	-8083
▁рассказали	-8084
▁специально	-8085
▁укрепление	-8086
▁объединения	-8087
▁понедельник	-8088
▁христианское	-8089
▁др	-8090
▁ею	-8091
зная	-8092
крыл	-8093
стись	-8094
товый	-8095
▁клуб	-8096
▁мора	-8097
▁порт	-8098
▁прив	-8099
вывать	-8100
лочный	-8101
ровала	-8102
▁волей	-8103
▁вырос	-8104
▁герои	-8105
▁целей	-8106
▁доброе	-8107
▁кавале	-8108
▁письме	-8109
▁станем	-8110
▁театре	-8111
▁форуме	-8112
▁ценить	-8113
▁чудеса	-8114
▁аврааму	-8115
▁венесуэ	-8116
▁заверил	-8117
▁препара	-8118
▁сатаной	-8119
▁советов	-8120
▁умереть	-8121
▁граждане	-8122
▁надеемся	-8123
▁обществе	-8124
▁отмечают	-8125
▁работают	-8126
▁супружес	-8127
▁возникает	-8128
▁коллектив	-8129
▁останавли	-8130
▁технологи	-8131
▁тщательно	-8132
▁помазанных	-8133
▁посольства	-8134
▁праведности	-8135
▁предложения	-8136
▁участвовали	-8137
▁распоряжение	-8138
▁распространения	-8139
жё	-8140
нс	-8141
гиб	-8142
жье	-8143
зер	-8144
ску	-8145
▁оо	-8146
дешь	-8147
ждую	-8148
жное	-8149
стие	-8150
▁ано	-8151
зацию	-8152
тного	-8153
▁банк	-8154
▁моно	-8155
▁поля	-8156
▁смот	-8157
▁сосу	-8158
▁утро	-8159
▁авиге	-8160
▁велит	-8161
▁владе	-8162
▁вышли	-8163
▁крово	-8164
▁ложью	-8165
▁отнес	-8166
▁отцов	-8167
▁переп	-8168
▁порно	-8169
▁профи	-8170
▁ресур	-8171
▁сокру	-8172
▁сумма	-8173
▁текст	-8174
▁точку	-8175
▁цветы	-8176
▁восьми	-8177
▁голоса	-8178
▁каждую	-8179
▁посред	-8180
▁церков	-8181
▁благоск	-8182
▁молодым	-8183
▁оказать	-8184
▁паспорт	-8185
▁передви	-8186
▁подарил	-8187
▁пятницу	-8188
▁родного	-8189
▁господом	-8190
▁заверяет	-8191
▁общество	-8192
▁поставил	-8193
▁согласия	-8194
▁способен	-8195
▁экологии	-8196
▁буквально	-8197
▁выполнить	-8198
▁грузинской	-8199
▁возвещатель	-8200
▁особенности	-8201
▁медицинского	-8202
▁рассказывается	-8203
,5	-8204
ёх	-8205
киа	-8206
сан	-8207
фия	-8208
шес	-8209
▁69	-8210
гура	-8211
дном	-8212
дуар	-8213
емле	-8214
ждой	-8215
туру	-8216
▁ода	-8217
▁хар	-8218
лился	-8219
носит	-8220
тацию	-8221
▁возо	-8222
▁впра	-8223
▁имея	-8224
▁разг	-8225
▁убор	-8226
вность	-8227
нулись	-8228
полити	-8229
▁вовсе	-8230
▁ключе	-8231
▁марфа	-8232
▁среду	-8233
▁хибла	-8234
▁божьих	-8235
▁очевид	-8236
▁площад	-8237
▁случаю	-8238
▁страна	-8239
▁третье	-8240
▁умерли	-8241
ствовало	-8242
▁заканчи	-8243
▁максима	-8244
▁молился	-8245
▁момента	-8246
▁свобода	-8247
▁вернулся	-8248
▁достигну	-8249
▁непосред	-8250
▁побудить	-8251
▁призывал	-8252
▁финансов	-8253
▁мемориаль	-8254
▁пионерами	-8255
▁библейскую	-8256
▁гражданина	-8257
▁петербурге	-8258
▁поздравляю	-8259
▁территорию	-8260
▁конференция	-8261
▁единственный	-8262
▁руководителем	-8263
▁христианского	-8264
▁способствовать	-8265
▁m	-8266
жев	-8267
юще	-8268
▁аэ	-8269
▁лк	-8270
▁мл	-8271
▁эт	-8272
бора	-8273
кома	-8274
пира	-8275
рази	-8276
стен	-8277
стья	-8278
▁пал	-8279
▁поу	-8280
дятся	-8281
▁дано	-8282
▁твою	-8283
▁удоб	-8284
▁языч	-8285
▁инжен	-8286
▁исчез	-8287
▁любое	-8288
▁покон	-8289
▁эдуар	-8290
сывание	-8291
▁агумаа	-8292
▁аламиа	-8293
▁восемь	-8294
▁дорого	-8295
▁пионер	-8296
ственное	-8297
читывать	-8298
▁генерал	-8299
▁когония	-8300
▁побудит	-8301
▁потерял	-8302
▁потребо	-8303
▁сможешь	-8304
▁состава	-8305
▁наступит	-8306
▁остаются	-8307
▁отметили	-8308
▁спокойно	-8309
▁поступили	-8310
▁связанных	-8311
▁серьезный	-8312
▁символизи	-8313
▁совершили	-8314
▁занимается	-8315
▁молодежной	-8316
▁неверующие	-8317
▁неверующих	-8318
▁республика	-8319
▁необходимое	-8320
▁посредством	-8321
▁воспользуйся	-8322
▁демонстрацию	-8323
▁соревнований	-8324
▁совершенствуем	-8325
бах	-8326
дию	-8327
кри	-8328
тес	-8329
қәа	-8330
▁кл	-8331
гети	-8332
пети	-8333
рамия	-8334
сться	-8335
тябре	-8336
ходов	-8337
▁нега	-8338
▁папа	-8339
▁пров	-8340
▁рано	-8341
▁укры	-8342
▁хута	-8343
вшийся	-8344
кратно	-8345
▁живых	-8346
▁кишма	-8347
▁концу	-8348
▁митин	-8349
▁павлу	-8350
▁прояс	-8351
▁рекон	-8352
▁стены	-8353
▁торго	-8354
▁ущерб	-8355
тически	-8356
▁капита	-8357
▁молодё	-8358
▁никара	-8359
▁оскорб	-8360
▁самому	-8361
▁экспер	-8362
▁близким	-8363
▁брошюра	-8364
▁верного	-8365
▁высокий	-8366
▁ожидать	-8367
▁письмен	-8368
▁присвое	-8369
▁сердцах	-8370
▁следить	-8371
▁геннадия	-8372
▁достойно	-8373
▁защищать	-8374
▁отказыва	-8375
▁подобных	-8376
▁вариантом	-8377
▁документы	-8378
▁умеренное	-8379
▁учитывать	-8380
▁свидетелем	-8381
▁стремиться	-8382
▁учреждений	-8383
▁конституции	-8384
▁христианами	-8385
▁центральной	-8386
▁использование	-8387
▁экономической	-8388
▁доказательства	-8389
▁организованной	-8390
▁государственная	-8391
07	-8392
▁s	-8393
мил	-8394
вшую	-8395
гина	-8396
граф	-8397
дены	-8398
нник	-8399
▁бле	-8400
▁оль	-8401
▁ааро	-8402
▁дают	-8403
▁ждут	-8404
▁ибра	-8405
▁нине	-8406
▁отту	-8407
▁теря	-8408
▁фаль	-8409
рованы	-8410
▁взыва	-8411
▁вошел	-8412
▁забот	-8413
▁зовут	-8414
▁метео	-8415
▁михай	-8416
▁обмен	-8417
▁объем	-8418
▁песен	-8419
▁проли	-8420
▁рекла	-8421
▁братом	-8422
▁вправе	-8423
▁всякой	-8424
▁втором	-8425
▁инспек	-8426
▁младен	-8427
▁образу	-8428
▁органы	-8429
▁просил	-8430
▁старше	-8431
▁включая	-8432
▁высокое	-8433
▁работой	-8434
▁слушает	-8435
▁анатолий	-8436
▁гварамия	-8437
▁комплекс	-8438
▁молодого	-8439
▁начинают	-8440
▁небесное	-8441
▁претерпе	-8442
▁советник	-8443
▁традиций	-8444
▁заставить	-8445
▁армагеддон	-8446
▁совместных	-8447
▁сообщества	-8448
▁укрепления	-8449
▁библейскими	-8450
▁испытаниями	-8451
▁религиозных	-8452
▁требованиям	-8453
▁•	-8454
алу	-8455
дав	-8456
▁xx	-8457
▁уж	-8458
тиву	-8459
тыми	-8460
цена	-8461
▁150	-8462
▁аку	-8463
▁опу	-8464
довой	-8465
▁выру	-8466
▁глаз	-8467
▁жало	-8468
▁запо	-8469
▁поку	-8470
▁руфи	-8471
▁сухо	-8472
▁увер	-8473
земпля	-8474
ловича	-8475
ровано	-8476
▁вынес	-8477
▁девуш	-8478
▁нынеш	-8479
▁округ	-8480
▁перем	-8481
▁танце	-8482
▁точки	-8483
▁услов	-8484
ствуйте	-8485
▁компью	-8486
▁мессии	-8487
▁неприя	-8488
▁подход	-8489
▁раскаи	-8490
▁сезона	-8491
▁соверу	-8492
▁тяжкие	-8493
▁шакрыл	-8494
лармонии	-8495
▁дьявола	-8496
▁издание	-8497
▁текущие	-8498
▁услышав	-8499
ствования	-8500
▁дисципли	-8501
▁летопись	-8502
▁означают	-8503
▁перевода	-8504
▁пообещал	-8505
▁поступки	-8506
▁стихотво	-8507
▁счастлив	-8508
▁услышать	-8509
▁экземпля	-8510
▁консульта	-8511
▁результат	-8512
▁убедиться	-8513
▁фотографи	-8514
▁воспитывать	-8515
▁исключением	-8516
▁перспективы	-8517
▁человеческой	-8518
▁чрезвычайный	-8519
▁обстоятельств	-8520
▁справедливости	-8521
душ	-8522
нси	-8523
тех	-8524
шко	-8525
эна	-8526
язы	-8527
▁77	-8528
▁93	-8529
▁мэ	-8530
емое	-8531
рила	-8532
стам	-8533
тиру	-8534
хара	-8535
щаем	-8536
▁блю	-8537
▁дре	-8538
▁чьи	-8539
гнуть	-8540
енный	-8541
▁вида	-8542
▁вина	-8543
▁геен	-8544
▁исте	-8545
вольно	-8546
льский	-8547
садить	-8548
▁борис	-8549
▁главу	-8550
▁ценят	-8551
▁щедры	-8552
летнего	-8553
▁запада	-8554
▁обманы	-8555
▁обрабо	-8556
▁обычаи	-8557
▁оружия	-8558
▁псалме	-8559
▁следуя	-8560
▁список	-8561
▁хутаба	-8562
ственная	-8563
▁аналоги	-8564
▁архитек	-8565
▁влияния	-8566
▁выслуши	-8567
▁главной	-8568
▁начиная	-8569
▁примера	-8570
▁природы	-8571
▁проекте	-8572
▁связыва	-8573
▁случаев	-8574
▁слышали	-8575
▁терпели	-8576
▁тимофей	-8577
▁центров	-8578
стический	-8579
▁детского	-8580
▁открытия	-8581
▁приближа	-8582
▁самостоя	-8583
▁абсолютно	-8584
▁принципов	-8585
▁ситуациях	-8586
▁совершают	-8587
▁совещании	-8588
▁создатель	-8589
▁состояния	-8590
▁чувствами	-8591
▁благослови	-8592
▁кандидатов	-8593
▁материалов	-8594
▁пожалуйста	-8595
▁правильный	-8596
▁расскажите	-8597
▁совершения	-8598
▁содержание	-8599
▁полновремен	-8600
▁гражданского	-8601
▁федерального	-8602
▁▪	-8603
вав	-8604
нде	-8605
ниа	-8606
исан	-8607
ково	-8608
льше	-8609
стся	-8610
твра	-8611
▁еву	-8612
▁пья	-8613
▁уны	-8614
дство	-8615
рство	-8616
▁баск	-8617
▁вещь	-8618
▁знак	-8619
▁номе	-8620
▁овла	-8621
▁чуть	-8622
▁вален	-8623
▁дозво	-8624
▁душев	-8625
▁ирэна	-8626
▁андрей	-8627
▁благая	-8628
▁вашему	-8629
▁входят	-8630
▁осквер	-8631
▁сформи	-8632
▁тамара	-8633
▁ученые	-8634
▁шамиль	-8635
дрометео	-8636
▁второго	-8637
▁деятели	-8638
▁совести	-8639
▁фарисеи	-8640
▁будущего	-8641
▁внесении	-8642
▁возможен	-8643
▁забывать	-8644
▁защищает	-8645
▁обнаружи	-8646
▁открытие	-8647
▁правовой	-8648
▁делегацию	-8649
▁настоящим	-8650
▁опасность	-8651
▁инициативе	-8652
▁литературе	-8653
▁назначении	-8654
▁индивидуаль	-8655
▁разногласия	-8656
▁произведений	-8657
▁гостеприимство	-8658
▁85	-8659
ваши	-8660
етбо	-8661
зора	-8662
кции	-8663
низм	-8664
стка	-8665
тила	-8666
шали	-8667
▁vii	-8668
▁лей	-8669
▁пог	-8670
▁сфе	-8671
▁фан	-8672
▁шел	-8673
нными	-8674
товал	-8675
циями	-8676
▁весе	-8677
▁копи	-8678
▁отце	-8679
▁поды	-8680
▁рубе	-8681
ванной	-8682
дочный	-8683
▁агент	-8684
▁двери	-8685
▁крепо	-8686
▁летия	-8687
▁пилия	-8688
▁плате	-8689
▁пребу	-8690
▁стоят	-8691
▁твоим	-8692
▁убежи	-8693
▁умрет	-8694
▁юноша	-8695
▁юноши	-8696
▁ангела	-8697
▁борьбу	-8698
▁вручил	-8699
▁заботу	-8700
▁законе	-8701
▁записи	-8702
▁иудеев	-8703
▁лазаря	-8704
▁летний	-8705
▁маршру	-8706
▁опасно	-8707
▁оппози	-8708
▁осторо	-8709
▁повину	-8710
▁посему	-8711
▁приуро	-8712
▁экскур	-8713
▁великим	-8714
▁георгия	-8715
▁девушек	-8716
▁побудил	-8717
▁сельско	-8718
▁серебря	-8719
▁частями	-8720
▁баскетбо	-8721
▁ефесянам	-8722
▁интернет	-8723
▁некоторо	-8724
▁огромной	-8725
▁получаем	-8726
▁пригласи	-8727
▁человеке	-8728
▁всероссий	-8729
▁заявления	-8730
▁исполнить	-8731
▁продукции	-8732
▁принципами	-8733
▁приобрести	-8734
▁экклезиаст	-8735
▁голосования	-8736
▁объясняется	-8737
▁сосредоточи	-8738
▁республиканской	-8739
06	-8740
уа	-8741
бея	-8742
лую	-8743
▁2.	-8744
▁рм	-8745
джия	-8746
лога	-8747
пный	-8748
тное	-8749
▁600	-8750
▁гло	-8751
▁ооо	-8752
▁отв	-8753
▁хол	-8754
образ	-8755
пнуть	-8756
рением	-8757
▁ведут	-8758
▁вовле	-8759
▁графи	-8760
▁запол	-8761
▁леона	-8762
▁минут	-8763
▁утеши	-8764
▁чачба	-8765
▁языки	-8766
ждением	-8767
стность	-8768
▁аслана	-8769
▁дерева	-8770
▁замени	-8771
▁коммер	-8772
▁ободря	-8773
▁отдать	-8774
▁притчу	-8775
▁пришла	-8776
▁прокля	-8777
▁случая	-8778
▁тюрьме	-8779
▁угодно	-8780
▁учетом	-8781
ствовала	-8782
▁древних	-8783
▁задержа	-8784
▁ласурия	-8785
▁нечисто	-8786
▁никакой	-8787
▁приехал	-8788
▁станете	-8789
▁статьей	-8790
▁умирает	-8791
▁хватает	-8792
▁здоровью	-8793
▁миллиона	-8794
▁народной	-8795
▁освободи	-8796
▁показали	-8797
▁приговор	-8798
▁проводят	-8799
▁прощение	-8800
▁растений	-8801
▁странице	-8802
▁филологи	-8803
▁исполняет	-8804
▁превосход	-8805
▁признание	-8806
▁синоптики	-8807
▁уголовной	-8808
▁литература	-8809
▁первенство	-8810
▁прекрасное	-8811
▁чувствовал	-8812
▁информацион	-8813
▁исследовать	-8814
▁направлении	-8815
▁несправедли	-8816
▁предпринять	-8817
▁современной	-8818
▁исторических	-8819
▁несовершенны	-8820
▁сельскохозяй	-8821
▁специалистов	-8822
▁соответствующий	-8823
17	-8824
▁’	-8825
дум	-8826
мие	-8827
руп	-8828
шив	-8829
▁67	-8830
▁97	-8831
▁ед	-8832
▁цу	-8833
иска	-8834
рыва	-8835
▁105	-8836
▁120	-8837
▁145	-8838
▁бло	-8839
▁наг	-8840
вимся	-8841
▁акте	-8842
▁доби	-8843
▁зажи	-8844
▁запу	-8845
▁зато	-8846
▁испу	-8847
▁карь	-8848
▁нахо	-8849
▁упро	-8850
▁хоре	-8851
▁хоть	-8852
▁целе	-8853
нейших	-8854
ночный	-8855
▁божью	-8856
▁героя	-8857
▁жертв	-8858
▁квара	-8859
▁люблю	-8860
▁непод	-8861
▁соору	-8862
▁стату	-8863
▁чести	-8864
▁аджинд	-8865
▁входит	-8866
▁гастро	-8867
▁головы	-8868
▁демона	-8869
▁личное	-8870
▁неделе	-8871
▁неодно	-8872
▁органа	-8873
▁оттуда	-8874
▁разуме	-8875
▁родные	-8876
▁уровня	-8877
▁брошюру	-8878
▁передал	-8879
▁прибыли	-8880
▁уделять	-8881
чительный	-8882
▁огромная	-8883
▁ознакоми	-8884
▁приехали	-8885
▁свободно	-8886
▁экзекова	-8887
▁энергети	-8888
▁вернулись	-8889
▁никарагуа	-8890
▁посвятить	-8891
▁произойти	-8892
▁разговора	-8893
▁районного	-8894
▁поделилась	-8895
▁продолжают	-8896
▁участвовал	-8897
▁благословил	-8898
▁организатор	-8899
▁представляют	-8900
▁соответствующие	-8901
▁сг	-8902
нков	-8903
цеду	-8904
ётся	-8905
▁виф	-8906
▁ита	-8907
▁обм	-8908
▁ове	-8909
▁рем	-8910
▁таи	-8911
▁япо	-8912
вайся	-8913
емого	-8914
йский	-8915
страи	-8916
▁амца	-8917
▁земе	-8918
▁наве	-8919
▁резо	-8920
▁юрия	-8921
▁аминь	-8922
▁гаран	-8923
▁нашел	-8924
▁царём	-8925
▁важная	-8926
▁дается	-8927
▁думает	-8928
▁ежедне	-8929
▁здания	-8930
▁каждое	-8931
▁каратэ	-8932
▁комите	-8933
▁методи	-8934
▁повест	-8935
▁полуян	-8936
▁прогно	-8937
▁развер	-8938
▁семьям	-8939
▁сестре	-8940
▁границу	-8941
▁диплома	-8942
▁лечение	-8943
▁написан	-8944
▁немноги	-8945
▁отрывок	-8946
▁партнер	-8947
▁продела	-8948
▁решений	-8949
▁русском	-8950
▁фараона	-8951
▁германии	-8952
▁обеспечи	-8953
▁понимали	-8954
▁проявили	-8955
▁сострада	-8956
▁сотовари	-8957
▁учитывая	-8958
▁инициатив	-8959
▁интересам	-8960
▁истинному	-8961
▁открывает	-8962
▁побуждают	-8963
▁предотвра	-8964
▁присвоено	-8965
▁находились	-8966
▁обращается	-8967
▁помазанные	-8968
▁причинение	-8969
▁милосердный	-8970
▁официальном	-8971
▁счастливыми	-8972
▁уничтожение	-8973
▁чувствовали	-8974
▁постановления	-8975
▁инвестиционной	-8976
▁f	-8977
зды	-8978
мию	-8979
сро	-8980
хуа	-8981
чха	-8982
▁64	-8983
бами	-8984
нуне	-8985
циям	-8986
▁брю	-8987
▁вис	-8988
▁вое	-8989
▁ищи	-8990
▁кес	-8991
▁кир	-8992
▁обр	-8993
▁пок	-8994
дными	-8995
лежит	-8996
стика	-8997
чиков	-8998
▁адыг	-8999
▁вряд	-9000
▁дина	-9001
▁орке	-9002
▁тяго	-9003
чности	-9004
ществи	-9005
▁адаму	-9006
▁лекар	-9007
▁марша	-9008
▁помню	-9009
▁рубри	-9010
лениями	-9011
▁бесцен	-9012
▁задумы	-9013
▁любого	-9014
▁опытом	-9015
▁помаза	-9016
▁правит	-9017
▁радует	-9018
▁страхо	-9019
▁школах	-9020
ствующих	-9021
▁добрыми	-9022
▁руслана	-9023
▁сборной	-9024
▁советам	-9025
▁экологи	-9026
терпением	-9027
▁военного	-9028
▁заведомо	-9029
▁истинных	-9030
▁мужества	-9031
▁накануне	-9032
▁посетили	-9033
▁русского	-9034
▁собраний	-9035
▁тридцати	-9036
▁ближайшее	-9037
▁временами	-9038
▁духовными	-9039
▁некоторое	-9040
▁уготованы	-9041
▁готовиться	-9042
▁махаджиров	-9043
▁применения	-9044
▁счастливой	-9045
▁установить	-9046
▁исполняется	-9047
▁использовал	-9048
▁псалмопевец	-9049
▁развиваться	-9050
▁современных	-9051
▁становиться	-9052
▁восстановить	-9053
▁добровольцев	-9054
▁инструментов	-9055
▁благословений	-9056
▁благословляет	-9057
▁человеческого	-9058
лл	-9059
▁v	-9060
вол	-9061
ина	-9062
лед	-9063
рых	-9064
сна	-9065
соу	-9066
▁57	-9067
▁61	-9068
▁86	-9069
▁дю	-9070
▁ук	-9071
нера	-9072
рово	-9073
тчик	-9074
чера	-9075
▁125	-9076
▁вел	-9077
▁впа	-9078
▁жем	-9079
▁оон	-9080
▁пош	-9081
▁цик	-9082
▁шла	-9083
дации	-9084
дется	-9085
раясь	-9086
▁2000	-9087
▁ионы	-9088
▁лари	-9089
▁млрд	-9090
▁отцы	-9091
▁пота	-9092
▁смяг	-9093
▁стен	-9094
▁тира	-9095
▁ушел	-9096
▁голод	-9097
▁домов	-9098
▁леген	-9099
▁монет	-9100
▁навин	-9101
▁никак	-9102
▁оформ	-9103
▁привя	-9104
▁рабов	-9105
▁связь	-9106
▁срока	-9107
▁чачха	-9108
▁банков	-9109
▁вдохно	-9110
▁вперед	-9111
▁выража	-9112
▁заведу	-9113
▁играет	-9114
▁класса	-9115
▁лазарь	-9116
▁лучшие	-9117
▁обосно	-9118
▁поздно	-9119
▁раздел	-9120
▁растет	-9121
▁решила	-9122
▁телеви	-9123
▁учился	-9124
▁возобно	-9125
▁заслуги	-9126
▁привело	-9127
▁системе	-9128
▁согласо	-9129
▁трудные	-9130
▁удается	-9131
▁вступить	-9132
▁записано	-9133
▁интересо	-9134
▁культура	-9135
▁молодёжи	-9136
▁назначил	-9137
▁неправед	-9138
▁отвечать	-9139
▁переводе	-9140
▁поступая	-9141
▁щедрость	-9142
▁высказыва	-9143
▁качествен	-9144
▁открылась	-9145
▁принимали	-9146
▁произошед	-9147
▁спортсмен	-9148
▁старается	-9149
▁возникнуть	-9150
▁проведении	-9151
▁проведению	-9152
▁совершение	-9153
▁старайтесь	-9154
▁участникам	-9155
▁воскресении	-9156
▁подготовить	-9157
▁предсказано	-9158
▁поразмышлять	-9159
▁празднование	-9160
▁содействовать	-9161
▁ткуарчалского	-9162
ав	-9163
ира	-9164
лям	-9165
вица	-9166
нном	-9167
фана	-9168
▁103	-9169
▁мак	-9170
▁нак	-9171
дился	-9172
тация	-9173
телен	-9174
циони	-9175
▁2010	-9176
▁анны	-9177
▁афри	-9178
▁гиви	-9179
▁жале	-9180
▁кора	-9181
▁напи	-9182
▁нарт	-9183
видеть	-9184
ляются	-9185
▁групп	-9186
▁злого	-9187
▁лидер	-9188
▁логуа	-9189
▁любом	-9190
▁любых	-9191
▁общее	-9192
▁претк	-9193
▁тужба	-9194
вестись	-9195
▁динами	-9196
▁дорога	-9197
▁злоупо	-9198
▁ниневи	-9199
▁пойдет	-9200
▁помина	-9201
▁сверст	-9202
▁явился	-9203
▁заметил	-9204
▁империи	-9205
▁награды	-9206
▁обязаны	-9207
▁перечис	-9208
▁следуют	-9209
▁установ	-9210
▁аппарата	-9211
▁глубокое	-9212
▁зависимо	-9213
▁занимает	-9214
▁казаться	-9215
▁называет	-9216
▁называют	-9217
▁окажется	-9218
▁получила	-9219
▁дипломати	-9220
▁отправили	-9221
▁поколение	-9222
▁попросили	-9223
▁последнее	-9224
▁священное	-9225
▁спектакля	-9226
▁пятидесяти	-9227
▁священники	-9228
▁советского	-9229
▁поклонялись	-9230
▁прокуратуры	-9231
▁совершенным	-9232
▁социального	-9233
▁безопасность	-9234
▁освобождение	-9235
▁корреспонденту	-9236
▁соответствующее	-9237
рв	-9238
бло	-9239
вик	-9240
еси	-9241
лба	-9242
▁3.	-9243
▁bh	-9244
▁rs	-9245
вказ	-9246
жало	-9247
ковы	-9248
рена	-9249
тяне	-9250
▁ата	-9251
жутся	-9252
нской	-9253
строи	-9254
тории	-9255
▁злой	-9256
▁курс	-9257
▁логи	-9258
▁маги	-9259
▁овцы	-9260
▁паль	-9261
▁фина	-9262
заться	-9263
ченным	-9264
▁аджба	-9265
▁берет	-9266
▁важна	-9267
▁взяли	-9268
▁годах	-9269
▁даром	-9270
▁занял	-9271
▁нелли	-9272
▁рожде	-9273
▁форме	-9274
торский	-9275
▁беспре	-9276
▁выходи	-9277
▁героев	-9278
▁здание	-9279
▁округу	-9280
▁ответа	-9281
▁плохое	-9282
▁считаю	-9283
▁чтении	-9284
▁журнала	-9285
▁законов	-9286
▁коммуна	-9287
▁образцо	-9288
▁погибли	-9289
▁предубе	-9290
▁процеду	-9291
▁рабочим	-9292
▁собрать	-9293
▁сторона	-9294
▁футболу	-9295
▁желаниям	-9296
▁кампании	-9297
▁мышление	-9298
▁необычай	-9299
▁опублико	-9300
▁почетное	-9301
▁прислуши	-9302
▁создании	-9303
▁спасение	-9304
▁спросите	-9305
▁аджинджал	-9306
▁гражданам	-9307
▁используя	-9308
▁перенести	-9309
▁сирийской	-9310
▁изучающего	-9311
▁относились	-9312
▁парламенте	-9313
▁предлагает	-9314
▁инструмента	-9315
▁нетерпением	-9316
▁предусматри	-9317
▁происходило	-9318
▁проповедуют	-9319
▁освобождения	-9320
▁исполнительный	-9321
уп	-9322
диа	-9323
мма	-9324
нки	-9325
плы	-9326
рие	-9327
▁ув	-9328
▁яг	-9329
бина	-9330
дная	-9331
стая	-9332
ходе	-9333
▁ази	-9334
▁оты	-9335
▁плю	-9336
▁син	-9337
▁чай	-9338
летий	-9339
немся	-9340
ссажи	-9341
тости	-9342
▁днём	-9343
▁марк	-9344
▁мили	-9345
▁муса	-9346
▁наву	-9347
▁наго	-9348
▁нази	-9349
▁расц	-9350
▁убил	-9351
нского	-9352
тивные	-9353
▁богов	-9354
▁вчера	-9355
▁знала	-9356
▁капба	-9357
▁музее	-9358
▁общий	-9359
▁пасты	-9360
▁сверх	-9361
▁судья	-9362
▁твори	-9363
▁храни	-9364
вашидзе	-9365
▁видите	-9366
▁дружбе	-9367
▁нестор	-9368
▁оружие	-9369
▁связям	-9370
▁слышал	-9371
▁творец	-9372
▁творца	-9373
▁увидим	-9374
▁хотела	-9375
▁баграта	-9376
▁высоком	-9377
▁женщине	-9378
▁издания	-9379
▁интелли	-9380
▁метеоро	-9381
▁площадь	-9382
▁позицию	-9383
▁принуди	-9384
▁притчах	-9385
▁реабили	-9386
▁умирают	-9387
▁утешает	-9388
▁вступать	-9389
▁многолет	-9390
▁ограничи	-9391
▁пересмот	-9392
▁соломона	-9393
▁торговли	-9394
▁ценности	-9395
▁интересах	-9396
▁испытаний	-9397
▁обсуждать	-9398
▁прочитать	-9399
▁собраниях	-9400
▁сообщения	-9401
▁чувствует	-9402
дрометеослу	-9403
▁отличается	-9404
▁предстояло	-9405
▁прелюбодея	-9406
▁служебного	-9407
▁ставрополь	-9408
▁трудностей	-9409
▁шервашидзе	-9410
▁удовольствие	-9411
▁человеческий	-9412
▁избирательной	-9413
▁преследования	-9414
▁национальности	-9415
▁государственные	-9416
▁свидетельствуют	-9417
рм	-9418
чок	-9419
▁59	-9420
▁68	-9421
▁еф	-9422
лика	-9423
моло	-9424
моро	-9425
печа	-9426
сюду	-9427
ходы	-9428
▁неи	-9429
▁нью	-9430
насле	-9431
▁1989	-9432
▁выве	-9433
▁высе	-9434
▁даёт	-9435
▁зача	-9436
▁ищет	-9437
▁мело	-9438
▁мину	-9439
▁огня	-9440
▁село	-9441
▁этап	-9442
вшейся	-9443
ненный	-9444
▁всевы	-9445
▁допол	-9446
▁душой	-9447
▁защит	-9448
▁однов	-9449
▁распу	-9450
▁тесно	-9451
ленного	-9452
▁данным	-9453
▁долгое	-9454
▁защите	-9455
▁какоба	-9456
▁номина	-9457
▁службе	-9458
▁увидят	-9459
ственным	-9460
▁военных	-9461
▁выпуска	-9462
▁гудауте	-9463
▁иеремии	-9464
▁историк	-9465
▁мальчик	-9466
▁непослу	-9467
▁обратил	-9468
▁получит	-9469
▁правила	-9470
▁пытался	-9471
▁смотрит	-9472
▁управля	-9473
▁великоду	-9474
▁ветераны	-9475
▁движение	-9476
▁начинать	-9477
▁поступок	-9478
▁потеряли	-9479
▁приступи	-9480
▁событиях	-9481
▁столетия	-9482
▁странами	-9483
▁текущего	-9484
▁абхазское	-9485
▁мудростью	-9486
▁поставить	-9487
▁проблемах	-9488
▁заключения	-9489
▁известного	-9490
▁пользуется	-9491
▁посланника	-9492
▁социальных	-9493
▁счастливым	-9494
▁благословит	-9495
▁предложение	-9496
▁проживающих	-9497
▁поддерживают	-9498
▁уверенностью	-9499
▁парламентарии	-9500
▁подготавливать	-9501
бие	-9502
лая	-9503
ляя	-9504
пен	-9505
рье	-9506
сид	-9507
эль	-9508
жала	-9509
кана	-9510
мено	-9511
нтов	-9512
тари	-9513
чало	-9514
▁бди	-9515
▁вве	-9516
▁гли	-9517
▁изы	-9518
▁лав	-9519
▁ниж	-9520
▁рыб	-9521
▁циф	-9522
влена	-9523
ковые	-9524
никах	-9525
рению	-9526
▁арха	-9527
▁книж	-9528
▁отво	-9529
▁парк	-9530
▁пила	-9531
▁разы	-9532
▁седь	-9533
▁сози	-9534
▁упол	-9535
▁часа	-9536
женное	-9537
ложено	-9538
▁бежен	-9539
▁видна	-9540
▁видов	-9541
▁гогуа	-9542
▁моему	-9543
▁мужья	-9544
▁нужен	-9545
▁опаса	-9546
▁праве	-9547
▁соеди	-9548
действи	-9549
▁благоу	-9550
▁важной	-9551
▁вефиле	-9552
▁вефиль	-9553
▁добрая	-9554
▁записы	-9555
▁исаака	-9556
▁кварти	-9557
▁метров	-9558
▁молдав	-9559
▁постиг	-9560
▁размер	-9561
▁тексте	-9562
▁удержи	-9563
▁больных	-9564
▁вопросу	-9565
▁выходит	-9566
▁жителям	-9567
▁золотой	-9568
▁кабинет	-9569
▁крепкую	-9570
▁лечения	-9571
▁направо	-9572
▁началом	-9573
▁объясни	-9574
▁старший	-9575
▁туризму	-9576
▁умышлен	-9577
▁услышал	-9578
▁хранить	-9579
▁ближнего	-9580
▁включает	-9581
▁дискусси	-9582
▁направил	-9583
▁наслажда	-9584
▁помогаем	-9585
▁принимая	-9586
▁проблему	-9587
▁районных	-9588
▁расширен	-9589
▁регионов	-9590
▁прокурора	-9591
▁завершился	-9592
▁кавказской	-9593
▁откровении	-9594
▁состоялись	-9595
▁выступления	-9596
▁наставление	-9597
▁организовать	-9598
▁стабильности	-9599
▁преподнесение	-9600
▁экономических	-9601
▁краснодарского	-9602
▁придерживаться	-9603
13	-9604
ib	-9605
in	-9606
ҭа	-9607
доб	-9608
нув	-9609
▁63	-9610
▁73	-9611
▁74	-9612
▁83	-9613
▁кв	-9614
кату	-9615
чики	-9616
▁иду	-9617
▁кух	-9618
▁оза	-9619
▁опи	-9620
▁сце	-9621
▁хит	-9622
лости	-9623
спорт	-9624
товой	-9625
▁голу	-9626
▁идеи	-9627
▁мимо	-9628
▁мною	-9629
▁моль	-9630
▁неак	-9631
▁обря	-9632
▁судя	-9633
вшимся	-9634
зность	-9635
нимать	-9636
▁броса	-9637
▁вслед	-9638
▁дверь	-9639
▁замыс	-9640
▁расто	-9641
▁уважи	-9642
▁шатре	-9643
водство	-9644
▁вообра	-9645
▁группе	-9646
▁данное	-9647
▁носить	-9648
▁обозна	-9649
▁охране	-9650
▁предше	-9651
▁преста	-9652
▁сокров	-9653
▁стамбу	-9654
▁уплате	-9655
▁ученых	-9656
▁фильма	-9657
▁частей	-9658
▁больших	-9659
▁детских	-9660
▁женщину	-9661
▁знакоми	-9662
▁разными	-9663
▁сильный	-9664
▁советом	-9665
▁ученого	-9666
▁деревьев	-9667
▁добиться	-9668
▁записаны	-9669
▁знамение	-9670
▁истинную	-9671
▁культуру	-9672
▁наверное	-9673
▁нечестие	-9674
▁поручено	-9675
▁прощения	-9676
▁пытаются	-9677
▁режиссер	-9678
▁уполномо	-9679
▁используй	-9680
▁относимся	-9681
▁переведен	-9682
▁подростки	-9683
▁совещания	-9684
▁сравнению	-9685
▁чувствуем	-9686
▁дружествен	-9687
▁коллективо	-9688
▁обстановке	-9689
▁показаться	-9690
▁правлением	-9691
▁чемпионате	-9692
▁владычество	-9693
▁обсуждается	-9694
▁подчеркнула	-9695
▁пробудитесь	-9696
▁руководящий	-9697
▁христианина	-9698
▁продолжается	-9699
▁университете	-9700
▁происхождения	-9701
▁удовлетворение	-9702
er	-9703
хв	-9704
▁~	-9705
губ	-9706
ету	-9707
жом	-9708
пам	-9709
пей	-9710
пот	-9711
тку	-9712
ъек	-9713
берт	-9714
слав	-9715
хуба	-9716
▁жел	-9717
▁ива	-9718
▁каб	-9719
▁озе	-9720
▁рей	-9721
▁ход	-9722
▁чут	-9723
ждено	-9724
ковых	-9725
лится	-9726
стран	-9727
▁виды	-9728
▁злом	-9729
▁иное	-9730
▁кали	-9731
▁лову	-9732
▁моби	-9733
▁суть	-9734
▁тара	-9735
▁тонн	-9736
▁уйти	-9737
ванных	-9738
▁божие	-9739
▁домах	-9740
▁немец	-9741
▁неува	-9742
▁отрыв	-9743
▁отчая	-9744
▁поспе	-9745
▁распа	-9746
▁сайта	-9747
▁стоял	-9748
▁тбили	-9749
▁тенги	-9750
▁активи	-9751
▁амичба	-9752
▁архива	-9753
▁выбрал	-9754
▁гибели	-9755
▁долгие	-9756
▁земной	-9757
▁испове	-9758
▁какому	-9759
▁купить	-9760
▁москву	-9761
▁особой	-9762
▁отверг	-9763
▁развод	-9764
▁развра	-9765
▁сестру	-9766
▁фараон	-9767
▁владель	-9768
▁законам	-9769
▁налогам	-9770
▁нечисты	-9771
▁объекты	-9772
▁проголо	-9773
▁суббота	-9774
▁указыва	-9775
▁чистоту	-9776
▁активное	-9777
▁биографи	-9778
▁болезней	-9779
▁выбирать	-9780
▁даровали	-9781
▁искандер	-9782
▁народами	-9783
▁независи	-9784
▁перемены	-9785
▁появится	-9786
▁возможным	-9787
▁крестился	-9788
▁небесному	-9789
▁побуждать	-9790
▁поведения	-9791
▁позволяют	-9792
▁собранием	-9793
▁возложения	-9794
▁интеллиген	-9795
▁испытывают	-9796
▁начинается	-9797
▁реконструк	-9798
▁филармонии	-9799
▁школьников	-9800
▁пророчестве	-9801
▁национальный	-9802
▁организацией	-9803
▁представлять	-9804
▁благодарности	-9805
▁исключительно	-9806
▁преимущественно	-9807
▁‘	-9808
аги	-9809
риа	-9810
▁94	-9811
▁ть	-9812
вере	-9813
лого	-9814
сило	-9815
стит	-9816
тизм	-9817
▁вах	-9818
▁оре	-9819
▁пёт	-9820
▁эле	-9821
онный	-9822
▁1919	-9823
▁агро	-9824
▁базы	-9825
▁брон	-9826
▁дому	-9827
▁звер	-9828
▁иуда	-9829
▁сани	-9830
▁табу	-9831
▁упря	-9832
▁греху	-9833
▁лыхны	-9834
▁намаз	-9835
▁нанес	-9836
▁недви	-9837
▁показ	-9838
▁порта	-9839
▁почте	-9840
▁сгово	-9841
▁твоем	-9842
ниверси	-9843
строить	-9844
▁братия	-9845
▁группу	-9846
▁ибрахи	-9847
▁избрал	-9848
▁каждая	-9849
▁летием	-9850
▁личные	-9851
▁личный	-9852
▁недель	-9853
▁обнару	-9854
▁оказал	-9855
▁подсоб	-9856
▁пришло	-9857
▁репута	-9858
▁служим	-9859
▁съезда	-9860
▁такому	-9861
▁успехи	-9862
▁устрем	-9863
▁ученик	-9864
работать	-9865
▁большее	-9866
▁веществ	-9867
▁гарцкия	-9868
▁господе	-9869
▁границе	-9870
▁думаешь	-9871
▁идолопо	-9872
▁команду	-9873
▁коротко	-9874
▁образно	-9875
▁отреаги	-9876
▁пассажи	-9877
▁плохого	-9878
▁предпоч	-9879
▁пустыне	-9880
▁удастся	-9881
▁чистыми	-9882
▁экспеди	-9883
▁добротой	-9884
▁женщиной	-9885
▁картинке	-9886
▁контроль	-9887
▁ожидания	-9888
▁получают	-9889
▁помешать	-9890
▁помогало	-9891
▁премьера	-9892
▁сомнений	-9893
▁старался	-9894
▁уважения	-9895
▁выражение	-9896
▁затронуть	-9897
▁настоящий	-9898
▁недействи	-9899
▁перестали	-9900
▁поговорим	-9901
▁чемпионат	-9902
▁миллиардов	-9903
▁полномочия	-9904
▁продолжить	-9905
▁проживания	-9906
▁приглашению	-9907
▁продолжайте	-9908
▁специалисты	-9909
▁гуманитарных	-9910
▁представлена	-9911
▁сталкиваемся	-9912
▁использования	-9913
▁торжественное	-9914
▁избирательному	-9915
ry	-9916
тё	-9917
▁o	-9918
▁щ	-9919
вее	-9920
зви	-9921
лла	-9922
пет	-9923
тую	-9924
цей	-9925
▁71	-9926
▁аш	-9927
дишь	-9928
емым	-9929
умно	-9930
чами	-9931
шите	-9932
▁йор	-9933
▁нед	-9934
▁нём	-9935
ницах	-9936
▁врач	-9937
▁заур	-9938
▁зеле	-9939
▁игру	-9940
▁нури	-9941
▁подд	-9942
лились	-9943
рочный	-9944
ствова	-9945
▁андре	-9946
▁богам	-9947
▁вифле	-9948
▁госги	-9949
▁дорог	-9950
▁запом	-9951
▁испор	-9952
▁корен	-9953
▁креще	-9954
▁курсы	-9955
▁праву	-9956
▁придя	-9957
▁сроки	-9958
▁трени	-9959
▁увеще	-9960
водятся	-9961
родного	-9962
▁адыгеи	-9963
▁беседе	-9964
▁заложи	-9965
▁книгой	-9966
▁новому	-9967
▁отступ	-9968
▁партия	-9969
▁писать	-9970
▁попыта	-9971
▁решает	-9972
▁сельхо	-9973
▁учений	-9974
▁францу	-9975
▁честно	-9976
рировать	-9977
▁абазины	-9978
▁докумен	-9979
▁налогов	-9980
▁наполни	-9981
▁научных	-9982
▁окончил	-9983
▁подчиня	-9984
▁рабства	-9985
▁единству	-9986
▁конкурсе	-9987
▁надеждой	-9988
▁научился	-9989
▁облачная	-9990
▁помощник	-9991
▁посетить	-9992
▁богатство	-9993
▁ежедневно	-9994
▁литератур	-9995
▁одобрение	-9996
▁построить	-9997
▁прощающий	-9998
▁сложности	-9999
▁собрались	-10000
▁старались	-10001
▁занимаются	-10002
▁злоупотреб	-10003
▁исполнится	-10004
▁назначения	-10005
▁отправился	-10006
▁разрешения	-10007
▁спрашивает	-10008
▁фотографии	-10009
▁выпускников	-10010
▁генеральный	-10011
▁инструменты	-10012
▁комментарий	-10013
▁обязанность	-10014
▁ограничения	-10015
▁прославлять	-10016
▁вдохновением	-10017
▁поздравления	-10018
▁практические	-10019
▁благословение	-10020
▁исследователи	-10021
▁предусмотренных	-10022
дже	-10023
дир	-10024
зах	-10025
нке	-10026
пах	-10027
▁78	-10028
▁яв	-10029
греб	-10030
дних	-10031
кали	-10032
▁сму	-10033
▁съе	-10034
ковым	-10035
кульп	-10036
любил	-10037
▁2004	-10038
▁адре	-10039
▁взор	-10040
▁джум	-10041
▁зата	-10042
▁лако	-10043
▁ночи	-10044
▁обши	-10045
▁родо	-10046
▁сады	-10047
вающие	-10048
гресси	-10049
летряс	-10050
ложены	-10051
охрани	-10052
стливо	-10053
щённый	-10054
▁алхас	-10055
▁непол	-10056
▁собла	-10057
▁среда	-10058
▁стихе	-10059
▁улицы	-10060
▁внезап	-10061
▁дружес	-10062
▁задать	-10063
▁контра	-10064
▁москва	-10065
▁музыки	-10066
▁настой	-10067
▁процен	-10068
▁святом	-10069
▁скульп	-10070
▁союзни	-10071
▁статей	-10072
▁стопам	-10073
▁стоять	-10074
▁тверды	-10075
▁эсфири	-10076
▁великая	-10077
▁востока	-10078
▁девушка	-10079
▁извлечь	-10080
▁лишения	-10081
▁народам	-10082
▁ноеминь	-10083
▁понятно	-10084
▁призвал	-10085
▁простил	-10086
▁просьбы	-10087
▁раздели	-10088
▁хороших	-10089
ственными	-10090
▁курортам	-10091
▁народных	-10092
▁огромный	-10093
▁основная	-10094
▁признать	-10095
▁развивай	-10096
▁решением	-10097
▁сравните	-10098
▁талантли	-10099
▁убийство	-10100
▁журналист	-10101
▁занимался	-10102
▁землетряс	-10103
▁комплекса	-10104
▁остальных	-10105
▁осуществи	-10106
▁поддержка	-10107
▁попросить	-10108
▁прилагать	-10109
▁принципам	-10110
▁секретаря	-10111
▁следующем	-10112
▁служитель	-10113
▁совершить	-10114
▁тренируют	-10115
▁избавиться	-10116
▁коллективу	-10117
▁молдавской	-10118
▁подражайте	-10119
▁прекрасным	-10120
▁применение	-10121
▁радоваться	-10122
▁существуют	-10123
▁уничтожить	-10124
▁выступление	-10125
▁исполнились	-10126
▁предприятия	-10127
▁применением	-10128
▁потребностях	-10129
▁разговаривать	-10130
▁республиканский	-10131
бю	-10132
вни	-10133
зре	-10134
хна	-10135
чую	-10136
ьем	-10137
▁дя	-10138
▁ля	-10139
креп	-10140
нгви	-10141
тика	-10142
шена	-10143
▁бга	-10144
▁зао	-10145
▁зво	-10146
▁пис	-10147
▁хло	-10148
▁шен	-10149
брита	-10150
ляция	-10151
мерно	-10152
нился	-10153
нтный	-10154
▁1941	-10155
▁вины	-10156
▁игро	-10157
▁клят	-10158
▁купи	-10159
▁ослу	-10160
▁пачу	-10161
ленным	-10162
нингра	-10163
нистый	-10164
руется	-10165
▁банка	-10166
▁безот	-10167
▁божия	-10168
▁ливне	-10169
▁музей	-10170
▁нести	-10171
▁орган	-10172
▁отдел	-10173
▁прика	-10174
▁тамаз	-10175
▁терро	-10176
▁целый	-10177
програм	-10178
▁вознес	-10179
▁вторая	-10180
▁желаем	-10181
▁клевет	-10182
▁комфор	-10183
▁матерь	-10184
▁основы	-10185
▁победа	-10186
▁полном	-10187
▁пользы	-10188
▁прозву	-10189
▁сатану	-10190
▁узнают	-10191
▁унасле	-10192
▁филосо	-10193
▁вспомни	-10194
▁детстве	-10195
▁захарии	-10196
▁мучений	-10197
▁начался	-10198
▁перейти	-10199
▁позволь	-10200
▁послево	-10201
▁разъезд	-10202
▁филисти	-10203
▁выслушай	-10204
▁знаниями	-10205
▁истинное	-10206
▁кишмария	-10207
▁обладают	-10208
▁основной	-10209
▁престаре	-10210
▁принимал	-10211
▁радостно	-10212
▁ценность	-10213
▁верующими	-10214
▁допускает	-10215
▁категория	-10216
▁назначили	-10217
▁оказаться	-10218
▁памятника	-10219
▁праведных	-10220
▁справедли	-10221
▁имуществом	-10222
▁испытаниях	-10223
▁освободить	-10224
▁основанное	-10225
▁поклонении	-10226
▁предложить	-10227
▁совместной	-10228
▁творчество	-10229
▁финансовой	-10230
▁великобрита	-10231
▁госуниверси	-10232
▁гражданства	-10233
▁дальнейшего	-10234
▁помазанники	-10235
▁посланников	-10236
▁правоохрани	-10237
▁процветания	-10238
▁таможенного	-10239
▁установлены	-10240
▁внешнеполити	-10241
▁историческую	-10242
▁национальные	-10243
▁владимировича	-10244
▁международным	-10245
▁подготовиться	-10246
▁представителя	-10247
▁преподнесения	-10248
▁доказательство	-10249
▁присутствовали	-10250
▁приднестровской	-10251
15	-10252
нё	-10253
эс	-10254
пиа	-10255
под	-10256
реи	-10257
рип	-10258
рус	-10259
▁84	-10260
▁96	-10261
баты	-10262
диоз	-10263
зина	-10264
лица	-10265
няем	-10266
рист	-10267
шаем	-10268
▁бут	-10269
▁вор	-10270
▁гим	-10271
▁дам	-10272
▁ною	-10273
▁рос	-10274
▁сие	-10275
▁сня	-10276
▁хью	-10277
внове	-10278
ляйте	-10279
стили	-10280
▁добр	-10281
▁доли	-10282
▁ждем	-10283
▁засо	-10284
▁иным	-10285
▁ключ	-10286
▁рыба	-10287
▁снег	-10288
▁суме	-10289
ватель	-10290
кинуть	-10291
хнакия	-10292
▁алеко	-10293
▁божья	-10294
▁вадим	-10295
▁возле	-10296
▁вопло	-10297
▁гарри	-10298
▁горах	-10299
▁игоря	-10300
▁извра	-10301
▁науке	-10302
▁обере	-10303
▁перек	-10304
▁перео	-10305
▁формы	-10306
▁адгура	-10307
▁беседу	-10308
▁ввести	-10309
▁войско	-10310
▁инвест	-10311
▁лучшим	-10312
▁методы	-10313
▁округа	-10314
▁предме	-10315
▁призыв	-10316
▁природ	-10317
▁рабами	-10318
▁расста	-10319
▁чикату	-10320
▁чувств	-10321
председа	-10322
▁высказа	-10323
▁доброго	-10324
▁дорогие	-10325
▁крепкая	-10326
▁потенци	-10327
▁потребу	-10328
▁третьих	-10329
▁арабской	-10330
▁балкарии	-10331
▁болезнью	-10332
▁желающих	-10333
▁кандидат	-10334
▁открытый	-10335
▁отмечать	-10336
▁побуждал	-10337
▁посылает	-10338
▁появился	-10339
▁принесли	-10340
▁такового	-10341
▁устранит	-10342
▁хорошего	-10343
▁цахнакия	-10344
▁багателия	-10345
▁благоприя	-10346
▁воскресил	-10347
▁истинного	-10348
▁отдельных	-10349
▁побережье	-10350
▁появилось	-10351
▁приходили	-10352
▁приходить	-10353
▁репатриан	-10354
▁следующих	-10355
▁стремятся	-10356
▁городского	-10357
▁измениться	-10358
▁подготовка	-10359
▁предыдущей	-10360
▁проблемами	-10361
▁проявляйте	-10362
▁российская	-10363
▁собирается	-10364
▁содержания	-10365
▁укреплению	-10366
▁нейтралитет	-10367
▁преданности	-10368
▁собственные	-10369
▁собственных	-10370
▁упоминается	-10371
▁приблизиться	-10372
▁родительских	-10373
▁двустороннего	-10374
▁удовольствием	-10375
08	-10376
14	-10377
бил	-10378
гар	-10379
сек	-10380
сиа	-10381
сот	-10382
тья	-10383
цар	-10384
чуа	-10385
лист	-10386
нная	-10387
тная	-10388
тран	-10389
▁110	-10390
▁бзы	-10391
▁выи	-10392
▁мих	-10393
▁пир	-10394
▁пры	-10395
▁руп	-10396
ковка	-10397
тский	-10398
▁алфа	-10399
▁вспо	-10400
▁вспы	-10401
▁дата	-10402
▁джон	-10403
▁засу	-10404
▁коры	-10405
▁крым	-10406
▁куку	-10407
▁мика	-10408
▁назо	-10409
▁позо	-10410
▁пётр	-10411
▁сбро	-10412
▁чужо	-10413
щаться	-10414
▁авель	-10415
▁армян	-10416
▁даура	-10417
▁доход	-10418
▁идите	-10419
▁коран	-10420
▁общая	-10421
▁переч	-10422
▁погру	-10423
▁темур	-10424
пывание	-10425
ционные	-10426
▁бгажба	-10427
▁беспри	-10428
▁взыска	-10429
▁всемир	-10430
▁встать	-10431
▁жертво	-10432
▁иосифу	-10433
▁начнет	-10434
▁отобра	-10435
▁пицунд	-10436
▁помоги	-10437
▁умерла	-10438
▁учение	-10439
▁бескоры	-10440
▁вкладку	-10441
▁людмила	-10442
▁отвечал	-10443
▁придает	-10444
▁тимофея	-10445
▁узнаете	-10446
▁участок	-10447
▁анатолия	-10448
▁божества	-10449
▁большого	-10450
▁выходные	-10451
▁истинной	-10452
▁контроля	-10453
▁мальчика	-10454
▁подверга	-10455
▁просвети	-10456
▁согласны	-10457
▁трагедии	-10458
▁турецкой	-10459
▁упомянул	-10460
▁уравнове	-10461
▁действует	-10462
▁искусство	-10463
▁повышения	-10464
▁располага	-10465
▁стоимость	-10466
▁необходимы	-10467
▁объединяет	-10468
▁пониманием	-10469
▁порнографи	-10470
▁пригласить	-10471
▁спрашивают	-10472
▁впечатление	-10473
▁совершенный	-10474
▁незаслуженной	-10475
▁присутствовал	-10476
▁соответствует	-10477
▁строительстве	-10478
зю	-10479
▁k	-10480
чее	-10481
▁92	-10482
мали	-10483
нено	-10484
нист	-10485
стье	-10486
тило	-10487
шина	-10488
▁118	-10489
▁127	-10490
▁400	-10491
▁ава	-10492
▁ара	-10493
▁ари	-10494
▁дже	-10495
▁фер	-10496
ждена	-10497
любие	-10498
новен	-10499
▁1994	-10500
▁2002	-10501
▁взят	-10502
▁депа	-10503
▁идёт	-10504
▁ирак	-10505
▁огра	-10506
▁паци	-10507
▁своё	-10508
▁спро	-10509
▁таки	-10510
▁торо	-10511
держит	-10512
▁взрыв	-10513
▁возме	-10514
▁грамо	-10515
▁зерно	-10516
▁ингур	-10517
▁калмы	-10518
▁корни	-10519
▁ликви	-10520
▁линии	-10521
▁опеки	-10522
▁парка	-10523
▁песню	-10524
▁поеха	-10525
▁приви	-10526
▁проте	-10527
▁расту	-10528
▁редко	-10529
▁эволю	-10530
▁вахтан	-10531
▁выводу	-10532
▁главен	-10533
▁дерево	-10534
▁добром	-10535
▁думали	-10536
▁занять	-10537
▁неверо	-10538
▁похожи	-10539
▁романа	-10540
▁телефо	-10541
▁теплые	-10542
▁южного	-10543
▁юношес	-10544
▁доброте	-10545
▁занятий	-10546
▁констру	-10547
▁мессиан	-10548
▁моменты	-10549
▁насмеха	-10550
▁обратно	-10551
▁открыть	-10552
▁пицунда	-10553
▁преданы	-10554
▁приумно	-10555
▁простым	-10556
▁пятница	-10557
▁решению	-10558
▁созданы	-10559
▁тяжкого	-10560
▁француз	-10561
▁циклона	-10562
▁близкими	-10563
▁взглядов	-10564
▁достовер	-10565
▁картинку	-10566
▁миссионе	-10567
▁находить	-10568
▁областях	-10569
▁поступал	-10570
▁простить	-10571
▁рабочего	-10572
▁сообщить	-10573
▁авторитет	-10574
▁кандидата	-10575
▁ограничен	-10576
▁оставался	-10577
▁останутся	-10578
▁первонача	-10579
▁поколений	-10580
▁поручение	-10581
▁посланник	-10582
▁праведный	-10583
▁проголосо	-10584
▁воспитания	-10585
▁изменилось	-10586
▁победители	-10587
▁пользуются	-10588
▁скромность	-10589
▁содействие	-10590
▁встретиться	-10591
▁посвященных	-10592
▁проявляется	-10593
▁собственной	-10594
▁возвращается	-10595
▁гулрыпшского	-10596
▁неоднократно	-10597
▁общественные	-10598
▁одновременно	-10599
▁постарайтесь	-10600
▁правительством	-10601
хм	-10602
взя	-10603
рма	-10604
руя	-10605
рья	-10606
▁br	-10607
▁ас	-10608
▁ек	-10609
▁сд	-10610
вьте	-10611
дний	-10612
ланд	-10613
люсь	-10614
нешь	-10615
рете	-10616
рихо	-10617
сыла	-10618
чика	-10619
▁the	-10620
▁ади	-10621
▁арт	-10622
▁бен	-10623
▁взо	-10624
▁еды	-10625
▁киа	-10626
▁лес	-10627
▁тпп	-10628
▁юга	-10629
дники	-10630
пособ	-10631
ровый	-10632
ылара	-10633
▁апол	-10634
▁аспи	-10635
▁води	-10636
▁мура	-10637
▁наса	-10638
▁обет	-10639
▁осна	-10640
▁охот	-10641
▁петь	-10642
▁рабы	-10643
▁сидя	-10644
▁снос	-10645
▁таба	-10646
▁хвар	-10647
▁ярко	-10648
менный	-10649
▁бебия	-10650
▁войск	-10651
▁класс	-10652
▁мечта	-10653
▁множе	-10654
▁муссы	-10655
▁одних	-10656
▁переи	-10657
▁рицин	-10658
▁саула	-10659
▁сезон	-10660
▁сопер	-10661
▁стола	-10662
▁углуб	-10663
▁хьюит	-10664
▁чинов	-10665
вленный	-10666
▁адыгея	-10667
▁весьма	-10668
▁грозой	-10669
▁дорогу	-10670
▁евреев	-10671
▁забота	-10672
▁иерихо	-10673
▁механи	-10674
▁неемия	-10675
▁обруши	-10676
▁оценку	-10677
▁семьях	-10678
▁сердцу	-10679
▁солнца	-10680
▁сферах	-10681
▁устраи	-10682
▁бизнеса	-10683
▁голосов	-10684
▁деятеля	-10685
▁древнем	-10686
▁европей	-10687
▁лучшему	-10688
▁михаила	-10689
▁недвижи	-10690
▁ожидают	-10691
▁привели	-10692
▁разбира	-10693
▁русский	-10694
▁считаем	-10695
▁тетрадь	-10696
▁угрозой	-10697
▁филиала	-10698
▁известны	-10699
▁обратите	-10700
▁познание	-10701
▁полюбить	-10702
▁популяри	-10703
▁потомков	-10704
▁пребудут	-10705
▁семейные	-10706
▁хварцкия	-10707
жественной	-10708
▁благоскло	-10709
▁евангелия	-10710
▁институте	-10711
▁наследуют	-10712
▁обращения	-10713
▁оказалось	-10714
▁получение	-10715
▁праведным	-10716
▁формирова	-10717
▁благодарен	-10718
▁окружающих	-10719
▁побуждений	-10720
▁поведением	-10721
▁повторного	-10722
▁происходят	-10723
▁публикаций	-10724
▁страданиям	-10725
▁зависимости	-10726
▁материально	-10727
▁проводиться	-10728
▁исследователь	-10729
▁родственникам	-10730
▁взаимодействие	-10731
▁распространять	-10732
▁государственную	-10733
дн	-10734
рн	-10735
қә	-10736
жны	-10737
▁95	-10738
▁ом	-10739
▁чо	-10740
дняя	-10741
защи	-10742
лием	-10743
рией	-10744
ятся	-10745
▁гол	-10746
▁ека	-10747
▁иди	-10748
щений	-10749
▁2007	-10750
▁бума	-10751
▁впло	-10752
▁дале	-10753
▁духу	-10754
▁злым	-10755
▁изде	-10756
▁илье	-10757
▁косо	-10758
▁мага	-10759
▁маго	-10760
▁ниже	-10761
▁отва	-10762
▁пача	-10763
▁пища	-10764
▁сара	-10765
▁хиру	-10766
▁энци	-10767
▁юных	-10768
вшуюся	-10769
дников	-10770
клесиа	-10771
провод	-10772
совест	-10773
тилась	-10774
▁атмос	-10775
▁бутба	-10776
▁декла	-10777
▁забра	-10778
▁завла	-10779
▁осень	-10780
▁терпи	-10781
▁уверу	-10782
▁штаба	-10783
▁этапе	-10784
тизации	-10785
▁антици	-10786
▁борьба	-10787
▁веруют	-10788
▁видимо	-10789
▁выводы	-10790
▁городу	-10791
▁джапуа	-10792
▁испуга	-10793
▁кристи	-10794
▁лагерь	-10795
▁моисее	-10796
▁молитв	-10797
▁особые	-10798
▁поклон	-10799
▁посове	-10800
▁превоз	-10801
▁ребята	-10802
▁слышит	-10803
▁тюрьму	-10804
▁хозяин	-10805
▁библией	-10806
▁дорогой	-10807
▁екатери	-10808
▁захотел	-10809
▁знающий	-10810
▁извести	-10811
▁исследу	-10812
▁крупном	-10813
▁медведе	-10814
▁милиции	-10815
▁оставит	-10816
▁позволи	-10817
▁стандар	-10818
▁террори	-10819
▁туризма	-10820
▁энцикло	-10821
▁автотран	-10822
▁допустил	-10823
▁екклесиа	-10824
▁одобряет	-10825
▁праведно	-10826
▁причиной	-10827
▁распреде	-10828
▁северный	-10829
▁услышали	-10830
▁возвещать	-10831
▁всемирный	-10832
▁мемориалу	-10833
▁отказался	-10834
▁петербург	-10835
▁почетного	-10836
▁продолжал	-10837
▁произошли	-10838
▁сухумском	-10839
▁воскрешены	-10840
▁всемогущий	-10841
▁записанные	-10842
▁километров	-10843
▁приглашает	-10844
▁приложение	-10845
▁публикация	-10846
▁российский	-10847
▁хореографи	-10848
▁встречается	-10849
▁поклоняются	-10850
▁учреждениях	-10851
▁направлениям	-10852
▁приближается	-10853
▁сотрудничать	-10854
▁формирования	-10855
▁собственности	-10856
▁могущественный	-10857
▁попечительства	-10858
▁d	-10859
дре	-10860
дув	-10861
сок	-10862
шат	-10863
заве	-10864
лест	-10865
мять	-10866
▁xvi	-10867
▁вле	-10868
▁вод	-10869
▁еве	-10870
▁соп	-10871
▁уха	-10872
▁ухо	-10873
▁шат	-10874
йтись	-10875
лёный	-10876
нится	-10877
ровки	-10878
ёмный	-10879
▁2001	-10880
▁коем	-10881
▁мона	-10882
▁нево	-10883
▁огля	-10884
▁подъ	-10885
▁разв	-10886
▁рису	-10887
▁ряда	-10888
▁сака	-10889
▁сыне	-10890
▁ухуд	-10891
▁штат	-10892
ведены	-10893
витель	-10894
гласно	-10895
▁воины	-10896
▁держи	-10897
▁домом	-10898
▁дочер	-10899
▁замет	-10900
▁кален	-10901
▁нагор	-10902
▁обога	-10903
▁ориен	-10904
▁прошу	-10905
▁света	-10906
▁семен	-10907
▁склон	-10908
▁слава	-10909
▁снять	-10910
▁умень	-10911
▁хвали	-10912
▁ценил	-10913
нениями	-10914
▁диспан	-10915
▁думаем	-10916
▁житель	-10917
▁золото	-10918
▁лауреа	-10919
▁менять	-10920
▁описал	-10921
▁опуска	-10922
▁ошибку	-10923
▁регули	-10924
▁скором	-10925
▁филиал	-10926
▁возлага	-10927
▁воронов	-10928
▁высокую	-10929
▁выставо	-10930
▁главные	-10931
▁защищал	-10932
▁коллеги	-10933
▁лучшего	-10934
▁оригина	-10935
▁патриар	-10936
▁пачулия	-10937
▁повсюду	-10938
▁помогла	-10939
▁просите	-10940
▁простой	-10941
▁решении	-10942
▁сговору	-10943
▁сопроти	-10944
▁убедить	-10945
▁взрослых	-10946
▁географи	-10947
▁духовная	-10948
▁принесло	-10949
▁программ	-10950
▁рассчиты	-10951
▁слушайся	-10952
▁художник	-10953
ственность	-10954
▁коллегами	-10955
▁намеренно	-10956
▁настоящая	-10957
▁небольшая	-10958
▁оказывает	-10959
▁получения	-10960
▁сообщение	-10961
▁энциклопе	-10962
▁двенадцать	-10963
▁завершения	-10964
▁испытанием	-10965
▁назначение	-10966
▁отказаться	-10967
▁подготовку	-10968
▁затрагивает	-10969
▁предупредил	-10970
▁результатам	-10971
▁спокойствие	-10972
▁значительное	-10973
▁дополнительные	-10974
04	-10975
пс	-10976
▁p	-10977
буа	-10978
гон	-10979
леи	-10980
мит	-10981
рян	-10982
ума	-10983
бери	-10984
олог	-10985
суди	-10986
тана	-10987
щина	-10988
▁ага	-10989
▁куп	-10990
▁ниц	-10991
▁око	-10992
▁пля	-10993
▁сон	-10994
▁тыс	-10995
предь	-10996
слови	-10997
тович	-10998
▁ахра	-10999
▁вижу	-11000
▁долг	-11001
▁завя	-11002
▁изъя	-11003
▁кака	-11004
▁нели	-11005
▁норм	-11006
▁прог	-11007
▁реке	-11008
▁спец	-11009
▁усво	-11010
▁фини	-11011
▁чуже	-11012
ванные	-11013
вающих	-11014
образи	-11015
ченной	-11016
▁вреди	-11017
▁живой	-11018
▁завет	-11019
▁конфе	-11020
▁ломия	-11021
▁мягко	-11022
▁несет	-11023
▁попол	-11024
▁умело	-11025
▁учите	-11026
▁хашба	-11027
▁четыр	-11028
▁шалва	-11029
ведении	-11030
лывание	-11031
стояние	-11032
тировал	-11033
▁австра	-11034
▁впредь	-11035
▁выхода	-11036
▁защита	-11037
▁консер	-11038
▁корруп	-11039
▁лингви	-11040
▁лицеме	-11041
▁ложных	-11042
▁медали	-11043
▁настав	-11044
▁одежда	-11045
▁повеле	-11046
▁правам	-11047
▁секрет	-11048
▁семена	-11049
рованных	-11050
▁благове	-11051
▁кавказе	-11052
▁леонидо	-11053
▁масштаб	-11054
▁мирской	-11055
▁перенес	-11056
▁попытки	-11057
▁публику	-11058
▁разумом	-11059
▁региона	-11060
▁систему	-11061
▁упомяну	-11062
▁алименты	-11063
▁вопросом	-11064
▁воспитан	-11065
▁гордости	-11066
▁доказыва	-11067
▁желанием	-11068
▁желающие	-11069
▁истинная	-11070
▁небесной	-11071
▁операции	-11072
▁памятник	-11073
▁побудило	-11074
▁погибшим	-11075
▁предписа	-11076
▁приводят	-11077
▁пытались	-11078
▁рассказы	-11079
▁самаритя	-11080
▁бесплатно	-11081
▁договорен	-11082
▁здоровьем	-11083
▁известных	-11084
▁исправить	-11085
▁коммуника	-11086
▁названием	-11087
▁отделение	-11088
▁происходя	-11089
▁сообщению	-11090
▁участвует	-11091
▁чувствуют	-11092
▁вдохновлен	-11093
▁екклесиаст	-11094
▁обсуждении	-11095
▁переговоры	-11096
▁прекрасную	-11097
▁спортивной	-11098
▁столкнулся	-11099
▁наставления	-11100
▁необходимым	-11101
▁посвященная	-11102
▁презентация	-11103
▁рассмотреть	-11104
▁регистрации	-11105
▁служителями	-11106
▁старейшиной	-11107
▁бодрствовать	-11108
▁человеческие	-11109
▁интеллигенции	-11110
зр	-11111
▁e	-11112
гер	-11113
жел	-11114
зар	-11115
зый	-11116
лке	-11117
лоу	-11118
нды	-11119
нна	-11120
щут	-11121
ьям	-11122
ёрз	-11123
▁9.	-11124
вому	-11125
нусь	-11126
шана	-11127
▁арм	-11128
▁кис	-11129
▁оле	-11130
▁соу	-11131
▁эсф	-11132
▁юго	-11133
ваешь	-11134
▁1995	-11135
▁авиа	-11136
▁вкус	-11137
▁воде	-11138
▁враг	-11139
▁гору	-11140
▁едва	-11141
▁заро	-11142
▁затя	-11143
▁маан	-11144
▁моем	-11145
▁мёрт	-11146
▁паро	-11147
▁пары	-11148
▁хуху	-11149
стного	-11150
чаются	-11151
шаются	-11152
ющейся	-11153
▁безна	-11154
▁вышла	-11155
▁денис	-11156
▁жемчу	-11157
▁камер	-11158
▁отдох	-11159
▁своев	-11160
ностями	-11161
▁баталь	-11162
▁бежать	-11163
▁выборе	-11164
▁добрых	-11165
▁кредит	-11166
▁наряду	-11167
▁остере	-11168
▁подряд	-11169
▁помним	-11170
▁понадо	-11171
▁прекло	-11172
▁причем	-11173
▁святое	-11174
▁семина	-11175
▁фронта	-11176
ленность	-11177
ченность	-11178
▁августе	-11179
▁вопросе	-11180
▁даровал	-11181
▁департа	-11182
▁друзьям	-11183
▁живущих	-11184
▁миссион	-11185
▁многими	-11186
▁надлежа	-11187
▁отнести	-11188
▁первыми	-11189
▁пожилые	-11190
▁посчита	-11191
▁примите	-11192
▁сборник	-11193
▁танцева	-11194
тирование	-11195
▁написать	-11196
▁непросты	-11197
▁окажутся	-11198
▁открылся	-11199
▁потерять	-11200
▁растения	-11201
▁старшего	-11202
▁страдают	-11203
▁структур	-11204
▁угождать	-11205
▁учащихся	-11206
▁выступает	-11207
▁материала	-11208
▁население	-11209
▁окончании	-11210
▁планируем	-11211
▁пользуясь	-11212
▁послушать	-11213
▁сражаться	-11214
▁указаниям	-11215
▁уничтожит	-11216
▁управлять	-11217
▁устранить	-11218
▁черкесске	-11219
▁читателей	-11220
▁вступление	-11221
▁памятников	-11222
▁первенстве	-11223
▁посланнику	-11224
▁правильное	-11225
▁сопредседа	-11226
▁спортсмена	-11227
▁управлении	-11228
▁начальником	-11229
▁необходимых	-11230
▁обеспечение	-11231
▁образованию	-11232
▁последовали	-11233
▁представили	-11234
▁принадлежат	-11235
▁управлением	-11236
▁организована	-11237
▁приобретение	-11238
▁чрезвычайным	-11239
▁строительству	-11240
▁драматического	-11241
▁воспользоваться	-11242
мр	-11243
рк	-11244
зам	-11245
кал	-11246
лиз	-11247
лод	-11248
лух	-11249
няк	-11250
фов	-11251
ждён	-11252
лясь	-11253
мони	-11254
ронт	-11255
хлый	-11256
шись	-11257
▁вож	-11258
▁гам	-11259
▁евг	-11260
▁зай	-11261
▁чко	-11262
вляем	-11263
гелия	-11264
говый	-11265
логов	-11266
ложим	-11267
▁аква	-11268
▁бара	-11269
▁вымо	-11270
▁двум	-11271
▁иако	-11272
▁побо	-11273
▁пога	-11274
▁похи	-11275
▁прип	-11276
▁прор	-11277
▁путя	-11278
▁саул	-11279
▁сети	-11280
▁смет	-11281
▁трёх	-11282
вшееся	-11283
колеби	-11284
▁ашана	-11285
▁болен	-11286
▁верен	-11287
▁горди	-11288
▁досро	-11289
▁колес	-11290
▁набра	-11291
▁наций	-11292
▁песнь	-11293
▁печат	-11294
▁повел	-11295
▁потоп	-11296
▁проме	-11297
▁пушки	-11298
▁разор	-11299
▁слезы	-11300
▁успех	-11301
вшегося	-11302
▁важней	-11303
▁виктор	-11304
▁влияют	-11305
▁возлюб	-11306
▁врачей	-11307
▁гибель	-11308
▁изучая	-11309
▁контек	-11310
▁особый	-11311
▁поднял	-11312
▁поняла	-11313
▁придут	-11314
▁слышат	-11315
▁созыва	-11316
▁стрель	-11317
▁твоему	-11318
▁трудом	-11319
▁читали	-11320
▁экстре	-11321
вливание	-11322
женность	-11323
▁близкий	-11324
▁врагами	-11325
▁жертвой	-11326
▁мертвые	-11327
▁многобо	-11328
▁олимпиа	-11329
▁писаний	-11330
▁помогая	-11331
▁потомки	-11332
▁прощает	-11333
▁реликто	-11334
▁сотвори	-11335
▁статьях	-11336
▁требуют	-11337
▁уместно	-11338
▁хорошая	-11339
▁единстве	-11340
▁подраста	-11341
▁подумаем	-11342
▁пожелать	-11343
▁привлечь	-11344
▁призовые	-11345
▁расходов	-11346
▁спросили	-11347
▁транспор	-11348
▁чачхалия	-11349
▁читанава	-11350
▁возглавил	-11351
▁забывайте	-11352
▁завершить	-11353
▁изменение	-11354
▁искушение	-11355
▁испытание	-11356
▁обращаясь	-11357
▁описывает	-11358
▁отдельные	-11359
▁переехать	-11360
▁повеления	-11361
▁повлекшее	-11362
▁поддержал	-11363
▁последнюю	-11364
▁признании	-11365
▁приоритет	-11366
▁факультет	-11367
▁честность	-11368
▁гражданами	-11369
▁изучающему	-11370
▁испытывает	-11371
▁непоколеби	-11372
▁примечание	-11373
▁транспорта	-11374
▁библейского	-11375
▁медицинских	-11376
▁медицинской	-11377
▁праздничный	-11378
▁предприятий	-11379
▁столкнулись	-11380
▁столкнуться	-11381
▁черкесского	-11382
▁промышленной	-11383
▁сотрудниками	-11384
▁установления	-11385
▁обязательства	-11386
▁первосвященник	-11387
▁сотрудничеству	-11388
▁соответствовать	-11389
at	-11390
гва	-11391
зли	-11392
мыв	-11393
сед	-11394
сян	-11395
тик	-11396
▁4.	-11397
▁8.	-11398
▁99	-11399
▁мч	-11400
виль	-11401
жном	-11402
лете	-11403
рник	-11404
ссов	-11405
▁12.	-11406
▁139	-11407
▁аби	-11408
▁ану	-11409
▁дау	-11410
▁куз	-11411
▁нов	-11412
▁пут	-11413
верии	-11414
лович	-11415
ровая	-11416
совый	-11417
ялись	-11418
▁азии	-11419
▁ввер	-11420
▁вете	-11421
▁выез	-11422
▁вызо	-11423
▁джор	-11424
▁испа	-11425
▁лицу	-11426
▁мино	-11427
▁очер	-11428
▁рада	-11429
▁соро	-11430
▁уеха	-11431
▁этни	-11432
ностям	-11433
стными	-11434
ченное	-11435
▁аспек	-11436
▁астро	-11437
▁бойся	-11438
▁бремя	-11439
▁везде	-11440
▁весен	-11441
▁делая	-11442
▁дерев	-11443
▁детях	-11444
▁залов	-11445
▁корпу	-11446
▁лондо	-11447
▁молод	-11448
▁опеча	-11449
▁рамка	-11450
▁растя	-11451
▁симон	-11452
▁спике	-11453
▁среды	-11454
▁транс	-11455
▁хлебо	-11456
▁ходил	-11457
▁царит	-11458
ждаются	-11459
ложении	-11460
▁август	-11461
▁авигея	-11462
▁бориса	-11463
▁внести	-11464
▁воздая	-11465
▁данной	-11466
▁данном	-11467
▁дарует	-11468
▁крепче	-11469
▁обрели	-11470
▁потопа	-11471
▁поэзии	-11472
▁слабый	-11473
▁субъек	-11474
чиваться	-11475
▁виталия	-11476
▁выучить	-11477
▁доволен	-11478
▁знакомы	-11479
▁качеств	-11480
▁королев	-11481
▁незначи	-11482
▁ноемини	-11483
▁периода	-11484
▁победой	-11485
▁положит	-11486
▁предлож	-11487
▁преуспе	-11488
▁прибыла	-11489
▁приняты	-11490
▁разобра	-11491
▁свадьбы	-11492
▁создали	-11493
▁тяжести	-11494
▁аввакума	-11495
▁академик	-11496
▁больницы	-11497
▁верующие	-11498
▁выражает	-11499
▁выражать	-11500
▁грандиоз	-11501
▁действие	-11502
▁женщинам	-11503
▁животные	-11504
▁исполнил	-11505
▁испытать	-11506
▁кабинете	-11507
▁концерта	-11508
▁массовой	-11509
▁наследие	-11510
▁отвечают	-11511
▁семейной	-11512
▁сердечно	-11513
▁согласие	-11514
▁спастись	-11515
▁старайся	-11516
▁учителей	-11517
▁частично	-11518
▁городской	-11519
▁заключить	-11520
▁иезекииля	-11521
▁множества	-11522
▁настроены	-11523
▁непослуша	-11524
▁оставлять	-11525
▁подписали	-11526
▁продолжил	-11527
▁произошел	-11528
▁создателя	-11529
▁использует	-11530
▁качествами	-11531
▁обращаются	-11532
▁праздников	-11533
▁прекрасных	-11534
▁пророчеств	-11535
▁совершаете	-11536
▁эффективно	-11537
▁возвращения	-11538
▁метеорологи	-11539
▁московского	-11540
▁надзирателя	-11541
▁предсказыва	-11542
▁соединенных	-11543
▁участниками	-11544
▁непорочность	-11545
▁поддерживаем	-11546
▁позаботиться	-11547
▁предостерега	-11548
▁предупреждал	-11549
▁приближаться	-11550
▁инвестпрограм	-11551
▁символизирует	-11552
▁общественности	-11553
▁непосредственно	-11554
▁общественностью	-11555
▁̆	-11556
бив	-11557
вто	-11558
рби	-11559
сий	-11560
цәа	-11561
шиг	-11562
вера	-11563
дила	-11564
доно	-11565
евой	-11566
кура	-11567
куси	-11568
мену	-11569
нича	-11570
ремя	-11571
снаб	-11572
тава	-11573
теле	-11574
туре	-11575
яния	-11576
▁евы	-11577
▁ног	-11578
▁нуг	-11579
▁пое	-11580
▁сож	-11581
▁уко	-11582
▁эли	-11583
выста	-11584
носят	-11585
стрее	-11586
щийся	-11587
▁2006	-11588
▁2009	-11589
▁ауди	-11590
▁базе	-11591
▁заба	-11592
▁льва	-11593
▁обно	-11594
▁охла	-11595
▁пола	-11596
▁помя	-11597
▁трав	-11598
▁уско	-11599
▁чама	-11600
колько	-11601
менять	-11602
рабаты	-11603
станно	-11604
шивать	-11605
щиться	-11606
энерго	-11607
▁актов	-11608
▁браку	-11609
▁вслух	-11610
▁встал	-11611
▁евреи	-11612
▁зухба	-11613
▁искуп	-11614
▁кецба	-11615
▁любую	-11616
▁нетру	-11617
▁номер	-11618
▁одина	-11619
▁отдых	-11620
▁плане	-11621
▁прихо	-11622
▁проти	-11623
▁пусто	-11624
▁ребят	-11625
▁сария	-11626
▁стади	-11627
▁стани	-11628
▁строй	-11629
▁техно	-11630
▁унизи	-11631
▁хагба	-11632
▁хашиг	-11633
▁берегу	-11634
▁беседы	-11635
▁вечная	-11636
▁грехах	-11637
▁дважды	-11638
▁европе	-11639
▁зачиты	-11640
▁киараз	-11641
▁крепко	-11642
▁маршан	-11643
▁научил	-11644
▁плодов	-11645
▁разным	-11646
▁району	-11647
▁рвение	-11648
▁святых	-11649
▁сделай	-11650
▁слепых	-11651
▁сувере	-11652
▁ценные	-11653
▁ценный	-11654
▁юности	-11655
▁бюджете	-11656
▁высоких	-11657
▁данного	-11658
▁делаете	-11659
▁деревья	-11660
▁детский	-11661
▁доверия	-11662
▁крепкой	-11663
▁леонида	-11664
▁молимся	-11665
▁новость	-11666
▁нормами	-11667
▁объясня	-11668
▁повторя	-11669
▁простит	-11670
▁простые	-11671
▁сложные	-11672
▁тбилиси	-11673
▁ткуарча	-11674
▁царству	-11675
▁встречам	-11676
▁начались	-11677
▁началось	-11678
▁отдавать	-11679
▁очамчыре	-11680
▁переданы	-11681
▁поздрави	-11682
▁познания	-11683
▁приведет	-11684
▁проверки	-11685
▁простран	-11686
▁просьбой	-11687
▁сведения	-11688
▁вспомнить	-11689
▁выступили	-11690
▁задейство	-11691
▁мусульман	-11692
▁нисколько	-11693
▁показывать	-11694
▁профессора	-11695
▁следующего	-11696
▁сохраняйте	-11697
▁стремление	-11698
▁видеоролики	-11699
▁избирателей	-11700
▁потребуется	-11701
▁удивительно	-11702
▁установлено	-11703
▁беспокоиться	-11704
▁исследование	-11705
▁почувствовал	-11706
▁собственного	-11707
▁международная	-11708
▁черноморэнерго	-11709
▁подразумевается	-11710
бан	-11711
гий	-11712
дны	-11713
риф	-11714
тря	-11715
тут	-11716
фед	-11717
▁эм	-11718
ibra	-11719
дине	-11720
дохе	-11721
емая	-11722
емую	-11723
жник	-11724
ссия	-11725
▁202	-11726
▁700	-11727
▁ешь	-11728
▁заи	-11729
▁кад	-11730
▁лен	-11731
▁мчс	-11732
▁оку	-11733
▁ула	-11734
▁усо	-11735
▁яко	-11736
нному	-11737
чному	-11738
▁1990	-11739
▁1991	-11740
▁1999	-11741
▁вене	-11742
▁забу	-11743
▁засы	-11744
▁изна	-11745
▁изоб	-11746
▁муже	-11747
▁опти	-11748
▁приг	-11749
▁прин	-11750
▁разм	-11751
▁реку	-11752
▁риме	-11753
▁рово	-11754
▁сада	-11755
▁спря	-11756
▁суди	-11757
▁теме	-11758
▁удел	-11759
▁фрук	-11760
ibrary	-11761
началу	-11762
торный	-11763
щаются	-11764
▁ахуба	-11765
▁блока	-11766
▁верил	-11767
▁вразу	-11768
▁задол	-11769
▁звали	-11770
▁имеем	-11771
▁каран	-11772
▁ошибо	-11773
▁речью	-11774
▁сбере	-11775
▁снего	-11776
▁сумме	-11777
▁трапш	-11778
▁форму	-11779
▁фронт	-11780
▁ханаа	-11781
▁чудом	-11782
▁эстра	-11783
ченного	-11784
ённость	-11785
▁беспло	-11786
▁больно	-11787
▁верблю	-11788
▁воздуш	-11789
▁всякое	-11790
▁вырабо	-11791
▁древне	-11792
▁журнал	-11793
▁забыть	-11794
▁кукуру	-11795
▁ложные	-11796
▁любили	-11797
▁одежде	-11798
▁описан	-11799
▁отдали	-11800
▁отзыва	-11801
▁пастух	-11802
▁просим	-11803
▁разбой	-11804
▁рассле	-11805
▁репети	-11806
▁страда	-11807
▁урожай	-11808
▁ценное	-11809
ванность	-11810
рический	-11811
▁library	-11812
▁беремен	-11813
▁вовремя	-11814
▁волейбо	-11815
▁должное	-11816
▁доходов	-11817
▁древние	-11818
▁замысла	-11819
▁мастера	-11820
▁местами	-11821
▁молодая	-11822
▁нестора	-11823
▁объявил	-11824
▁октябрь	-11825
▁отклика	-11826
▁перепол	-11827
▁повышен	-11828
▁прароди	-11829
▁разумно	-11830
▁святили	-11831
▁третьей	-11832
▁центром	-11833
националь	-11834
▁диспансе	-11835
▁лакербай	-11836
▁лакербая	-11837
▁мужчинам	-11838
▁недоволь	-11839
▁обмануть	-11840
▁объявлен	-11841
▁победить	-11842
▁повлияло	-11843
▁поначалу	-11844
▁районный	-11845
▁сентябрь	-11846
▁способны	-11847
▁чувствую	-11848
▁возложили	-11849
▁греческое	-11850
▁ниспослал	-11851
▁позволить	-11852
▁положении	-11853
▁пятидесят	-11854
▁смиренным	-11855
▁стремится	-11856
▁сухумский	-11857
▁счастливо	-11858
▁фотовыста	-11859
▁воскресить	-11860
▁вступления	-11861
▁жительства	-11862
▁источником	-11863
▁неблагодар	-11864
▁недостатки	-11865
▁необходима	-11866
▁относитесь	-11867
▁согласился	-11868
▁спортивных	-11869
▁рассказывая	-11870
▁уничтожения	-11871
▁шестидесяти	-11872
▁беспокойство	-11873
▁общественная	-11874
▁производство	-11875
▁рассказывали	-11876
▁руководящего	-11877
дрометеослужба	-11878
▁избирательных	-11879
▁искупительной	-11880
▁организаторов	-11881
▁политического	-11882
▁проповедовали	-11883
нр	-11884
ёк	-11885
зыв	-11886
ист	-11887
теа	-11888
▁уо	-11889
воро	-11890
жина	-11891
ился	-11892
льет	-11893
лька	-11894
мать	-11895
реди	-11896
сафа	-11897
сель	-11898
хова	-11899
▁11.	-11900
▁130	-11901
▁асф	-11902
▁бол	-11903
▁бур	-11904
▁вса	-11905
▁жат	-11906
▁лом	-11907
▁пмр	-11908
▁сур	-11909
▁тря	-11910
гвава	-11911
дении	-11912
женно	-11913
ильям	-11914
стное	-11915
▁2003	-11916
▁вооз	-11917
▁ежем	-11918
▁март	-11919
▁пару	-11920
▁рати	-11921
▁рука	-11922
▁рыбо	-11923
▁скре	-11924
▁упре	-11925
▁фраг	-11926
▁цену	-11927
битель	-11928
бовать	-11929
доволь	-11930
▁гогия	-11931
▁делай	-11932
▁донец	-11933
▁исаак	-11934
▁искал	-11935
▁модер	-11936
▁недав	-11937
▁оболь	-11938
▁отлич	-11939
▁ошиба	-11940
▁пагуб	-11941
▁предд	-11942
ванного	-11943
дневной	-11944
скочить	-11945
▁выкупа	-11946
▁иордан	-11947
▁камкиа	-11948
▁мотива	-11949
▁пациен	-11950
▁полный	-11951
▁просят	-11952
▁револю	-11953
▁ростов	-11954
▁систем	-11955
▁справа	-11956
▁стихах	-11957
▁увлека	-11958
▁уильям	-11959
▁урожая	-11960
▁фазиль	-11961
▁чистую	-11962
▁эпидем	-11963
дировать	-11964
тивность	-11965
▁бигвава	-11966
▁ветеран	-11967
▁выдержа	-11968
▁какалия	-11969
▁крупных	-11970
▁мардохе	-11971
▁научной	-11972
▁неформа	-11973
▁николай	-11974
▁новости	-11975
▁отнесся	-11976
▁подобны	-11977
▁превыше	-11978
▁пределы	-11979
▁пророки	-11980
▁просьбу	-11981
▁разобла	-11982
▁разруши	-11983
▁сделала	-11984
▁сделано	-11985
▁телефон	-11986
▁теннису	-11987
▁утешать	-11988
▁участка	-11989
▁фамилии	-11990
▁чамагуа	-11991
стройство	-11992
▁возложен	-11993
▁высокого	-11994
▁глубокие	-11995
▁депутата	-11996
▁древнего	-11997
▁математи	-11998
▁молитвах	-11999
▁обратить	-12000
▁переводи	-12001
▁поверить	-12002
▁полезные	-12003
▁получает	-12004
▁пределах	-12005
▁проводим	-12006
▁прокурор	-12007
▁пропуска	-12008
▁работали	-12009
▁северной	-12010
▁совестью	-12011
▁составил	-12012
▁уверовал	-12013
▁улучшить	-12014
▁наблюдать	-12015
▁научились	-12016
▁обращался	-12017
▁обращении	-12018
▁очередной	-12019
▁повышение	-12020
▁проходили	-12021
▁проявляли	-12022
▁республик	-12023
▁умеренный	-12024
▁васильевич	-12025
▁интересные	-12026
▁испытываем	-12027
▁испытывать	-12028
▁коллектива	-12029
▁награждены	-12030
▁направлены	-12031
▁незаконное	-12032
▁ниспослали	-12033
▁победитель	-12034
▁получается	-12035
▁предложили	-12036
▁преследова	-12037
▁фактически	-12038
▁библейскому	-12039
▁благодарить	-12040
▁великодушно	-12041
▁видеоролика	-12042
▁позаботится	-12043
▁предоставил	-12044
▁христианину	-12045
▁благодарными	-12046
▁христианской	-12047
▁великобритании	-12048
▁родственниками	-12049
an	-12050
тм	-12051
ҟа	-12052
▁‐	-12053
бже	-12054
бит	-12055
есо	-12056
као	-12057
сою	-12058
шке	-12059
▁91	-12060
▁дэ	-12061
▁тв	-12062
гова	-12063
дием	-12064
дкий	-12065
леть	-12066
нией	-12067
ньте	-12068
чава	-12069
▁ажи	-12070
▁дур	-12071
▁лов	-12072
▁моа	-12073
▁нал	-12074
▁нен	-12075
▁нер	-12076
▁ово	-12077
▁ута	-12078
▁чье	-12079
денти	-12080
зится	-12081
исана	-12082
тство	-12083
▁2005	-12084
▁вали	-12085
▁взра	-12086
▁выжи	-12087
▁двой	-12088
▁заку	-12089
▁иову	-12090
▁коме	-12091
▁лихо	-12092
▁пище	-12093
▁поез	-12094
▁прах	-12095
▁сово	-12096
▁чтоб	-12097
ванную	-12098
жённый	-12099
ковать	-12100
ламент	-12101
ротвор	-12102
чённый	-12103
▁боксу	-12104
▁верим	-12105
▁горды	-12106
▁друже	-12107
▁злыми	-12108
▁кодор	-12109
▁марте	-12110
▁месту	-12111
▁наука	-12112
▁немощ	-12113
▁повод	-12114
▁рассы	-12115
▁собою	-12116
▁сферы	-12117
▁сцена	-12118
▁съезд	-12119
▁хирур	-12120
▁хитро	-12121
нивание	-12122
тивного	-12123
▁аэропо	-12124
▁выращи	-12125
▁зураба	-12126
▁избега	-12127
▁исходя	-12128
▁камнем	-12129
▁могиле	-12130
▁навина	-12131
▁непред	-12132
▁нисана	-12133
▁персид	-12134
▁подыто	-12135
▁сдержи	-12136
▁указом	-12137
▁шенкао	-12138
▁аспиран	-12139
▁билетов	-12140
▁внешней	-12141
▁вывести	-12142
▁доказал	-12143
▁израилю	-12144
▁любимый	-12145
▁новогод	-12146
▁обсудил	-12147
▁пророку	-12148
▁просили	-12149
▁реакция	-12150
▁сестрой	-12151
▁творить	-12152
правитель	-12153
▁великому	-12154
▁внезапно	-12155
▁возвести	-12156
▁доказать	-12157
▁комменти	-12158
▁называли	-12159
▁расскажи	-12160
▁тактично	-12161
▁утешения	-12162
▁участвуя	-12163
▁чувствах	-12164
▁вынуждены	-12165
▁держаться	-12166
▁духовному	-12167
▁заботятся	-12168
▁искушения	-12169
▁нравилось	-12170
▁пожелания	-12171
▁посмотрим	-12172
▁причинить	-12173
▁режиссера	-12174
▁значимость	-12175
▁неверующим	-12176
▁обратились	-12177
▁оставались	-12178
▁отсутствии	-12179
▁официально	-12180
▁полномочий	-12181
▁смиренными	-12182
▁выдающегося	-12183
▁георгиевича	-12184
▁достоинства	-12185
▁единогласно	-12186
▁нечестивого	-12187
▁присутствия	-12188
▁размышления	-12189
▁рассказывал	-12190
▁безупречными	-12191
▁политический	-12192
▁производится	-12193
▁представления	-12194
▁существование	-12195
▁присутствовать	-12196
▁самоуправления	-12197
▁филологических	-12198
▁предприниматель	-12199
▁сосредоточиться	-12200
ic	-12201
кс	-12202
мс	-12203
зок	-12204
нду	-12205
пно	-12206
сср	-12207
тиз	-12208
цыц	-12209
чив	-12210
чию	-12211
эко	-12212
▁bw	-12213
веть	-12214
дную	-12215
рисо	-12216
серд	-12217
ёнка	-12218
▁13.	-12219
▁16.	-12220
▁гля	-12221
▁изъ	-12222
▁каи	-12223
▁куд	-12224
▁неф	-12225
▁оже	-12226
▁отд	-12227
▁пев	-12228
▁сго	-12229
▁эше	-12230
говор	-12231
льтфи	-12232
менов	-12233
ствию	-12234
стник	-12235
судар	-12236
шайте	-12237
▁биби	-12238
▁выро	-12239
▁гоов	-12240
▁дары	-12241
▁дока	-12242
▁духи	-12243
▁коре	-12244
▁маме	-12245
▁мель	-12246
▁рома	-12247
▁скле	-12248
▁слав	-12249
▁софа	-12250
▁хули	-12251
венный	-12252
товать	-12253
ходили	-12254
щенный	-12255
▁авеля	-12256
▁алмас	-12257
▁бокса	-12258
▁вдова	-12259
▁всеоб	-12260
▁гагре	-12261
▁казни	-12262
▁китай	-12263
▁курса	-12264
▁лицам	-12265
▁обсле	-12266
▁опеку	-12267
▁плани	-12268
▁прили	-12269
▁проще	-12270
▁репре	-12271
▁сочли	-12272
▁укоре	-12273
▁фанта	-12274
▁черно	-12275
ленными	-12276
▁апрель	-12277
▁барцыц	-12278
▁боялся	-12279
▁брошюр	-12280
▁велика	-12281
▁воздви	-12282
▁востор	-12283
▁гостям	-12284
▁девять	-12285
▁езекия	-12286
▁камень	-12287
▁коллег	-12288
▁межпар	-12289
▁ослабе	-12290
▁особую	-12291
▁поборо	-12292
▁полную	-12293
▁путина	-12294
▁собрал	-12295
▁упуска	-12296
▁чистой	-12297
▁читают	-12298
▁эдуард	-12299
новаться	-12300
▁божьими	-12301
▁властям	-12302
▁декабрь	-12303
▁делайте	-12304
▁команди	-12305
▁лауреат	-12306
▁матерью	-12307
▁мультфи	-12308
▁незнако	-12309
▁ожидаем	-12310
▁перевоз	-12311
▁подойти	-12312
▁пособия	-12313
▁президи	-12314
▁сильным	-12315
▁тяжелые	-12316
▁франции	-12317
▁заключил	-12318
▁значения	-12319
▁зрителей	-12320
▁истинным	-12321
▁красного	-12322
▁наладить	-12323
▁осуждает	-12324
▁привычку	-12325
▁принятия	-12326
▁приобрел	-12327
▁причинам	-12328
▁радуется	-12329
▁религией	-12330
▁смелость	-12331
▁созданий	-12332
▁старания	-12333
▁стороной	-12334
▁судебном	-12335
▁еврейских	-12336
▁испытывал	-12337
▁конфедера	-12338
▁непристой	-12339
▁объяснять	-12340
▁продлится	-12341
▁следствие	-12342
▁советской	-12343
▁сыновьями	-12344
▁диспансери	-12345
▁жительство	-12346
▁завершении	-12347
▁количества	-12348
▁необычайно	-12349
▁отмечалось	-12350
▁подписание	-12351
▁помощников	-12352
▁помощником	-12353
▁преданными	-12354
▁преддверии	-12355
▁пригласили	-12356
▁статистики	-12357
▁управлению	-12358
▁факультета	-12359
▁естественно	-12360
▁информацией	-12361
▁коллективов	-12362
▁напоминание	-12363
▁нуждающимся	-12364
▁переговоров	-12365
▁посвященное	-12366
▁превосходит	-12367
▁телевидения	-12368
▁усыновления	-12369
▁центральном	-12370
▁департамента	-12371
▁поддерживали	-12372
▁помазанников	-12373
▁преодолевать	-12374
▁совершенными	-12375
▁эксплуатацию	-12376
▁избирательный	-12377
▁установленном	-12378
▁восстановление	-12379
▁парламентского	-12380
▁самостоятельно	-12381
09	-12382
en	-12383
сб	-12384
ама	-12385
кот	-12386
лер	-12387
пал	-12388
рза	-12389
хии	-12390
▁6.	-12391
▁89	-12392
▁iv	-12393
▁нм	-12394
ером	-12395
жили	-12396
мато	-12397
нция	-12398
тную	-12399
чете	-12400
ёный	-12401
▁186	-12402
▁800	-12403
▁вир	-12404
▁лиш	-12405
▁пли	-12406
▁сгб	-12407
▁сжи	-12408
▁тей	-12409
▁уга	-12410
▁шпи	-12411
зовый	-12412
ловка	-12413
риаль	-12414
товка	-12415
ховой	-12416
▁1945	-12417
▁апсу	-12418
▁арен	-12419
▁веща	-12420
▁гуми	-12421
▁деко	-12422
▁илия	-12423
▁лоша	-12424
▁мясо	-12425
▁наре	-12426
▁обер	-12427
▁псоу	-12428
▁рама	-12429
▁семя	-12430
▁хами	-12431
▁швей	-12432
▁юсти	-12433
менить	-12434
нтский	-12435
нулась	-12436
танный	-12437
ходный	-12438
▁герой	-12439
▁инфра	-12440
▁неотъ	-12441
▁опере	-12442
▁отсро	-12443
▁попал	-12444
▁пункт	-12445
▁разоб	-12446
▁саида	-12447
▁сваде	-12448
▁чичба	-12449
ваетесь	-12450
▁выбора	-12451
▁глубже	-12452
▁готова	-12453
▁даются	-12454
▁длинно	-12455
▁играть	-12456
▁иеффай	-12457
▁колдов	-12458
▁лагеря	-12459
▁местом	-12460
▁мотивы	-12461
▁обрета	-12462
▁павлом	-12463
▁потряс	-12464
▁правую	-12465
▁прегра	-12466
▁прести	-12467
▁притче	-12468
▁растер	-12469
▁смогла	-12470
▁спарта	-12471
▁стояли	-12472
▁темати	-12473
▁учатся	-12474
▁учесть	-12475
▁членом	-12476
лённость	-12477
▁богоуго	-12478
▁девочки	-12479
▁знамена	-12480
▁золотые	-12481
▁изобили	-12482
▁корабль	-12483
▁музыкан	-12484
▁периоди	-12485
▁получив	-12486
▁попробу	-12487
▁прорабо	-12488
▁рабочих	-12489
▁сильное	-12490
▁создает	-12491
▁товаров	-12492
▁тяжелое	-12493
▁эгоисти	-12494
▁верующим	-12495
▁демонами	-12496
▁единовер	-12497
▁искусств	-12498
▁комиссию	-12499
▁концерте	-12500
▁любящего	-12501
▁многобож	-12502
▁памятных	-12503
▁повторно	-12504
▁почетные	-12505
▁сентябре	-12506
▁учебного	-12507
▁ненависть	-12508
▁ободрение	-12509
▁оказалась	-12510
▁поддержит	-12511
▁преданным	-12512
▁принимаем	-12513
▁проводили	-12514
▁создавать	-12515
▁стойкости	-12516
▁страницах	-12517
▁художника	-12518
▁абазинском	-12519
▁двенадцати	-12520
▁занимались	-12521
▁инфраструк	-12522
▁используют	-12523
▁освобожден	-12524
▁осуществля	-12525
▁праведными	-12526
▁российские	-12527
▁средствами	-12528
▁идолопоклон	-12529
▁разобраться	-12530
▁современные	-12531
▁усыновление	-12532
▁владимирович	-12533
▁двусторонних	-12534
▁заслуженного	-12535
▁межпарламент	-12536
▁министерству	-12537
▁администраций	-12538
▁подразделений	-12539
▁подразумевает	-12540
▁предубеждения	-12541
▁предусмотрено	-12542
▁прелюбодеяние	-12543
▁примечательно	-12544
▁существования	-12545
▁приблизительно	-12546
эк	-12547
эр	-12548
ҳа	-12549
бый	-12550
дую	-12551
ено	-12552
еся	-12553
изм	-12554
мик	-12555
нях	-12556
реб	-12557
хан	-12558
▁5.	-12559
▁ем	-12560
взой	-12561
ениа	-12562
кове	-12563
лочь	-12564
поко	-12565
тном	-12566
цкий	-12567
▁17.	-12568
▁або	-12569
▁аза	-12570
▁гад	-12571
▁жар	-12572
▁иро	-12573
▁отя	-12574
▁пей	-12575
▁шут	-12576
ворот	-12577
йство	-12578
миная	-12579
▁абду	-12580
▁айба	-12581
▁анто	-12582
▁асср	-12583
▁джан	-12584
▁идей	-12585
▁ищут	-12586
▁июль	-12587
▁карт	-12588
▁кеса	-12589
▁мото	-12590
▁озву	-12591
▁окре	-12592
▁отча	-12593
▁прох	-12594
▁рахи	-12595
▁сном	-12596
▁улыб	-12597
▁эски	-12598
колоть	-12599
онного	-12600
понима	-12601
рована	-12602
шались	-12603
▁актер	-12604
▁акцен	-12605
▁блага	-12606
▁ведем	-12607
▁голиа	-12608
▁затру	-12609
▁звезд	-12610
▁изгна	-12611
▁килба	-12612
▁латин	-12613
▁переу	-12614
▁подпи	-12615
▁помыш	-12616
▁посте	-12617
▁прост	-12618
▁расчи	-12619
▁роско	-12620
▁сбора	-12621
▁силам	-12622
▁убере	-12623
▁фунда	-12624
▁асфаль	-12625
▁вплоть	-12626
▁импера	-12627
▁иосафа	-12628
▁насиль	-12629
▁нурбей	-12630
▁ожесто	-12631
▁подтол	-12632
▁позади	-12633
▁полное	-12634
▁поэтов	-12635
▁претен	-12636
▁прибыл	-12637
▁псалма	-12638
▁разгне	-12639
▁раскоп	-12640
▁созида	-12641
▁сообща	-12642
▁ставит	-12643
▁супруг	-12644
▁урожен	-12645
▁хьюитт	-12646
▁будущих	-12647
▁буклета	-12648
▁волнует	-12649
▁вызвать	-12650
▁деловой	-12651
▁доброты	-12652
▁дорожит	-12653
▁древней	-12654
▁ежемеся	-12655
▁защитой	-12656
▁испытал	-12657
▁неоцени	-12658
▁отпусти	-12659
▁похвалы	-12660
▁препира	-12661
▁рассуди	-12662
▁сборная	-12663
▁свободе	-12664
▁сильные	-12665
▁следуем	-12666
▁училища	-12667
▁эксперт	-12668
▁электри	-12669
▁юбилеем	-12670
▁американ	-12671
▁амцахара	-12672
▁вавилоне	-12673
▁ведомств	-12674
▁воронова	-12675
▁зрелости	-12676
▁известен	-12677
▁народная	-12678
▁недостой	-12679
▁обещаний	-12680
▁обучении	-12681
▁отворачи	-12682
▁символом	-12683
▁стараясь	-12684
▁статьями	-12685
тельностью	-12686
▁видимости	-12687
▁восточной	-12688
▁жизненный	-12689
▁надеяться	-12690
▁откроется	-12691
▁подписано	-12692
▁посвящена	-12693
▁предметов	-12694
▁приносили	-12695
▁приносило	-12696
▁разговоры	-12697
▁руководил	-12698
▁следовали	-12699
▁структуры	-12700
▁темурович	-12701
▁абхазскими	-12702
▁восхвалять	-12703
▁завершение	-12704
▁крестились	-12705
▁культурной	-12706
▁нечестивых	-12707
▁основанная	-12708
▁отличаются	-12709
▁подготовил	-12710
▁поддержали	-12711
▁подходящее	-12712
▁правителем	-12713
▁прекрасная	-12714
▁присвоении	-12715
▁продолжали	-12716
▁размышляем	-12717
▁творческих	-12718
▁христианка	-12719
▁антициклона	-12720
▁значительно	-12721
▁исполнением	-12722
▁направлений	-12723
▁необходимую	-12724
▁посвященные	-12725
▁присутствии	-12726
▁сексуальной	-12727
▁современном	-12728
▁сотрудникам	-12729
▁спиритизмом	-12730
▁утверждении	-12731
▁благополучии	-12732
▁возможностью	-12733
▁межправитель	-12734
▁обеспечивать	-12735
▁политическая	-12736
▁положительно	-12737
▁противоречит	-12738
▁рассмотрение	-12739
▁рассчитывать	-12740
▁преподаватель	-12741
▁несовершенство	-12742
▁осуществляется	-12743
▁ставропольского	-12744
ос	-12745
бек	-12746
гин	-12747
кта	-12748
леш	-12749
лку	-12750
лоб	-12751
▁98	-12752
▁ср	-12753
вете	-12754
здра	-12755
кала	-12756
крба	-12757
ллек	-12758
льня	-12759
нщик	-12760
пати	-12761
рима	-12762
рных	-12763
сист	-12764
цело	-12765
шени	-12766
▁10.	-12767
▁108	-12768
▁187	-12769
▁ате	-12770
▁вин	-12771
▁заж	-12772
▁кое	-12773
▁кот	-12774
▁нез	-12775
▁хал	-12776
▁шум	-12777
▁юни	-12778
енной	-12779
канье	-12780
ндзия	-12781
ртный	-12782
щимся	-12783
▁1978	-12784
▁веще	-12785
▁джин	-12786
▁дзап	-12787
▁заст	-12788
▁изну	-12789
▁каин	-12790
▁обид	-12791
▁подр	-12792
▁поти	-12793
▁свит	-12794
▁слож	-12795
▁соба	-12796
▁фаши	-12797
▁чека	-12798
▁экра	-12799
▁юный	-12800
бирать	-12801
вшаяся	-12802
ливать	-12803
ровщик	-12804
ряться	-12805
титель	-12806
шество	-12807
шечный	-12808
щегося	-12809
▁аврам	-12810
▁актри	-12811
▁выезд	-12812
▁жилищ	-12813
▁забро	-12814
▁навод	-12815
▁навре	-12816
▁накор	-12817
▁нанба	-12818
▁носят	-12819
▁обман	-12820
▁плано	-12821
▁прива	-12822
▁разжи	-12823
▁раулю	-12824
▁ремес	-12825
▁роста	-12826
▁селах	-12827
▁сквоз	-12828
▁убили	-12829
▁устой	-12830
▁хвата	-12831
▁ходит	-12832
▁ясные	-12833
надцать	-12834
тарного	-12835
▁автора	-12836
▁верили	-12837
▁давали	-12838
▁дольше	-12839
▁живших	-12840
▁заметь	-12841
▁иденти	-12842
▁искоре	-12843
▁личных	-12844
▁мудрым	-12845
▁неправ	-12846
▁обреза	-12847
▁оптими	-12848
▁отличи	-12849
▁подопе	-12850
▁прикры	-12851
▁приспо	-12852
▁режиме	-12853
▁следуй	-12854
▁чистое	-12855
▁благово	-12856
▁военную	-12857
▁всякому	-12858
▁гаделия	-12859
▁дзапшба	-12860
▁инженер	-12861
▁минздра	-12862
▁молится	-12863
▁мухарби	-12864
▁обычаев	-12865
▁органах	-12866
▁оскорби	-12867
▁пастуха	-12868
▁похвали	-12869
▁похорон	-12870
▁прихода	-12871
▁пунктов	-12872
▁реформи	-12873
▁техники	-12874
▁увидите	-12875
▁увидишь	-12876
▁артистка	-12877
▁вынужден	-12878
▁выразила	-12879
▁достигли	-12880
▁избрании	-12881
▁интеллек	-12882
▁ленингра	-12883
▁оказания	-12884
▁отдельно	-12885
▁перестал	-12886
▁положить	-12887
▁посвятил	-12888
▁смелости	-12889
▁страдает	-12890
▁супругам	-12891
▁телефону	-12892
▁убеждены	-12893
▁участник	-12894
▁чувствам	-12895
▁всесторон	-12896
▁дорожного	-12897
▁заботился	-12898
▁изменился	-12899
▁неотъемле	-12900
▁переживал	-12901
▁предосуди	-12902
▁пригласил	-12903
▁проблемам	-12904
▁пропавших	-12905
▁реабилита	-12906
▁ремонтные	-12907
▁сосналиев	-12908
▁ткуарчале	-12909
▁апостолами	-12910
▁воспринима	-12911
▁готовности	-12912
▁дальнейших	-12913
▁директором	-12914
▁кандидатом	-12915
▁приводятся	-12916
▁руководить	-12917
▁выставочном	-12918
▁заболеваний	-12919
▁кандидатуру	-12920
▁молодежного	-12921
▁мучительные	-12922
▁обсуждаются	-12923
▁очамчырском	-12924
▁праздничные	-12925
▁специальная	-12926
▁сталкиваясь	-12927
▁уравновешен	-12928
▁исторические	-12929
▁общественный	-12930
▁переведенное	-12931
▁современного	-12932
▁территориаль	-12933
▁технического	-12934
▁удивительные	-12935
▁христианином	-12936
▁международное	-12937
▁положительный	-12938
▁представителем	-12939
▁корреспондентом	-12940
▁национальностей	-12941
05	-12942
кет	-12943
мем	-12944
мир	-12945
нья	-12946
пры	-12947
рив	-12948
сос	-12949
уан	-12950
чке	-12951
чко	-12952
▁87	-12953
▁уи	-12954
горо	-12955
жене	-12956
мону	-12957
нито	-12958
нуло	-12959
▁15.	-12960
▁ару	-12961
▁гав	-12962
▁пещ	-12963
▁тат	-12964
▁тка	-12965
▁уще	-12966
▁фла	-12967
здить	-12968
понен	-12969
сович	-12970
тения	-12971
черей	-12972
швили	-12973
▁арми	-12974
▁войн	-12975
▁ждал	-12976
▁живя	-12977
▁жила	-12978
▁измо	-12979
▁муни	-12980
▁нажи	-12981
▁опол	-12982
▁прот	-12983
▁псху	-12984
▁птиц	-12985
▁раем	-12986
▁разб	-12987
▁розы	-12988
▁руке	-12989
▁стер	-12990
▁тщет	-12991
▁убит	-12992
▁умно	-12993
▁хими	-12994
менной	-12995
пывать	-12996
шенных	-12997
▁ваала	-12998
▁важны	-12999
▁гунба	-13000
▁делба	-13001
▁ежене	-13002
▁елисе	-13003
▁запро	-13004
▁кутол	-13005
▁мигра	-13006
▁накло	-13007
▁необо	-13008
▁отказ	-13009
▁плода	-13010
▁позор	-13011
▁потра	-13012
▁разры	-13013
▁регла	-13014
▁сорок	-13015
▁цифры	-13016
▁читал	-13017
скаться	-13018
ходящий	-13019
▁боятся	-13020
▁ведает	-13021
▁газета	-13022
▁главах	-13023
▁данных	-13024
▁жениха	-13025
▁итогах	-13026
▁кругло	-13027
▁лакрба	-13028
▁лариса	-13029
▁месяце	-13030
▁ноябре	-13031
▁образе	-13032
▁обучая	-13033
▁одержи	-13034
▁прикос	-13035
▁ректор	-13036
▁сноску	-13037
▁трижды	-13038
▁турция	-13039
▁январь	-13040
▁воевать	-13041
▁выполня	-13042
▁держать	-13043
▁дочерей	-13044
▁журналы	-13045
▁защитит	-13046
▁клянусь	-13047
▁колосса	-13048
▁кротким	-13049
▁насчиты	-13050
▁находят	-13051
▁обладал	-13052
▁оправда	-13053
▁оправды	-13054
▁платить	-13055
▁понимаю	-13056
▁предков	-13057
▁признак	-13058
▁происше	-13059
▁пропита	-13060
▁пропуск	-13061
▁пушкина	-13062
▁рубежом	-13063
▁церковь	-13064
стической	-13065
▁вернутся	-13066
▁граждани	-13067
▁изучении	-13068
▁крещению	-13069
▁министру	-13070
▁народное	-13071
▁обойтись	-13072
▁ответили	-13073
▁политику	-13074
▁редактор	-13075
▁сангулия	-13076
▁событием	-13077
▁телекана	-13078
▁учеником	-13079
▁агентства	-13080
▁выслушать	-13081
▁годовщины	-13082
▁интерната	-13083
▁компьютер	-13084
▁нуждаемся	-13085
▁повседнев	-13086
▁расширить	-13087
▁самаритян	-13088
▁спектакле	-13089
▁установил	-13090
▁грузинских	-13091
▁довольство	-13092
▁зарубежных	-13093
▁литературо	-13094
▁обращались	-13095
▁отсутствие	-13096
▁пребывания	-13097
▁прекратить	-13098
▁секретарем	-13099
▁устройство	-13100
▁встретились	-13101
▁добровольно	-13102
▁иллюстрация	-13103
▁кавказского	-13104
▁находящиеся	-13105
▁обсуждаться	-13106
▁отправились	-13107
▁поддерживал	-13108
▁презентации	-13109
▁спортивного	-13110
▁экземпляров	-13111
▁атмосферного	-13112
▁определяется	-13113
▁организациям	-13114
▁повседневной	-13115
▁преткновения	-13116
▁производства	-13117
▁существовать	-13118
▁энциклопедии	-13119
▁незаслуженную	-13120
▁несовершенным	-13121
▁провозглашать	-13122
▁реконструкции	-13123
еи	-13124
зж	-13125
цв	-13126
ял	-13127
беж	-13128
зит	-13129
нев	-13130
нор	-13131
чел	-13132
шок	-13133
▁7.	-13134
▁ер	-13135
▁ой	-13136
▁хе	-13137
вина	-13138
дено	-13139
зору	-13140
лизо	-13141
мино	-13142
пкий	-13143
рипш	-13144
сите	-13145
това	-13146
▁102	-13147
▁106	-13148
▁109	-13149
▁аса	-13150
▁бай	-13151
▁вак	-13152
▁век	-13153
▁гиб	-13154
▁зда	-13155
▁ист	-13156
▁лод	-13157
▁моз	-13158
▁сущ	-13159
▁фсб	-13160
▁шар	-13161
ванно	-13162
демон	-13163
ктору	-13164
ногий	-13165
рывно	-13166
совой	-13167
тилле	-13168
ченко	-13169
▁амра	-13170
▁анри	-13171
▁беде	-13172
▁бота	-13173
▁гряз	-13174
▁като	-13175
▁мужь	-13176
▁навя	-13177
▁нере	-13178
▁обор	-13179
▁поса	-13180
▁проч	-13181
▁суро	-13182
▁трое	-13183
▁эфио	-13184
▁ярмо	-13185
ландии	-13186
▁алиса	-13187
▁верны	-13188
▁верто	-13189
▁верши	-13190
▁водой	-13191
▁воссо	-13192
▁глупы	-13193
▁грани	-13194
▁груди	-13195
▁дворе	-13196
▁мужей	-13197
▁обоих	-13198
▁общую	-13199
▁отрек	-13200
▁пасха	-13201
▁плену	-13202
▁посты	-13203
▁рабом	-13204
▁рамки	-13205
▁самоо	-13206
▁стары	-13207
▁столб	-13208
▁тюрем	-13209
▁услуг	-13210
▁хасан	-13211
▁чтить	-13212
▁энвер	-13213
нтность	-13214
ченными	-13215
▁всевыш	-13216
▁выдачи	-13217
▁газете	-13218
▁график	-13219
▁доброй	-13220
▁жертве	-13221
▁запрет	-13222
▁звезда	-13223
▁изнача	-13224
▁какова	-13225
▁минадо	-13226
▁оборот	-13227
▁ошибок	-13228
▁павиль	-13229
▁племян	-13230
▁плохие	-13231
▁плохой	-13232
▁помнит	-13233
▁посеща	-13234
▁правом	-13235
▁родила	-13236
▁сборам	-13237
▁сдержа	-13238
▁сконча	-13239
▁слушал	-13240
▁соблаз	-13241
▁сочета	-13242
▁суббот	-13243
▁султан	-13244
▁фильмы	-13245
▁чкотуа	-13246
образова	-13247
▁автоном	-13248
▁артилле	-13249
▁артиста	-13250
▁бесконе	-13251
▁ближним	-13252
▁вернуть	-13253
▁властей	-13254
▁влиянию	-13255
▁высокие	-13256
▁живущим	-13257
▁медалью	-13258
▁мыслить	-13259
▁наиболь	-13260
▁особого	-13261
▁ответит	-13262
▁отпуска	-13263
▁позиции	-13264
▁почтить	-13265
▁просмот	-13266
▁простую	-13267
▁реализу	-13268
▁слушают	-13269
▁собраны	-13270
▁страхом	-13271
▁укрепит	-13272
▁ученика	-13273
▁юстиции	-13274
демонстри	-13275
▁благогов	-13276
▁вечность	-13277
▁взрослые	-13278
▁возникла	-13279
▁выполнен	-13280
▁выстоять	-13281
▁закавказ	-13282
▁зачастую	-13283
▁кампания	-13284
▁консерва	-13285
▁называть	-13286
▁обращать	-13287
▁органами	-13288
▁политика	-13289
▁привычки	-13290
▁процессе	-13291
▁работник	-13292
▁сокровищ	-13293
▁стремясь	-13294
▁теплотой	-13295
▁черкесск	-13296
▁богатства	-13297
▁встретить	-13298
▁гражданин	-13299
▁григорьев	-13300
▁демократи	-13301
▁добавляет	-13302
▁конгрессы	-13303
▁назидание	-13304
▁непревзой	-13305
▁позвольте	-13306
▁привержен	-13307
▁проведена	-13308
▁процентов	-13309
▁указанных	-13310
▁воспитании	-13311
▁выполнения	-13312
▁инфопортал	-13313
▁обсуждался	-13314
▁переносить	-13315
▁пониженное	-13316
▁постановке	-13317
▁служителем	-13318
▁собираться	-13319
▁специалист	-13320
▁становимся	-13321
▁требование	-13322
▁физических	-13323
▁заболевания	-13324
▁исполняются	-13325
▁исполняющий	-13326
▁исправление	-13327
▁неверующими	-13328
▁объединение	-13329
▁предположим	-13330
▁проповедует	-13331
▁результатов	-13332
▁уверенности	-13333
▁утверждение	-13334
▁единственным	-13335
▁используется	-13336
▁квалификации	-13337
▁независимого	-13338
▁неправильные	-13339
▁общеобразова	-13340
▁определенный	-13341
▁потерпевшего	-13342
▁продемонстри	-13343
▁рассказывают	-13344
▁установление	-13345
▁человеческих	-13346
▁заканчивается	-13347
▁предоставляет	-13348
▁общественность	-13349
▁руководителями	-13350
es	-13351
пь	-13352
тә	-13353
ъе	-13354
16.	-13355
биа	-13356
вии	-13357
дев	-13358
зки	-13359
ляй	-13360
нян	-13361
рки	-13362
цио	-13363
чах	-13364
чим	-13365
▁ia	-13366
▁ес	-13367
быва	-13368
зова	-13369
кает	-13370
лать	-13371
рево	-13372
ссей	-13373
тури	-13374
▁лук	-13375
▁нат	-13376
▁ник	-13377
▁оси	-13378
▁рая	-13379
▁сия	-13380
▁уре	-13381
▁уши	-13382
▁фло	-13383
▁шот	-13384
▁эми	-13385
ально	-13386
вного	-13387
лённо	-13388
очере	-13389
преки	-13390
проку	-13391
скири	-13392
хелия	-13393
шался	-13394
▁беды	-13395
▁ввел	-13396
▁всём	-13397
▁евой	-13398
▁запи	-13399
▁изви	-13400
▁йорк	-13401
▁капи	-13402
▁лота	-13403
▁ната	-13404
▁нехо	-13405
▁подв	-13406
▁посл	-13407
▁робо	-13408
▁сана	-13409
▁слуг	-13410
▁удру	-13411
бойный	-13412
ванным	-13413
гается	-13414
ментом	-13415
нилось	-13416
нитель	-13417
ничный	-13418
носный	-13419
рожден	-13420
совича	-13421
ствиям	-13422
стречу	-13423
чливый	-13424
щенные	-13425
▁берут	-13426
▁важен	-13427
▁врача	-13428
▁входя	-13429
▁давая	-13430
▁жилье	-13431
▁ищите	-13432
▁карта	-13433
▁ковар	-13434
▁корне	-13435
▁крест	-13436
▁молча	-13437
▁нежно	-13438
▁непло	-13439
▁обеих	-13440
▁подно	-13441
▁пойди	-13442
▁помня	-13443
▁пробы	-13444
▁родил	-13445
▁танец	-13446
▁татья	-13447
вленных	-13448
еспособ	-13449
▁ассамб	-13450
▁верное	-13451
▁воздей	-13452
▁ворота	-13453
▁горожа	-13454
▁иеффая	-13455
▁медици	-13456
▁нежели	-13457
▁новыми	-13458
▁ноябрь	-13459
▁опусто	-13460
▁основу	-13461
▁отстаи	-13462
▁планов	-13463
▁поверх	-13464
▁подает	-13465
▁попали	-13466
▁руками	-13467
▁самыми	-13468
▁склады	-13469
▁сроком	-13470
▁студии	-13471
▁текста	-13472
▁увидит	-13473
▁уходит	-13474
▁членам	-13475
▁ярость	-13476
▁армении	-13477
▁большом	-13478
▁ведутся	-13479
▁вопреки	-13480
▁детской	-13481
▁желаний	-13482
▁женился	-13483
▁зависть	-13484
▁захочет	-13485
▁имеющих	-13486
▁ираклий	-13487
▁пионеры	-13488
▁поднять	-13489
▁попасть	-13490
▁разводи	-13491
▁собрали	-13492
▁спутник	-13493
▁услышат	-13494
▁училище	-13495
▁целиком	-13496
тического	-13497
▁братство	-13498
▁говорила	-13499
▁зачитать	-13500
▁любимого	-13501
▁меняется	-13502
▁народным	-13503
▁небольшо	-13504
▁незнаком	-13505
▁обрадова	-13506
▁одержать	-13507
▁означало	-13508
▁очистить	-13509
▁перерабо	-13510
▁покинуть	-13511
▁предметы	-13512
▁привязан	-13513
▁ситуаций	-13514
▁совершал	-13515
▁содержит	-13516
▁созданию	-13517
▁чувством	-13518
▁языковой	-13519
▁выступать	-13520
▁женщинами	-13521
▁качествах	-13522
▁крещением	-13523
▁междунаро	-13524
▁навстречу	-13525
▁назначить	-13526
▁отвергать	-13527
▁планирует	-13528
▁поручению	-13529
▁серьезных	-13530
▁содержать	-13531
▁сотрудник	-13532
▁абазинские	-13533
▁интересует	-13534
▁окружающие	-13535
▁оставшихся	-13536
▁остановить	-13537
▁первенства	-13538
▁приложении	-13539
▁собираются	-13540
▁содержатся	-13541
▁творчестве	-13542
▁технологий	-13543
▁встречаются	-13544
▁государству	-13545
▁комментарии	-13546
▁мужественно	-13547
▁направление	-13548
▁парламентом	-13549
▁престарелых	-13550
▁прохождения	-13551
▁разработать	-13552
▁рассмотрены	-13553
▁собеседника	-13554
▁специальной	-13555
▁специальный	-13556
▁практическую	-13557
▁раскаивается	-13558
▁человечеству	-13559
▁дружественных	-13560
▁замечательный	-13561
▁искупительную	-13562
▁наркотических	-13563
▁подразделения	-13564
▁свидетельства	-13565
▁взаимодействии	-13566
▁контролировать	-13567
▁финансирование	-13568
▁госуниверситета	-13569
жә	-13570
рх	-13571
фф	-13572
жав	-13573
риж	-13574
тце	-13575
юри	-13576
ёшь	-13577
вист	-13578
года	-13579
леты	-13580
лиас	-13581
нать	-13582
нкай	-13583
спев	-13584
фера	-13585
шник	-13586
▁104	-13587
▁14.	-13588
▁вза	-13589
▁вио	-13590
▁гео	-13591
▁заш	-13592
▁обл	-13593
▁ссо	-13594
▁уво	-13595
18.11	-13596
дария	-13597
довый	-13598
дохей	-13599
нятся	-13600
произ	-13601
рений	-13602
шатся	-13603
▁1980	-13604
▁беду	-13605
▁быто	-13606
▁вкра	-13607
▁впро	-13608
▁выта	-13609
▁геде	-13610
▁елка	-13611
▁иван	-13612
▁илью	-13613
▁лжец	-13614
▁мозг	-13615
▁наце	-13616
▁неск	-13617
▁отря	-13618
▁офис	-13619
▁тура	-13620
▁ябло	-13621
думать	-13622
женным	-13623
▁автан	-13624
▁башню	-13625
▁башня	-13626
▁врага	-13627
▁григо	-13628
▁драмы	-13629
▁жизне	-13630
▁играх	-13631
▁келеш	-13632
▁лицен	-13633
▁марию	-13634
▁марфы	-13635
▁масси	-13636
▁науру	-13637
▁отрас	-13638
▁понес	-13639
▁пошла	-13640
▁призе	-13641
▁саран	-13642
▁сарра	-13643
▁серти	-13644
▁стари	-13645
▁творя	-13646
▁текут	-13647
▁траур	-13648
▁указы	-13649
▁эрика	-13650
▁эшера	-13651
бросить	-13652
дничать	-13653
низации	-13654
скивать	-13655
тившись	-13656
▁авесса	-13657
▁апреле	-13658
▁берите	-13659
▁выдели	-13660
▁выигра	-13661
▁годами	-13662
▁громко	-13663
▁зданий	-13664
▁зрелые	-13665
▁искали	-13666
▁кварац	-13667
▁литера	-13668
▁лицами	-13669
▁марины	-13670
▁напеча	-13671
▁освеща	-13672
▁партне	-13673
▁переез	-13674
▁печать	-13675
▁подпис	-13676
▁предъя	-13677
▁растут	-13678
▁самона	-13679
▁секции	-13680
▁тотчас	-13681
▁ходили	-13682
▁японии	-13683
ствующий	-13684
▁алексея	-13685
▁арханге	-13686
▁богатый	-13687
▁быстрее	-13688
▁видения	-13689
▁внесены	-13690
▁восклик	-13691
▁выпуске	-13692
▁галском	-13693
▁городом	-13694
▁декабре	-13695
▁дружить	-13696
▁дьяволу	-13697
▁железно	-13698
▁изложен	-13699
▁камнями	-13700
▁картину	-13701
▁картины	-13702
▁лишение	-13703
▁мессией	-13704
▁находит	-13705
▁паралле	-13706
▁подумал	-13707
▁пожилым	-13708
▁простых	-13709
▁рабочий	-13710
▁разному	-13711
▁смотрел	-13712
▁увидела	-13713
▁условно	-13714
▁участки	-13715
▁февраль	-13716
▁явилось	-13717
рительный	-13718
▁автомати	-13719
▁бедствий	-13720
▁генпроку	-13721
▁заметили	-13722
▁замечать	-13723
▁запретил	-13724
▁исполнен	-13725
▁компания	-13726
▁мардохей	-13727
▁мучениям	-13728
▁означать	-13729
▁подавлен	-13730
▁подлежит	-13731
▁подобной	-13732
▁посещают	-13733
▁способов	-13734
▁способом	-13735
▁умершего	-13736
▁депутатом	-13737
▁ивановича	-13738
▁наступает	-13739
▁оппозиции	-13740
▁перестать	-13741
▁половиной	-13742
▁поступаем	-13743
▁проведены	-13744
▁произноси	-13745
▁психологи	-13746
▁разделяет	-13747
▁решимость	-13748
▁служебный	-13749
▁служителя	-13750
▁сражались	-13751
▁стремимся	-13752
▁участвуем	-13753
▁английский	-13754
▁восстанови	-13755
▁выполнение	-13756
▁задуматься	-13757
▁культурные	-13758
▁ниспослано	-13759
▁подражания	-13760
▁помазанным	-13761
▁посвящение	-13762
▁посмотрите	-13763
▁прекрасной	-13764
▁присутству	-13765
▁свидетелям	-13766
▁экспозиция	-13767
▁большинстве	-13768
▁возвещателя	-13769
▁возвращение	-13770
▁генеральной	-13771
▁инфопорталу	-13772
▁отправиться	-13773
▁приобретать	-13774
▁электроэнер	-13775
▁благоразумие	-13776
▁возвращаются	-13777
▁григорьевича	-13778
▁оборудование	-13779
▁подтверждает	-13780
▁празднованию	-13781
▁старейшинами	-13782
▁человеческое	-13783
▁международные	-13784
▁организациями	-13785
▁почувствовать	-13786
▁следовательно	-13787
▁тысячелетнего	-13788
▁инвестпрограммы	-13789
▁противодействие	-13790
▁профессионализм	-13791
▁распространение	-13792
▁художественного	-13793
al	-13794
us	-13795
бз	-13796
пн	-13797
хы	-13798
17.	-13799
ing	-13800
бин	-13801
дко	-13802
кин	-13803
льд	-13804
сие	-13805
чеб	-13806
▁81	-13807
▁wp	-13808
▁ая	-13809
▁уя	-13810
▁шт	-13811
▁эр	-13812
дара	-13813
джет	-13814
лайн	-13815
стны	-13816
ципа	-13817
▁115	-13818
▁116	-13819
▁афи	-13820
▁бах	-13821
▁вал	-13822
▁ено	-13823
▁изг	-13824
▁лат	-13825
▁мад	-13826
▁плы	-13827
▁убь	-13828
▁хищ	-13829
▁хор	-13830
думан	-13831
рассу	-13832
рядка	-13833
талки	-13834
фония	-13835
▁1988	-13836
▁ахав	-13837
▁взяв	-13838
▁воца	-13839
▁вход	-13840
▁даге	-13841
▁дару	-13842
▁залы	-13843
▁инци	-13844
▁июнь	-13845
▁крем	-13846
▁кула	-13847
▁лаша	-13848
▁масс	-13849
▁нада	-13850
▁невз	-13851
▁ниге	-13852
▁омар	-13853
▁отчу	-13854
▁пале	-13855
▁прих	-13856
▁раны	-13857
▁санд	-13858
▁убра	-13859
▁ужин	-13860
ванное	-13861
енного	-13862
женные	-13863
ленная	-13864
ленное	-13865
лётный	-13866
ология	-13867
провер	-13868
ристый	-13869
чинава	-13870
▁алиас	-13871
▁аудио	-13872
▁диуан	-13873
▁долла	-13874
▁дошко	-13875
▁думая	-13876
▁желал	-13877
▁закре	-13878
▁инвен	-13879
▁ирина	-13880
▁исраи	-13881
▁иудея	-13882
▁кадро	-13883
▁консо	-13884
▁кругу	-13885
▁лазба	-13886
▁надви	-13887
▁нелов	-13888
▁полка	-13889
▁полон	-13890
▁полях	-13891
▁похож	-13892
▁притч	-13893
▁пропи	-13894
▁пшени	-13895
▁свето	-13896
▁сопря	-13897
▁сосед	-13898
▁стада	-13899
▁сцены	-13900
▁танцы	-13901
▁угнет	-13902
▁ходят	-13903
▁цвета	-13904
▁целям	-13905
▁эдеме	-13906
государ	-13907
кивание	-13908
рованию	-13909
ционная	-13910
экономи	-13911
▁аарона	-13912
▁галаад	-13913
▁дворце	-13914
▁езекии	-13915
▁играют	-13916
▁ложным	-13917
▁неемии	-13918
▁онлайн	-13919
▁открыт	-13920
▁певица	-13921
▁писали	-13922
▁пленар	-13923
▁помнят	-13924
▁фальси	-13925
кусинкай	-13926
▁аввакум	-13927
▁анатоль	-13928
▁апсуара	-13929
▁беззако	-13930
▁бывшего	-13931
▁ведется	-13932
▁внешний	-13933
▁высокой	-13934
▁голосом	-13935
▁девочка	-13936
▁детские	-13937
▁записал	-13938
▁мужчину	-13939
▁образца	-13940
▁острова	-13941
▁пачалиа	-13942
▁перекры	-13943
▁подошел	-13944
▁покажет	-13945
▁преобра	-13946
▁проника	-13947
▁проходя	-13948
▁прошлое	-13949
▁рабочую	-13950
▁римской	-13951
▁родиной	-13952
▁родными	-13953
▁спикера	-13954
▁укрепил	-13955
▁участке	-13956
▁учебных	-13957
▁фильмов	-13958
тягивание	-13959
▁абхазфед	-13960
▁безграни	-13961
▁больнице	-13962
▁верности	-13963
▁водоснаб	-13964
▁возьмите	-13965
▁временно	-13966
▁встретил	-13967
▁даровано	-13968
▁жениться	-13969
▁избавить	-13970
▁изнасило	-13971
▁катастро	-13972
▁миротвор	-13973
▁небесным	-13974
▁немногие	-13975
▁помогала	-13976
▁предводи	-13977
▁приорите	-13978
▁приходил	-13979
▁равнодуш	-13980
▁сведений	-13981
▁совершит	-13982
▁возглавля	-13983
▁искренних	-13984
▁конкурсов	-13985
▁неприемле	-13986
▁обвинения	-13987
▁отбывания	-13988
▁подобного	-13989
▁помогайте	-13990
▁попечения	-13991
▁причиняет	-13992
▁проверить	-13993
▁работники	-13994
▁разрушить	-13995
▁ситуациям	-13996
▁следующее	-13997
▁собеседни	-13998
▁составила	-13999
▁супругами	-14000
▁усыновлен	-14001
▁характери	-14002
▁четвертый	-14003
▁библиотеке	-14004
▁вернувшись	-14005
▁заключении	-14006
▁записанных	-14007
▁исполнению	-14008
▁ненавидеть	-14009
▁основанные	-14010
▁отражается	-14011
▁подтвержда	-14012
▁показатели	-14013
▁продолжаем	-14014
▁студентами	-14015
▁устройства	-14016
▁кварацхелия	-14017
▁настольному	-14018
▁проводились	-14019
▁происходить	-14020
▁путешествие	-14021
▁слушателями	-14022
▁современный	-14023
▁демонстрации	-14024
▁окончательно	-14025
▁сексуального	-14026
▁строительных	-14027
▁несовершенных	-14028
▁многочисленные	-14029
▁представителям	-14030
if	-14031
мл	-14032
ion	-14033
бби	-14034
вия	-14035
вке	-14036
мбо	-14037
хар	-14038
чан	-14039
▁79	-14040
▁82	-14041
▁88	-14042
▁аԥ	-14043
▁бл	-14044
▁рю	-14045
▁сб	-14046
бище	-14047
нило	-14048
нись	-14049
раст	-14050
скир	-14051
тков	-14052
ённо	-14053
▁113	-14054
▁135	-14055
▁аки	-14056
▁ало	-14057
▁амо	-14058
▁изм	-14059
▁кош	-14060
▁обс	-14061
▁сет	-14062
▁скл	-14063
▁соз	-14064
▁убо	-14065
▁фар	-14066
▁хру	-14067
▁шоу	-14068
езная	-14069
ктный	-14070
ловый	-14071
пость	-14072
рести	-14073
хание	-14074
▁xvii	-14075
▁вару	-14076
▁вери	-14077
▁выки	-14078
▁выхо	-14079
▁гале	-14080
▁днях	-14081
▁коко	-14082
▁лево	-14083
▁мана	-14084
▁мост	-14085
▁набо	-14086
▁насл	-14087
▁осле	-14088
▁отка	-14089
▁офиц	-14090
▁раши	-14091
▁рыбы	-14092
▁скру	-14093
бюджет	-14094
гивать	-14095
дились	-14096
ривать	-14097
тивным	-14098
▁аҧсны	-14099
▁брига	-14100
▁всена	-14101
▁гряду	-14102
▁ждали	-14103
▁кончи	-14104
▁михей	-14105
▁напит	-14106
▁наход	-14107
▁несут	-14108
▁неуго	-14109
▁новей	-14110
▁порту	-14111
▁пресе	-14112
▁сарии	-14113
▁стань	-14114
▁улыба	-14115
▁уолле	-14116
▁черты	-14117
▁ярмар	-14118
беевича	-14119
▁бедных	-14120
▁бездей	-14121
▁блажен	-14122
▁блестя	-14123
▁боится	-14124
▁бросил	-14125
▁всяких	-14126
▁заботы	-14127
▁зависе	-14128
▁кодекс	-14129
▁колени	-14130
▁особая	-14131
▁перели	-14132
▁победе	-14133
▁подлин	-14134
▁поощря	-14135
▁похоже	-14136
▁пункты	-14137
▁скажем	-14138
▁скрыть	-14139
▁солдат	-14140
▁старый	-14141
▁страхе	-14142
▁стресс	-14143
▁толсто	-14144
▁тюрьмы	-14145
▁угнете	-14146
▁филипп	-14147
▁центри	-14148
▁чистым	-14149
▁автором	-14150
▁болезнь	-14151
▁братьях	-14152
▁брачный	-14153
▁галилей	-14154
▁дедушка	-14155
▁десятки	-14156
▁донести	-14157
▁еженеде	-14158
▁исраила	-14159
▁комисса	-14160
▁кортава	-14161
▁крупный	-14162
▁лишился	-14163
▁наличии	-14164
▁настало	-14165
▁обретем	-14166
▁оказана	-14167
▁опытных	-14168
▁оставив	-14169
▁ошибках	-14170
▁почтили	-14171
▁приемле	-14172
▁прочего	-14173
▁рабочее	-14174
▁римский	-14175
▁русских	-14176
▁сложный	-14177
▁сравнил	-14178
▁тетради	-14179
▁участву	-14180
▁учителю	-14181
▁хвалить	-14182
промышлен	-14183
▁астамура	-14184
▁домашних	-14185
▁допустим	-14186
▁животное	-14187
▁комитете	-14188
▁молодому	-14189
▁муниципа	-14190
▁народные	-14191
▁необосно	-14192
▁осмотрел	-14193
▁перечень	-14194
▁писаниях	-14195
▁побороть	-14196
▁правосла	-14197
▁преподно	-14198
▁проблеме	-14199
▁проектах	-14200
▁процесса	-14201
▁проявила	-14202
▁проявляй	-14203
▁радуются	-14204
▁случаями	-14205
▁сохранил	-14206
▁сохранит	-14207
▁стараюсь	-14208
▁убийства	-14209
фицировать	-14210
▁ближайшие	-14211
▁великолеп	-14212
▁всемирной	-14213
▁вспомните	-14214
▁выражения	-14215
▁действиях	-14216
▁диаспорой	-14217
▁заявлений	-14218
▁известные	-14219
▁нарушения	-14220
▁несчастья	-14221
▁обсуждали	-14222
▁отдохнуть	-14223
▁памятнику	-14224
▁подражаем	-14225
▁позволили	-14226
▁проповеда	-14227
▁профессии	-14228
▁проходила	-14229
▁разделить	-14230
▁разрешить	-14231
▁раскаялся	-14232
▁серьезная	-14233
▁спиритизм	-14234
▁татарстан	-14235
▁хозяйство	-14236
▁ценностей	-14237
▁английском	-14238
▁библейская	-14239
▁категориях	-14240
▁ликвидации	-14241
▁межгосудар	-14242
▁оперативно	-14243
▁поддержкой	-14244
▁подписания	-14245
▁поклонению	-14246
▁посланники	-14247
▁посольство	-14248
▁правильные	-14249
▁привлекает	-14250
▁приготовил	-14251
▁проявление	-14252
▁пятнадцати	-14253
▁различными	-14254
▁референдум	-14255
▁своевремен	-14256
▁совершении	-14257
▁владычества	-14258
▁вознаградит	-14259
▁добровольцы	-14260
▁железнодоро	-14261
▁официальным	-14262
▁подробности	-14263
▁пользовался	-14264
▁противополо	-14265
▁противостоя	-14266
▁содействует	-14267
▁традиционно	-14268
▁восстановлен	-14269
▁единственная	-14270
▁материальных	-14271
▁непревзойден	-14272
▁организованы	-14273
▁политическую	-14274
▁председателю	-14275
▁представляли	-14276
▁прояснениями	-14277
▁предупреждает	-14278
▁стихотворения	-14279
▁исследователей	-14280
▁руководствуясь	-14281
▁подготавливайте	-14282
ап	-14283
рб	-14284
бал	-14285
бою	-14286
где	-14287
гию	-14288
дый	-14289
сим	-14290
шер	-14291
▁of	-14292
▁бр	-14293
бург	-14294
еров	-14295
йдут	-14296
льти	-14297
ныне	-14298
троп	-14299
ырба	-14300
▁111	-14301
▁121	-14302
▁18.	-14303
▁189	-14304
▁вст	-14305
▁лот	-14306
▁мае	-14307
▁миг	-14308
▁отб	-14309
▁снг	-14310
▁хам	-14311
▁щит	-14312
летие	-14313
нских	-14314
прово	-14315
тарба	-14316
щиков	-14317
▁беда	-14318
▁блуд	-14319
▁взве	-14320
▁гава	-14321
▁дала	-14322
▁джар	-14323
▁дога	-14324
▁думы	-14325
▁зано	-14326
▁илий	-14327
▁инди	-14328
▁инду	-14329
▁инжи	-14330
▁июне	-14331
▁капе	-14332
▁купа	-14333
▁льго	-14334
▁марь	-14335
▁мерз	-14336
▁неду	-14337
▁омер	-14338
▁пило	-14339
▁прес	-14340
▁пьес	-14341
▁разр	-14342
▁секу	-14343
▁твоё	-14344
▁твёр	-14345
▁члоу	-14346
▁штам	-14347
сывать	-14348
терфор	-14349
торами	-14350
▁ажиба	-14351
▁берег	-14352
▁голов	-14353
▁долга	-14354
▁желез	-14355
▁казах	-14356
▁компе	-14357
▁летие	-14358
▁напар	-14359
▁нации	-14360
▁ничем	-14361
▁очерк	-14362
▁поток	-14363
▁прогу	-14364
▁решит	-14365
▁скажу	-14366
▁стиму	-14367
▁татлу	-14368
▁темой	-14369
▁хвалу	-14370
▁цитру	-14371
вленные	-14372
влялись	-14373
зненный	-14374
ционным	-14375
▁аресто	-14376
▁включи	-14377
▁возгор	-14378
▁встань	-14379
▁гаврии	-14380
▁джансу	-14381
▁джордж	-14382
▁женами	-14383
▁загряз	-14384
▁звезды	-14385
▁знайте	-14386
▁изменя	-14387
▁истреб	-14388
▁кровью	-14389
▁лабора	-14390
▁личным	-14391
▁мешает	-14392
▁мужьям	-14393
▁невест	-14394
▁незако	-14395
▁опусти	-14396
▁отвеча	-14397
▁премия	-14398
▁работо	-14399
▁свадеб	-14400
▁таково	-14401
▁турцию	-14402
▁указал	-14403
▁утраты	-14404
▁честью	-14405
▁юбилею	-14406
новением	-14407
тельству	-14408
▁бросили	-14409
▁впрочем	-14410
▁гудауты	-14411
▁детство	-14412
▁зависти	-14413
▁захария	-14414
▁инциден	-14415
▁исцелил	-14416
▁крайней	-14417
▁кутарба	-14418
▁летнего	-14419
▁меньшей	-14420
▁насилию	-14421
▁невесты	-14422
▁обучает	-14423
▁объекта	-14424
▁октябре	-14425
▁отвечая	-14426
▁отврати	-14427
▁отделом	-14428
▁питания	-14429
▁племени	-14430
▁помнишь	-14431
▁поселке	-14432
▁правосу	-14433
▁призыву	-14434
▁самуилу	-14435
▁сделаем	-14436
▁сельхоз	-14437
▁уверена	-14438
▁угодить	-14439
▁умирать	-14440
▁усынови	-14441
кидывание	-14442
нительный	-14443
▁активной	-14444
▁выходить	-14445
▁знамений	-14446
▁конфиска	-14447
▁ливневый	-14448
▁медведев	-14449
▁мирового	-14450
▁мусульма	-14451
▁нарушить	-14452
▁настроен	-14453
▁небесном	-14454
▁ободрить	-14455
▁передача	-14456
▁показано	-14457
▁понадоби	-14458
▁практике	-14459
▁принесла	-14460
▁прогнози	-14461
▁рутерфор	-14462
▁семейных	-14463
▁сильными	-14464
▁собирать	-14465
▁согрешил	-14466
▁суверени	-14467
▁уверенно	-14468
[...]
